{
  "version": "1.0",
  "truncation": null,
  "padding": null,
  "added_tokens": [
    {
      "id": 0,
      "content": "[PAD]",
      "single_word": false,
      "lstrip": false,
      "rstrip": false,
      "normalized": false,
      "special": true
    },
    {
      "id": 1,
      "content": "[UNK]",
      "single_word": false,
      "lstrip": false,
      "rstrip": false,
      "normalized": false,
      "special": true
    },
    {
      "id": 2,
      "content": "[CLS]",
      "single_word": false,
      "lstrip": false,
      "rstrip": false,
      "normalized": false,
      "special": true
    },
    {
      "id": 3,
      "content": "[MASK]",
      "single_word": false,
      "lstrip": false,
      "rstrip": false,
      "normalized": false,
      "special": true
    }
  ],
  "normalizer": null,
  "pre_tokenizer": {
    "type": "ByteLevel",
    "add_prefix_space": false,
    "trim_offsets": true,
    "use_regex": true
  },
  "post_processor": null,
  "decoder": {
    "type": "ByteLevel",
    "add_prefix_space": true,
    "trim_offsets": true,
    "use_regex": true
  },
  "model": {
    "type": "BPE",
    "dropout": null,
    "unk_token": "[UNK]",
    "continuing_subword_prefix": null,
    "end_of_word_suffix": null,
    "fuse_unk": false,
    "byte_fallback": false,
    "ignore_merges": false,
    "vocab": {
      "[PAD]": 0,
      "[UNK]": 1,
      "[CLS]": 2,
      "[MASK]": 3,
      "!": 4,
      "\"": 5,
      "#": 6,
      "$": 7,
      "%": 8,
      "&": 9,
      "'": 10,
      "(": 11,
      ")": 12,
      "*": 13,
      "+": 14,
      ",": 15,
      "-": 16,
      ".": 17,
      "/": 18,
      "0": 19,
      "1": 20,
      "2": 21,
      "3": 22,
      "4": 23,
      "5": 24,
      "6": 25,
      "7": 26,
      "8": 27,
      "9": 28,
      ":": 29,
      ";": 30,
      "<": 31,
      "=": 32,
      ">": 33,
      "?": 34,
      "@": 35,
      "A": 36,
      "B": 37,
      "C": 38,
      "D": 39,
      "E": 40,
      "F": 41,
      "G": 42,
      "H": 43,
      "I": 44,
      "J": 45,
      "K": 46,
      "L": 47,
      "M": 48,
      "N": 49,
      "O": 50,
      "P": 51,
      "Q": 52,
      "R": 53,
      "S": 54,
      "T": 55,
      "U": 56,
      "V": 57,
      "W": 58,
      "X": 59,
      "Y": 60,
      "Z": 61,
      "[": 62,
      "\\": 63,
      "]": 64,
      "^": 65,
      "_": 66,
      "`": 67,
      "a": 68,
      "b": 69,
      "c": 70,
      "d": 71,
      "e": 72,
      "f": 73,
      "g": 74,
      "h": 75,
      "i": 76,
      "j": 77,
      "k": 78,
      "l": 79,
      "m": 80,
      "n": 81,
      "o": 82,
      "p": 83,
      "q": 84,
      "r": 85,
      "s": 86,
      "t": 87,
      "u": 88,
      "v": 89,
      "w": 90,
      "x": 91,
      "y": 92,
      "z": 93,
      "{": 94,
      "|": 95,
      "}": 96,
      "~": 97,
      "¡": 98,
      "¢": 99,
      "£": 100,
      "¤": 101,
      "¥": 102,
      "¦": 103,
      "§": 104,
      "¨": 105,
      "©": 106,
      "ª": 107,
      "«": 108,
      "¬": 109,
      "®": 110,
      "¯": 111,
      "°": 112,
      "±": 113,
      "²": 114,
      "³": 115,
      "´": 116,
      "µ": 117,
      "¶": 118,
      "·": 119,
      "¸": 120,
      "¹": 121,
      "º": 122,
      "»": 123,
      "¼": 124,
      "½": 125,
      "¾": 126,
      "¿": 127,
      "Â": 128,
      "Ã": 129,
      "Ä": 130,
      "Å": 131,
      "Æ": 132,
      "Ç": 133,
      "È": 134,
      "É": 135,
      "Ê": 136,
      "Ë": 137,
      "Ì": 138,
      "Í": 139,
      "Î": 140,
      "Ï": 141,
      "Ð": 142,
      "Ñ": 143,
      "Ò": 144,
      "Ó": 145,
      "Ô": 146,
      "Õ": 147,
      "Ö": 148,
      "×": 149,
      "Ø": 150,
      "Ù": 151,
      "Ú": 152,
      "Û": 153,
      "Ü": 154,
      "Ý": 155,
      "Þ": 156,
      "ß": 157,
      "à": 158,
      "á": 159,
      "â": 160,
      "ã": 161,
      "ä": 162,
      "å": 163,
      "æ": 164,
      "ç": 165,
      "è": 166,
      "é": 167,
      "ê": 168,
      "ë": 169,
      "ì": 170,
      "í": 171,
      "î": 172,
      "ï": 173,
      "ð": 174,
      "Ā": 175,
      "ā": 176,
      "Ă": 177,
      "Ą": 178,
      "ą": 179,
      "Ć": 180,
      "ć": 181,
      "Ĉ": 182,
      "ĉ": 183,
      "Ċ": 184,
      "ċ": 185,
      "Č": 186,
      "č": 187,
      "Ď": 188,
      "Đ": 189,
      "đ": 190,
      "Ē": 191,
      "ē": 192,
      "Ĕ": 193,
      "ĕ": 194,
      "Ė": 195,
      "ė": 196,
      "Ę": 197,
      "ę": 198,
      "Ě": 199,
      "ě": 200,
      "Ĝ": 201,
      "ĝ": 202,
      "Ğ": 203,
      "ğ": 204,
      "Ġ": 205,
      "ġ": 206,
      "Ģ": 207,
      "ģ": 208,
      "Ĥ": 209,
      "ĥ": 210,
      "Ħ": 211,
      "ħ": 212,
      "Ĩ": 213,
      "ĩ": 214,
      "Ī": 215,
      "ī": 216,
      "Ĭ": 217,
      "ĭ": 218,
      "Į": 219,
      "į": 220,
      "İ": 221,
      "ı": 222,
      "Ĳ": 223,
      "ĳ": 224,
      "Ĵ": 225,
      "ĵ": 226,
      "Ķ": 227,
      "ķ": 228,
      "ĸ": 229,
      "Ĺ": 230,
      "ĺ": 231,
      "Ļ": 232,
      "ļ": 233,
      "Ľ": 234,
      "ľ": 235,
      "Ŀ": 236,
      "ŀ": 237,
      "Ł": 238,
      "ł": 239,
      "Ń": 240,
      "ĠĠ": 241,
      "ĠĠĠĠ": 242,
      "in": 243,
      "Ġt": 244,
      "on": 245,
      "Ġa": 246,
      "re": 247,
      "at": 248,
      "st": 249,
      "er": 250,
      "Ġc": 251,
      "ro": 252,
      "he": 253,
      "Ġ\"": 254,
      "Ġs": 255,
      "le": 256,
      "nd": 257,
      "or": 258,
      "ĠĠĠ": 259,
      "Ġp": 260,
      "it": 261,
      "es": 262,
      "al": 263,
      "Ġf": 264,
      "Ġthe": 265,
      "en": 266,
      "ion": 267,
      "\":": 268,
      "ut": 269,
      "ĠĠĠĠĠĠĠĠ": 270,
      "Ġw": 271,
      "ma": 272,
      "ot": 273,
      "om": 274,
      "ed": 275,
      "ing": 276,
      "ur": 277,
      "Ġb": 278,
      "Ġ-": 279,
      "ct": 280,
      "Ġd": 281,
      "Ġi": 282,
      "an": 283,
      "Ġin": 284,
      "Ġn": 285,
      "Ġto": 286,
      "as": 287,
      "Ġ=": 288,
      "Ġl": 289,
      "Ġ1": 290,
      "Ġe": 291,
      "ĊĠĠĠ": 292,
      "ĠĠĠĠĠ": 293,
      "ar": 294,
      "ation": 295,
      "ĊĠĠĠĠĠ": 296,
      "Ġ0": 297,
      "ap": 298,
      "Ġ(": 299,
      "et": 300,
      "ac": 301,
      "Ġand": 302,
      "Ġre": 303,
      "Ġo": 304,
      "ke": 305,
      "un": 306,
      "ent": 307,
      "\",": 308,
      "de": 309,
      "us": 310,
      "root": 311,
      "ol": 312,
      "Ġ{": 313,
      "Ġfor": 314,
      "Ġcom": 315,
      "am": 316,
      "ĊĠ": 317,
      "Ġ2": 318,
      "il": 319,
      "Ġm": 320,
      "is": 321,
      "mand": 322,
      "app": 323,
      "key": 324,
      "Ġ}": 325,
      "Ġ'": 326,
      "uration": 327,
      "ic": 328,
      "Ġst": 329,
      "kes": 330,
      "stro": 331,
      "keystro": 332,
      "keystrokes": 333,
      "ib": 334,
      "\\\\": 335,
      "..": 336,
      "ate": 337,
      "te": 338,
      "ple": 339,
      "ĠT": 340,
      "Ġv": 341,
      "int": 342,
      "xt": 343,
      "ec": 344,
      "ith": 345,
      "Ġcon": 346,
      "id": 347,
      "ul": 348,
      "00": 349,
      "duration": 350,
      "pt": 351,
      "ad": 352,
      "com": 353,
      "se": 354,
      "put": 355,
      "th": 356,
      "ĠĠĠĠĠĠĠ": 357,
      ":/": 358,
      "\\\"": 359,
      "Ġwith": 360,
      "ect": 361,
      "Ġif": 362,
      "Ġbe": 363,
      "Ġ/": 364,
      "Ġpro": 365,
      "ri": 366,
      "Ġg": 367,
      "ve": 368,
      "ho": 369,
      "ble": 370,
      "lo": 371,
      "Ġ<": 372,
      "Ġis": 373,
      "ĠC": 374,
      "ge": 375,
      "Ġcommand": 376,
      "Ġex": 377,
      "Ġr": 378,
      "pl": 379,
      "ĠI": 380,
      "Ġy": 381,
      "ist": 382,
      "Ġof": 383,
      "Ġma": 384,
      "um": 385,
      "ile": 386,
      "ir": 387,
      "ub": 388,
      "Ġ[": 389,
      "ou": 390,
      "Ġne": 391,
      "Ġh": 392,
      "ĠP": 393,
      "Ġ},": 394,
      "qu": 395,
      "unt": 396,
      "ĠN": 397,
      "ly": 398,
      "im": 399,
      "ĠO": 400,
      "Ġroot": 401,
      "ver": 402,
      "ig": 403,
      "ack": 404,
      "Ġ3": 405,
      "py": 406,
      "ce": 407,
      "ine": 408,
      "ĠA": 409,
      "if": 410,
      "up": 411,
      "ĠS": 412,
      ")\\": 413,
      "ask": 414,
      "ch": 415,
      "Ġ>": 416,
      "utput": 417,
      "Ġth": 418,
      "ys": 419,
      "el": 420,
      "64": 421,
      ":\\": 422,
      "ort": 423,
      "Ġlib": 424,
      "est": 425,
      "Ġan": 426,
      "ra": 427,
      "Ġ+": 428,
      "thon": 429,
      "ment": 430,
      "inal": 431,
      "erm": 432,
      "ss": 433,
      "able": 434,
      "Ġon": 435,
      "Ġnot": 436,
      "rint": 437,
      "ure": 438,
      "nt": 439,
      "ill": 440,
      "md": 441,
      "ĠĠĠĠĠĠĠĠĠĠĠ": 442,
      "Ġor": 443,
      "ĠD": 444,
      "untu": 445,
      "plete": 446,
      ");": 447,
      "ject": 448,
      "Ġus": 449,
      "ace": 450,
      "ong": 451,
      "ubuntu": 452,
      "oc": 453,
      "ame": 454,
      "ue": 455,
      "Ġint": 456,
      "all": 457,
      "pro": 458,
      "vi": 459,
      "ant": 460,
      "po": 461,
      "ll": 462,
      "ire": 463,
      "ĠR": 464,
      "...": 465,
      "port": 466,
      "ata": 467,
      "ĠThe": 468,
      "xr": 469,
      "ers": 470,
      "()": 471,
      "our": 472,
      "ĠE": 473,
      "Ġcont": 474,
      "ython": 475,
      "Ġ4": 476,
      "Ġpre": 477,
      "ĠM": 478,
      "Ġsol": 479,
      "Ġas": 480,
      "ess": 481,
      "Ġse": 482,
      "Ġfile": 483,
      "--": 484,
      "Ġno": 485,
      "em": 486,
      ".\",": 487,
      "Ġwill": 488,
      "cri": 489,
      "ĠB": 490,
      "__": 491,
      "cript": 492,
      "sp": 493,
      "Ġ<<": 494,
      "ult": 495,
      "ds": 496,
      "ĠF": 497,
      "erminal": 498,
      "ht": 499,
      "Ġyou": 500,
      "ore": 501,
      "ive": 502,
      "ĠW": 503,
      "ass": 504,
      "rent": 505,
      "ep": 506,
      "Ġ...": 507,
      "Ġk": 508,
      "age": 509,
      "txt": 510,
      "ef": 511,
      "Ġ|": 512,
      "la": 513,
      "Ġby": 514,
      "ĠĠĠĠĠĠĠĠĠĠĠĠĠĠĠĠ": 515,
      ".\\": 516,
      "Ġcommands": 517,
      "ain": 518,
      "act": 519,
      "Ġtest": 520,
      "Ġlong": 521,
      "bas": 522,
      "],": 523,
      "urn": 524,
      "Ġ5": 525,
      "command": 526,
      "rw": 527,
      "Ġit": 528,
      "ff": 529,
      "20": 530,
      "get": 531,
      "and": 532,
      "ach": 533,
      "Ġthat": 534,
      "Ġprint": 535,
      "dd": 536,
      "ample": 537,
      "ter": 538,
      "ated": 539,
      "Ġret": 540,
      "main": 541,
      "Ġpl": 542,
      "Ġ#": 543,
      "ork": 544,
      "out": 545,
      "10": 546,
      "Ġen": 547,
      "Ġup": 548,
      "low": 549,
      "ĠL": 550,
      "Ġ--": 551,
      "iz": 552,
      "Ġrun": 553,
      "Ġ\\\"": 554,
      "Ġreturn": 555,
      "OF": 556,
      "Ġoutput": 557,
      "cl": 558,
      "Ġtask": 559,
      "Ġ*": 560,
      "mo": 561,
      "urrent": 562,
      "ew": 563,
      "alys": 564,
      "ial": 565,
      "alysis": 566,
      ";\\": 567,
      "Ġun": 568,
      "pe": 569,
      "old": 570,
      "Ġle": 571,
      "Ġsho": 572,
      "Ġtr": 573,
      "ution": 574,
      "rom": 575,
      "ite": 576,
      "Ġmain": 577,
      "ql": 578,
      "ory": 579,
      "Ġare": 580,
      "Ġwh": 581,
      "plan": 582,
      "complete": 583,
      "task": 584,
      "art": 585,
      "Ġpo": 586,
      "cat": 587,
      "Ġim": 588,
      "cc": 589,
      "Ġval": 590,
      "Ġinst": 591,
      "Ġpython": 592,
      "Ġco": 593,
      "line": 594,
      "ĠĠĠĠĠĠĠĠĠĠĠĠ": 595,
      "Ġcan": 596,
      "ĠNo": 597,
      "Ġdata": 598,
      "Ġ6": 599,
      "12": 600,
      "ls": 601,
      "Ġap": 602,
      "ext": 603,
      "Ġstr": 604,
      "per": 605,
      "Ġ==": 606,
      "con": 607,
      "analysis": 608,
      "ag": 609,
      "one": 610,
      "ild": 611,
      "99": 612,
      "alse": 613,
      "tt": 614,
      "Ġhe": 615,
      "ign": 616,
      "commands": 617,
      "uct": 618,
      "Ġnew": 619,
      "ecut": 620,
      "Ġnext": 621,
      "ck": 622,
      "end": 623,
      "uld": 624,
      "',": 625,
      "Ġver": 626,
      "ip": 627,
      "ab": 628,
      "pos": 629,
      "Ġ.": 630,
      "ase": 631,
      "ange": 632,
      "iv": 633,
      "econ": 634,
      "Ġset": 635,
      "Ġres": 636,
      "user": 637,
      "Ġx": 638,
      "ify": 639,
      "'\\": 640,
      "ions": 641,
      "irect": 642,
      "for": 643,
      "her": 644,
      "ust": 645,
      "Ġwe": 646,
      "ON": 647,
      "Ġsolution": 648,
      "Ġline": 649,
      "ity": 650,
      "ex": 651,
      "co": 652,
      "ay": 653,
      "uild": 654,
      "istant": 655,
      ").": 656,
      "ĠJ": 657,
      "The": 658,
      "ca": 659,
      "EOF": 660,
      "Ġcomplete": 661,
      "rwxr": 662,
      "Ġsp": 663,
      "ĠY": 664,
      "Ġfrom": 665,
      "Ġmo": 666,
      "Ġyour": 667,
      "arch": 668,
      "),": 669,
      "Ġj": 670,
      "lect": 671,
      "ail": 672,
      "Ġneed": 673,
      "Ġch": 674,
      "Ġconf": 675,
      "('": 676,
      "cho": 677,
      "umb": 678,
      "ind": 679,
      "ous": 680,
      "drwxr": 681,
      "://": 682,
      "bash": 683,
      "Ġ],": 684,
      "Ġscript": 685,
      "lib": 686,
      "name": 687,
      "apt": 688,
      "11": 689,
      "ning": 690,
      "ĠĠĠĠĠĠĠĠĠĠĠĠĠĠĠ": 691,
      "Ġall": 692,
      "Ġstep": 693,
      "ath": 694,
      "ait": 695,
      "Ġsecon": 696,
      "Ġexecut": 697,
      "to": 698,
      "Ġcre": 699,
      "25": 700,
      "Ġterminal": 701,
      "$$": 702,
      "sh": 703,
      "Ġdirect": 704,
      "ies": 705,
      "Ġecho": 706,
      "ize": 707,
      "pack": 708,
      "Ġshould": 709,
      "ME": 710,
      "Ġat": 711,
      "âĢ": 712,
      "ull": 713,
      "Ġ10": 714,
      "amd": 715,
      "ide": 716,
      "Ġcurrent": 717,
      "vious": 718,
      "assistant": 719,
      "Ġrange": 720,
      "Ġfalse": 721,
      "Ġend": 722,
      "Ġwhe": 723,
      "Ġcor": 724,
      "tr": 725,
      "Ġadd": 726,
      "Ġpack": 727,
      "ates": 728,
      "EA": 729,
      "ĠTerminal": 730,
      "Ġqu": 731,
      "ttp": 732,
      "print": 733,
      "ĠIf": 734,
      "fa": 735,
      "))": 736,
      "Ġwait": 737,
      "ound": 738,
      "Ġhttp": 739,
      "Ġal": 740,
      "oo": 741,
      "Ġel": 742,
      "rect": 743,
      "Ġfi": 744,
      "Ġinput": 745,
      "Ġar": 746,
      "otal": 747,
      ");\\": 748,
      "43": 749,
      "ow": 750,
      "**": 751,
      "):": 752,
      "SON": 753,
      "Ġ&": 754,
      "Ġamd": 755,
      "17": 756,
      "Ġsample": 757,
      "ting": 758,
      "ĠG": 759,
      "ud": 760,
      "gr": 761,
      "Ġproject": 762,
      "Ġro": 763,
      "ĠNov": 764,
      "':": 765,
      "^^": 766,
      "ĊĊ": 767,
      "ser": 768,
      "fore": 769,
      "Ġseconds": 770,
      "mp": 771,
      "80": 772,
      "40": 773,
      "che": 774,
      "++": 775,
      "Ġbas": 776,
      "Ġcorrect": 777,
      "fe": 778,
      "ER": 779,
      "Ġeach": 780,
      "db": 781,
      "ĠOutput": 782,
      "ĠJSON": 783,
      "project": 784,
      "Ġthen": 785,
      "str": 786,
      "wo": 787,
      "Ġcontain": 788,
      "Ġtrue": 789,
      "ord": 790,
      "Ġbefore": 791,
      "Ġmin": 792,
      "quire": 793,
      "work": 794,
      "Ġfiles": 795,
      "45": 796,
      "vide": 797,
      "und": 798,
      "umber": 799,
      "Ġduration": 800,
      "Ġspec": 801,
      "23": 802,
      "ry": 803,
      "ĠU": 804,
      "Ġdes": 805,
      "Ġsteps": 806,
      "Ġhas": 807,
      "IN": 808,
      "ollow": 809,
      "iver": 810,
      "Ġid": 811,
      "ĠIn": 812,
      "python": 813,
      "15": 814,
      "rep": 815,
      "ient": 816,
      "0000": 817,
      "Ġfollow": 818,
      "LE": 819,
      "ng": 820,
      "Ġtwo": 821,
      "EAD": 822,
      "hold": 823,
      "ml": 824,
      "24": 825,
      "ĠCom": 826,
      "Ġresult": 827,
      "ight": 828,
      "js": 829,
      "Ġelse": 830,
      "Ġinstall": 831,
      "val": 832,
      "Ġmax": 833,
      "irm": 834,
      "):\\": 835,
      "Ġprevious": 836,
      "16": 837,
      "read": 838,
      "Ġde": 839,
      "std": 840,
      "14": 841,
      "Ġcat": 842,
      "Ġdirectory": 843,
      "fter": 844,
      "are": 845,
      "acehold": 846,
      "ard": 847,
      "PY": 848,
      "mat": 849,
      "vid": 850,
      "ional": 851,
      "vir": 852,
      "Ġstate": 853,
      "hat": 854,
      "bin": 855,
      "Ġgit": 856,
      "viron": 857,
      "){": 858,
      "du": 859,
      ".,": 860,
      "EADME": 861,
      "sql": 862,
      "his": 863,
      "##": 864,
      "enc": 865,
      "dev": 866,
      "og": 867,
      "'s": 868,
      "sv": 869,
      "Ġwork": 870,
      "Ġthis": 871,
      "les": 872,
      "Ġexist": 873,
      "Ġed": 874,
      "ĠOct": 875,
      "Ġpackage": 876,
      "]\\": 877,
      "Ġcol": 878,
      "vironment": 879,
      "ime": 880,
      "ĠPython": 881,
      "cd": 882,
      "ang": 883,
      "ĠV": 884,
      "ise": 885,
      "48": 886,
      "Ġsub": 887,
      "Ġ>>": 888,
      "13": 889,
      "Ġplan": 890,
      "Ġsu": 891,
      "mpt": 892,
      "pre": 893,
      "build": 894,
      "irst": 895,
      "ĠH": 896,
      "space": 897,
      "Ġnewline": 898,
      "Ġresp": 899,
      "47": 900,
      "Ġsys": 901,
      "ther": 902,
      "Ġ7": 903,
      "apture": 904,
      "Ġ//": 905,
      "Ġnoble": 906,
      "heck": 907,
      "18": 908,
      "Ġusing": 909,
      "other": 910,
      "ucture": 911,
      "Ġverify": 912,
      "ĠPro": 913,
      "Ġexact": 914,
      "dir": 915,
      "file": 916,
      "atus": 917,
      "46": 918,
      "Ġâ": 919,
      "ible": 920,
      "Ġdef": 921,
      "][": 922,
      "49": 923,
      "Ġ\\": 924,
      "ice": 925,
      "ines": 926,
      "ree": 927,
      "19": 928,
      "ets": 929,
      "Ġsum": 930,
      "log": 931,
      "eb": 932,
      "output": 933,
      "ener": 934,
      "ector": 935,
      "led": 936,
      "archive": 937,
      "ude": 938,
      "form": 939,
      "Re": 940,
      "Ġenvironment": 941,
      "etting": 942,
      "no": 943,
      "Ġinte": 944,
      "Ġprovid": 945,
      "Ġass": 946,
      "plement": 947,
      "Ġag": 948,
      "Ġfound": 949,
      "data": 950,
      "Ġconfirm": 951,
      "Ġstructure": 952,
      "ĠWhat": 953,
      "clude": 954,
      "av": 955,
      "Ġans": 956,
      "sent": 957,
      "ob": 958,
      "ak": 959,
      "test": 960,
      "null": 961,
      "ft": 962,
      "posal": 963,
      "Ġexp": 964,
      "Ġany": 965,
      "env": 966,
      "ror": 967,
      "Ġkeystrokes": 968,
      "bo": 969,
      "Ġwhen": 970,
      "ont": 971,
      "ype": 972,
      "Ġuse": 973,
      "Ġ}\\": 974,
      "cre": 975,
      "pp": 976,
      "RO": 977,
      "rib": 978,
      "86": 979,
      "Ġ$": 980,
      "ĠkB": 981,
      "pen": 982,
      "os": 983,
      "Ġvalid": 984,
      "Ġbut": 985,
      "git": 986,
      "Ġnumber": 987,
      "Ġappro": 988,
      "Ġcontent": 989,
      "ĠThis": 990,
      "QL": 991,
      "Ġlist": 992,
      "ans": 993,
      "01": 994,
      "df": 995,
      "doc": 996,
      "Ġls": 997,
      "date": 998,
      "Ġav": 999,
      "Ġrespon": 1000,
      "Ġ8": 1001,
      "Ġdel": 1002,
      "ables": 1003,
      "Ġper": 1004,
      "ix": 1005,
      "ps": 1006,
      "Ġ+=": 1007,
      "âĶ": 1008,
      "Ġsm": 1009,
      "Ġdoc": 1010,
      "Ġob": 1011,
      "aceholder": 1012,
      "ave": 1013,
      "Ġsolve": 1014,
      "Setting": 1015,
      "])": 1016,
      "aa": 1017,
      "der": 1018,
      "ations": 1019,
      "In": 1020,
      "ee": 1021,
      "28": 1022,
      "Ġwant": 1023,
      "26": 1024,
      "\\\\\\\\": 1025,
      "itial": 1026,
      "lc": 1027,
      "Ġ**": 1028,
      "Ġcl": 1029,
      "Ġdet": 1030,
      "000": 1031,
      "append": 1032,
      "ick": 1033,
      "Ġpreviously": 1034,
      "27": 1035,
      "esc": 1036,
      "Ġso": 1037,
      "yst": 1038,
      "ĠOn": 1039,
      "lean": 1040,
      "ance": 1041,
      "Ġout": 1042,
      "33": 1043,
      "ific": 1044,
      "29": 1045,
      "ux": 1046,
      "ray": 1047,
      "ction": 1048,
      "</": 1049,
      "ary": 1050,
      "Ġac": 1051,
      "Ġ<=": 1052,
      "ast": 1053,
      "Ġsame": 1054,
      "rite": 1055,
      "ĠCommand": 1056,
      "Ġ20": 1057,
      "usr": 1058,
      "blem": 1059,
      "Ġimport": 1060,
      "Ġafter": 1061,
      "ĠNew": 1062,
      "Ġresponse": 1063,
      "ual": 1064,
      "50": 1065,
      "let": 1066,
      "ints": 1067,
      "Ġexecuted": 1068,
      "SE": 1069,
      "Get": 1070,
      "Ġhead": 1071,
      "xtra": 1072,
      "back": 1073,
      "url": 1074,
      "ĠRe": 1075,
      "printf": 1076,
      "fault": 1077,
      "ating": 1078,
      "default": 1079,
      "Ġimplement": 1080,
      "30": 1081,
      "Ġcreate": 1082,
      "Ġtext": 1083,
      "Ġsmall": 1084,
      "quired": 1085,
      "Ġfind": 1086,
      "wise": 1087,
      "39": 1088,
      "='": 1089,
      "sure": 1090,
      "Ġlog": 1091,
      "()\\": 1092,
      "Ġcheck": 1093,
      "edi": 1094,
      "Ġdo": 1095,
      "Ġpath": 1096,
      "NT": 1097,
      "cription": 1098,
      "quest": 1099,
      "ments": 1100,
      "ected": 1101,
      "Ġthem": 1102,
      "workspace": 1103,
      "Ġvector": 1104,
      "Ġcomm": 1105,
      "io": 1106,
      "ws": 1107,
      "tmp": 1108,
      "35": 1109,
      "ĠYour": 1110,
      "its": 1111,
      "Ġstatus": 1112,
      "âĶģ": 1113,
      "Ġuser": 1114,
      "$$$": 1115,
      "json": 1116,
      "')": 1117,
      "cess": 1118,
      "Ġpresent": 1119,
      "rig": 1120,
      "90": 1121,
      "87": 1122,
      "Ġad": 1123,
      "Ġ||": 1124,
      "Ġcomp": 1125,
      "Ġ%": 1126,
      "97": 1127,
      "Ġagain": 1128,
      "Ġsequ": 1129,
      "Ġstart": 1130,
      "ues": 1131,
      "Ġsee": 1132,
      "âĶģâĶģ": 1133,
      "Ġdist": 1134,
      "cont": 1135,
      "Ġconcat": 1136,
      "55": 1137,
      "Ġfirst": 1138,
      "Ġstring": 1139,
      "Ġlonger": 1140,
      "cb": 1141,
      "Ġgr": 1142,
      "60": 1143,
      "Ġread": 1144,
      "];": 1145,
      "Ġconcaten": 1146,
      "alled": 1147,
      "Ġrunning": 1148,
      "].": 1149,
      "rk": 1150,
      "AR": 1151,
      "ccess": 1152,
      "Ġpa": 1153,
      "OR": 1154,
      "ink": 1155,
      "cept": 1156,
      "ument": 1157,
      "deb": 1158,
      "Ġcount": 1159,
      "enable": 1160,
      "CT": 1161,
      "().": 1162,
      "caff": 1163,
      "be": 1164,
      "44": 1165,
      "iven": 1166,
      "ST": 1167,
      "Ġser": 1168,
      "ĠK": 1169,
      "Ġconst": 1170,
      "man": 1171,
      "Ġmat": 1172,
      "error": 1173,
      "af": 1174,
      "Ġfinal": 1175,
      "Ġhand": 1176,
      "set": 1177,
      "Ġgener": 1178,
      "ays": 1179,
      "Ġkey": 1180,
      "ĠREADME": 1181,
      "caffold": 1182,
      "ich": 1183,
      "nc": 1184,
      "arning": 1185,
      "ages": 1186,
      "html": 1187,
      "nEOF": 1188,
      "AT": 1189,
      "88": 1190,
      "Ġproper": 1191,
      "rit": 1192,
      "ailable": 1193,
      "rol": 1194,
      "ĠFor": 1195,
      "elds": 1196,
      "Ġinstalled": 1197,
      "ug": 1198,
      "Ġâī": 1199,
      "idx": 1200,
      "long": 1201,
      "pa": 1202,
      "Ġloc": 1203,
      "ĠĠĠĠĠĠĠĠĠĠĠĠĠĠĠĠĠĠĠ": 1204,
      "21": 1205,
      "bb": 1206,
      "Ġshe": 1207,
      "Ġbest": 1208,
      "not": 1209,
      "Ġ<<'": 1210,
      "ence": 1211,
      "96": 1212,
      "Ġab": 1213,
      "Ġobject": 1214,
      "res": 1215,
      "dex": 1216,
      "ĠEOF": 1217,
      "Ġnode": 1218,
      "Ġme": 1219,
      "Ġ__": 1220,
      "Ġtotal": 1221,
      "Pro": 1222,
      "ĠYou": 1223,
      "Ġanother": 1224,
      "ute": 1225,
      "csv": 1226,
      "rb": 1227,
      "iverables": 1228,
      "total": 1229,
      "ases": 1230,
      "Ġgiven": 1231,
      "56": 1232,
      "==": 1233,
      "Ġback": 1234,
      "**:": 1235,
      "Ġ&&": 1236,
      "Ġexactly": 1237,
      "rand": 1238,
      "37": 1239,
      "Ġscaffold": 1240,
      "Ġthan": 1241,
      "Ġhave": 1242,
      "import": 1243,
      "Ġbash": 1244,
      "hed": 1245,
      "echo": 1246,
      "Ġwarning": 1247,
      "))\\": 1248,
      "36": 1249,
      ">\\": 1250,
      "Ġho": 1251,
      "ery": 1252,
      "âĢĻ": 1253,
      "Ġâī¤": 1254,
      "sing": 1255,
      "aring": 1256,
      "*.": 1257,
      "lecting": 1258,
      "Ġ31": 1259,
      "ia": 1260,
      "Ġinitial": 1261,
      "Ġwhile": 1262,
      "ish": 1263,
      "Ġfollowed": 1264,
      "base": 1265,
      "wer": 1266,
      "Ġconcatenated": 1267,
      "Se": 1268,
      "next": 1269,
      "^^^^": 1270,
      "Ġplaceholder": 1271,
      "04": 1272,
      "Ġensure": 1273,
      "ical": 1274,
      "lease": 1275,
      "Un": 1276,
      "Ġproblem": 1277,
      "Ġpos": 1278,
      "OD": 1279,
      "min": 1280,
      "Ġprovided": 1281,
      "select": 1282,
      "col": 1283,
      "ssible": 1284,
      "22": 1285,
      "Ġsh": 1286,
      "ĠOther": 1287,
      "Ġpar": 1288,
      "Ġpref": 1289,
      "Ġtests": 1290,
      "use": 1291,
      "ĠOtherwise": 1292,
      "vers": 1293,
      "57": 1294,
      "Ġexecute": 1295,
      "Ġshell": 1296,
      "ptional": 1297,
      "ystem": 1298,
      "Ġcontains": 1299,
      "Ġone": 1300,
      "capture": 1301,
      "Ġchar": 1302,
      "gether": 1303,
      "Ġexists": 1304,
      "Ġ_": 1305,
      "Ġmake": 1306,
      "Ġconfig": 1307,
      "Ġ..": 1308,
      "Ġminim": 1309,
      "Ġtogether": 1310,
      "ences": 1311,
      "ook": 1312,
      "escap": 1313,
      "Ġresults": 1314,
      "Ġq": 1315,
      "59": 1316,
      "des": 1317,
      "=\"": 1318,
      "89": 1319,
      "leton": 1320,
      "ches": 1321,
      "Ġproposal": 1322,
      "ger": 1323,
      "side": 1324,
      "Ġprovide": 1325,
      "Ġ./": 1326,
      "reate": 1327,
      "del": 1328,
      "ics": 1329,
      "run": 1330,
      "elf": 1331,
      "keleton": 1332,
      "42": 1333,
      "Ġlibx": 1334,
      "ediate": 1335,
      "Ġidx": 1336,
      "Ġbeen": 1337,
      "Ġlen": 1338,
      "Ġcases": 1339,
      "max": 1340,
      "Ġwhich": 1341,
      "Ġinclude": 1342,
      "100": 1343,
      "Ġtar": 1344,
      "view": 1345,
      "Ġprintf": 1346,
      "plit": 1347,
      "lock": 1348,
      "Current": 1349,
      "oth": 1350,
      "399": 1351,
      "dic": 1352,
      "Ġunpack": 1353,
      "Ġapproach": 1354,
      "Ġ++": 1355,
      "=\\\"": 1356,
      "ished": 1357,
      "mail": 1358,
      "dates": 1359,
      "Prep": 1360,
      "packing": 1361,
      "ading": 1362,
      "Unpacking": 1363,
      "selected": 1364,
      "Ġmark": 1365,
      "Preparing": 1366,
      "Ġ.../": 1367,
      "Ġ9": 1368,
      "Ġavailable": 1369,
      "Ġu": 1370,
      "rc": 1371,
      "ost": 1372,
      "kdir": 1373,
      "par": 1374,
      "da": 1375,
      "Ġescap": 1376,
      "Ġ!": 1377,
      "own": 1378,
      "Ġunselected": 1379,
      "Ġsim": 1380,
      "Selecting": 1381,
      "ph": 1382,
      "Ġself": 1383,
      "SQL": 1384,
      "Ġtasks": 1385,
      "imit": 1386,
      "Ġgo": 1387,
      "ns": 1388,
      "Ġfields": 1389,
      "Ġcommit": 1390,
      "gro": 1391,
      "ĠEx": 1392,
      "Ġinter": 1393,
      "fb": 1394,
      "Ġpossible": 1395,
      "Ġaut": 1396,
      "duct": 1397,
      "Ġpri": 1398,
      "38": 1399,
      "LECT": 1400,
      "lines": 1401,
      "ock": 1402,
      "Ġsequences": 1403,
      "Ġwarnings": 1404,
      "Ġpart": 1405,
      "Ġact": 1406,
      "li": 1407,
      "tar": 1408,
      "Ġman": 1409,
      "path": 1410,
      ">/": 1411,
      "67": 1412,
      "mary": 1413,
      "nal": 1414,
      "Ġedge": 1415,
      "Ġcons": 1416,
      "AB": 1417,
      "ges": 1418,
      "Ġused": 1419,
      "Ġ{\\": 1420,
      "ĠRun": 1421,
      "esp": 1422,
      "cpp": 1423,
      "we": 1424,
      "Ġsent": 1425,
      "Ġspecial": 1426,
      "ĠCreate": 1427,
      "kend": 1428,
      "Ġwithin": 1429,
      "Ġbet": 1430,
      "ndef": 1431,
      "Ġ02": 1432,
      "Ġclean": 1433,
      "ackend": 1434,
      "Ġca": 1435,
      "Ġerror": 1436,
      "Ġcontin": 1437,
      "Ġover": 1438,
      "compl": 1439,
      "\\\":": 1440,
      "gre": 1441,
      "Ġ->": 1442,
      "(\\\"": 1443,
      "Ġmust": 1444,
      "31": 1445,
      "07": 1446,
      "red": 1447,
      "stri": 1448,
      "ES": 1449,
      "85": 1450,
      "Ġpol": 1451,
      "ush": 1452,
      "Ġ60": 1453,
      "comm": 1454,
      "nimport": 1455,
      "Ġsql": 1456,
      "Ġindic": 1457,
      "Ġadj": 1458,
      "Ġanswer": 1459,
      "./": 1460,
      "41": 1461,
      "Ġaccompl": 1462,
      "reak": 1463,
      "ome": 1464,
      ">&": 1465,
      "ba": 1466,
      "inux": 1467,
      "cf": 1468,
      "posit": 1469,
      "htt": 1470,
      "defaults": 1471,
      "eline": 1472,
      "trl": 1473,
      "Ġwhat": 1474,
      "Ġwas": 1475,
      "Ġwithout": 1476,
      "ysql": 1477,
      "aph": 1478,
      "ens": 1479,
      "Ġ23": 1480,
      "ĠCtrl": 1481,
      "66": 1482,
      "Ġabout": 1483,
      "Ġfollowing": 1484,
      "ROM": 1485,
      "Ġorder": 1486,
      "util": 1487,
      "Ġdis": 1488,
      "ĠDes": 1489,
      "IM": 1490,
      "77": 1491,
      "Ġname": 1492,
      "empl": 1493,
      "Ġextra": 1494,
      "conf": 1495,
      "rue": 1496,
      "oin": 1497,
      "sum": 1498,
      "cal": 1499,
      "split": 1500,
      "tend": 1501,
      "Ġthere": 1502,
      "tool": 1503,
      "Ġoutputs": 1504,
      "ĠMOD": 1505,
      "Ġrequest": 1506,
      "mpty": 1507,
      "Ġcontinue": 1508,
      "Ġcharact": 1509,
      "yle": 1510,
      "Ġdep": 1511,
      "32": 1512,
      "02": 1513,
      "right": 1514,
      "Ġassets": 1515,
      "Ġstd": 1516,
      "Ġskeleton": 1517,
      "ngth": 1518,
      "Ġgu": 1519,
      "ae": 1520,
      "code": 1521,
      "Ġ!=": 1522,
      "05": 1523,
      "ors": 1524,
      "Ġdem": 1525,
      "Ġ00": 1526,
      "Ġempty": 1527,
      "pri": 1528,
      "Ġbr": 1529,
      "Ġboth": 1530,
      "Ġstill": 1531,
      "PI": 1532,
      "AL": 1533,
      "ĠWe": 1534,
      "ful": 1535,
      "06": 1536,
      "list": 1537,
      "add": 1538,
      "aut": 1539,
      "text": 1540,
      "34": 1541,
      "Ġtime": 1542,
      "lan": 1543,
      "gram": 1544,
      "updates": 1545,
      "Ġdp": 1546,
      "head": 1547,
      "\\\"\\": 1548,
      "Ġcomput": 1549,
      "Ġinside": 1550,
      "ulti": 1551,
      "';": 1552,
      "Ġ01": 1553,
      "ĠPre": 1554,
      "ĠCon": 1555,
      "Ġwrit": 1556,
      "ĠĠĠĠĠĠĠĠĠĠĠĠĠĠĠĠĠĠĠĠ": 1557,
      "Ġ>=": 1558,
      "Ġ`": 1559,
      "Ġget": 1560,
      "Ġarray": 1561,
      "Ġopt": 1562,
      "stdin": 1563,
      "Ġcur": 1564,
      "roid": 1565,
      "espace": 1566,
      "New": 1567,
      "README": 1568,
      "plic": 1569,
      "Ġcreated": 1570,
      "Ġpip": 1571,
      "Ġneeded": 1572,
      "Ġconn": 1573,
      "'ll": 1574,
      "ving": 1575,
      "ports": 1576,
      "ĠFROM": 1577,
      "Ġdif": 1578,
      "Ġinto": 1579,
      "tempt": 1580,
      "Ġserver": 1581,
      "Ġcase": 1582,
      "bf": 1583,
      "Ġ{'": 1584,
      "vent": 1585,
      "Ġnotes": 1586,
      "krb": 1587,
      "Ġund": 1588,
      "Ġsuch": 1589,
      "98": 1590,
      "Ġwhere": 1591,
      "95": 1592,
      "Ġbreak": 1593,
      "bd": 1594,
      "strip": 1595,
      "perl": 1596,
      "ĠIt": 1597,
      "Ġdone": 1598,
      "Ġvers": 1599,
      "demo": 1600,
      "'t": 1601,
      "Ġgenerate": 1602,
      "ility": 1603,
      "AA": 1604,
      "cur": 1605,
      "Ġbuild": 1606,
      "size": 1607,
      "sk": 1608,
      "ative": 1609,
      ").\\": 1610,
      "Ġgoal": 1611,
      "ten": 1612,
      "Ġconstra": 1613,
      "sol": 1614,
      "Ġmod": 1615,
      "Ġcin": 1616,
      "Ġdeterm": 1617,
      "nPY": 1618,
      "Ġvalue": 1619,
      "Ġ\\\"$": 1620,
      "yz": 1621,
      "Ġcapture": 1622,
      "type": 1623,
      "ices": 1624,
      "ails": 1625,
      "count": 1626,
      "08": 1627,
      "){\\": 1628,
      "less": 1629,
      "ness": 1630,
      "ĠNone": 1631,
      "((": 1632,
      "bc": 1633,
      "Ġapp": 1634,
      ">>": 1635,
      "Ġsing": 1636,
      "ie": 1637,
      "Ġbat": 1638,
      "client": 1639,
      "UT": 1640,
      "Ġhere": 1641,
      "load": 1642,
      "Ġlibg": 1643,
      "ĠIN": 1644,
      "Ġunder": 1645,
      "58": 1646,
      "ake": 1647,
      "ross": 1648,
      "with": 1649,
      "ari": 1650,
      "Ġlines": 1651,
      "flow": 1652,
      "pth": 1653,
      "}\\": 1654,
      "----": 1655,
      "mod": 1656,
      "tem": 1657,
      "host": 1658,
      "Ġ100": 1659,
      "\\\\\\\"": 1660,
      "ĠProvide": 1661,
      "(\"": 1662,
      "Ġapt": 1663,
      "Ġnam": 1664,
      "gz": 1665,
      "ING": 1666,
      "Ġopen": 1667,
      "Ġupdate": 1668,
      "Ġpass": 1669,
      "ition": 1670,
      "Com": 1671,
      "Ġcontaining": 1672,
      "press": 1673,
      "Ġmore": 1674,
      "Ġvia": 1675,
      "Ġiss": 1676,
      "Ġsingle": 1677,
      "Ġspecific": 1678,
      "ĠâĢ": 1679,
      "ready": 1680,
      "Ġcd": 1681,
      "ven": 1682,
      "tern": 1683,
      "Ġ12": 1684,
      "ax": 1685,
      "pm": 1686,
      "Ġprocess": 1687,
      "ken": 1688,
      "input": 1689,
      "ĊĊĊĊ": 1690,
      "Ġnon": 1691,
      "ource": 1692,
      "Ġremain": 1693,
      "ash": 1694,
      "version": 1695,
      "Ġph": 1696,
      "Ġblock": 1697,
      "ied": 1698,
      "DB": 1699,
      "Ġvis": 1700,
      "ĠSt": 1701,
      "ĠĠĠĠĠĠ": 1702,
      "Ġcode": 1703,
      "For": 1704,
      "fd": 1705,
      "Ġexpected": 1706,
      "ubl": 1707,
      "venv": 1708,
      "Ġversion": 1709,
      "Ġnow": 1710,
      "itional": 1711,
      "Ġsy": 1712,
      "oid": 1713,
      "Ġattempt": 1714,
      "ever": 1715,
      "Ġshows": 1716,
      "Ġz": 1717,
      "\\\",": 1718,
      "Ġmulti": 1719,
      "me": 1720,
      "example": 1721,
      "api": 1722,
      "ren": 1723,
      "based": 1724,
      "Ġcomple": 1725,
      "anc": 1726,
      "nif": 1727,
      "Ġfin": 1728,
      "Ġjob": 1729,
      "Ġ22": 1730,
      "')\\": 1731,
      "Ġcontrol": 1732,
      "ĠSQL": 1733,
      "ler": 1734,
      "otes": 1735,
      "Ġprogram": 1736,
      "Ġquick": 1737,
      "dule": 1738,
      "tes": 1739,
      "sequ": 1740,
      "Ġmis": 1741,
      "clud": 1742,
      "No": 1743,
      "SELECT": 1744,
      "ron": 1745,
      "arg": 1746,
      "Ġreal": 1747,
      "ote": 1748,
      "ĠTo": 1749,
      "Ġminimal": 1750,
      "ĠDo": 1751,
      "net": 1752,
      "200": 1753,
      "Ġ:": 1754,
      "68": 1755,
      "03": 1756,
      "sub": 1757,
      "Ġlocal": 1758,
      "ampa": 1759,
      "Ġstrings": 1760,
      "TE": 1761,
      "Ġonly": 1762,
      "fc": 1763,
      "53": 1764,
      "Ġpost": 1765,
      "write": 1766,
      "script": 1767,
      "Ġdocument": 1768,
      "Ġ\"$": 1769,
      "ĠAS": 1770,
      "ground": 1771,
      "ted": 1772,
      "ince": 1773,
      "ampaign": 1774,
      "Ġsearch": 1775,
      "join": 1776,
      "Ġdescription": 1777,
      "âĶģâĶģâĶģâĶģ": 1778,
      "ings": 1779,
      "pository": 1780,
      "spect": 1781,
      "Ġdeliverables": 1782,
      "....": 1783,
      "start": 1784,
      "RL": 1785,
      "ouble": 1786,
      "vel": 1787,
      "vice": 1788,
      "Ġrequire": 1789,
      "09": 1790,
      "ORT": 1791,
      "Ġformat": 1792,
      "Ġ$$$": 1793,
      "PP": 1794,
      "ĠAI": 1795,
      "map": 1796,
      "http": 1797,
      "Ġdetermine": 1798,
      "place": 1799,
      "from": 1800,
      "word": 1801,
      "dc": 1802,
      "Ġcontents": 1803,
      "Ġfun": 1804,
      "umn": 1805,
      "LL": 1806,
      "ĠEach": 1807,
      "local": 1808,
      "Ġsubsequ": 1809,
      "Ġfe": 1810,
      "','": 1811,
      "style": 1812,
      "row": 1813,
      "Ġshow": 1814,
      "Ġtim": 1815,
      "ĠExtra": 1816,
      "nded": 1817,
      "Ġvalues": 1818,
      "Ġfur": 1819,
      "utils": 1820,
      "ĠDescription": 1821,
      "Ġatt": 1822,
      "itle": 1823,
      "Ġnec": 1824,
      "Ġrow": 1825,
      "ential": 1826,
      "Ġfix": 1827,
      "Ex": 1828,
      "Ġcharacters": 1829,
      "Ġoper": 1830,
      "Ġwritten": 1831,
      ":\\\\": 1832,
      "Ġfurther": 1833,
      "dy": 1834,
      "Ġtry": 1835,
      "ĠStr": 1836,
      "ount": 1837,
      "Ġprodu": 1838,
      "push": 1839,
      "Ġconstraints": 1840,
      "Ġiter": 1841,
      "Ġsuccess": 1842,
      "off": 1843,
      "ĠX": 1844,
      "Ġacc": 1845,
      "Ġlength": 1846,
      "ceed": 1847,
      "Ġtarget": 1848,
      "Ġbo": 1849,
      "Ġother": 1850,
      "93": 1851,
      "creen": 1852,
      "Ġbased": 1853,
      "Ġnecess": 1854,
      "Ġindex": 1855,
      "Ġleft": 1856,
      "52": 1857,
      "Ġdi": 1858,
      "index": 1859,
      "Ġcurl": 1860,
      "Ġwget": 1861,
      "aded": 1862,
      "Ġdocs": 1863,
      "Ġsort": 1864,
      "Ġbytes": 1865,
      "ems": 1866,
      "Ġexpect": 1867,
      "ker": 1868,
      "Ġsc": 1869,
      "76": 1870,
      "Ġnecessary": 1871,
      "igh": 1872,
      "Ġbackground": 1873,
      "Ġtempl": 1874,
      "len": 1875,
      "83": 1876,
      "Ġtrans": 1877,
      "Ġlast": 1878,
      "ĠWrite": 1879,
      "PORT": 1880,
      "formation": 1881,
      "Ġaction": 1882,
      "ress": 1883,
      "Ġseg": 1884,
      "Ġprior": 1885,
      "82": 1886,
      "gers": 1887,
      "sy": 1888,
      "92": 1889,
      "ustom": 1890,
      "ĠTrue": 1891,
      "include": 1892,
      "Ġgrep": 1893,
      "Ġlar": 1894,
      "SER": 1895,
      "Ġhad": 1896,
      "Ġimm": 1897,
      "Ġclient": 1898,
      "svg": 1899,
      "templ": 1900,
      "Ġquery": 1901,
      "74": 1902,
      "ok": 1903,
      "54": 1904,
      "ĠAr": 1905,
      "nprint": 1906,
      "Ġtree": 1907,
      "upport": 1908,
      "Ġintended": 1909,
      "Ġimmediate": 1910,
      "Ġadditional": 1911,
      "common": 1912,
      "Ġsimple": 1913,
      "ateg": 1914,
      "ND": 1915,
      "Ġsize": 1916,
      "Ġ[]": 1917,
      "mkdir": 1918,
      "Ġrepository": 1919,
      "ea": 1920,
      "ract": 1921,
      "94": 1922,
      "Ġrequired": 1923,
      "ator": 1924,
      "ET": 1925,
      "Ġcout": 1926,
      "board": 1927,
      "Ġli": 1928,
      "Ġmet": 1929,
      "ĠPrevious": 1930,
      "iled": 1931,
      "Ġsend": 1932,
      "yze": 1933,
      "Ġcolor": 1934,
      "ideo": 1935,
      "Ġrequests": 1936,
      "Ġneeds": 1937,
      "84": 1938,
      "curl": 1939,
      "fully": 1940,
      "Task": 1941,
      "\\\")\\": 1942,
      "Ġport": 1943,
      "ories": 1944,
      "Ġ{\"": 1945,
      "yp": 1946,
      "met": 1947,
      "ĠLinux": 1948,
      "call": 1949,
      "ways": 1950,
      "ĠPY": 1951,
      "server": 1952,
      "ding": 1953,
      "ABLE": 1954,
      "ater": 1955,
      "ID": 1956,
      "ĠID": 1957,
      "Ġsubsequent": 1958,
      "Ġchang": 1959,
      "ell": 1960,
      "Plan": 1961,
      ")\\\\": 1962,
      "Ġits": 1963,
      "Ġpair": 1964,
      "51": 1965,
      "::": 1966,
      "Ġtable": 1967,
      "=$": 1968,
      "ĠAdd": 1969,
      "():\\": 1970,
      "Ġpat": 1971,
      "onstr": 1972,
      "priate": 1973,
      "Ġedges": 1974,
      "!/": 1975,
      "Ġident": 1976,
      "atic": 1977,
      "ĠQ": 1978,
      "Ġappropriate": 1979,
      "'}": 1980,
      "Ġdepend": 1981,
      "Ġ];": 1982,
      "ner": 1983,
      "lay": 1984,
      "post": 1985,
      "Ġprefer": 1986,
      "wd": 1987,
      "Ġdesign": 1988,
      "play": 1989,
      "ww": 1990,
      "final": 1991,
      "Ġanalysis": 1992,
      "node": 1993,
      "wh": 1994,
      "Ġspecif": 1995,
      "Con": 1996,
      "Ġhow": 1997,
      "ars": 1998,
      "Ġinitialize": 1999,
      "inst": 2000,
      "Ġremo": 2001,
      "Im": 2002,
      "very": 2003,
      "Ġright": 2004,
      "atest": 2005,
      "uff": 2006,
      "lf": 2007,
      "Input": 2008,
      "Ġsqlite": 2009,
      "ĠDone": 2010,
      "projects": 2011,
      "op": 2012,
      "sho": 2013,
      "ĠLet": 2014,
      "Output": 2015,
      "Ġsa": 2016,
      "Ġmaxim": 2017,
      "Ġunless": 2018,
      "fs": 2019,
      "essage": 2020,
      "Ġdouble": 2021,
      "Ġactual": 2022,
      "ram": 2023,
      "ĠINT": 2024,
      "ization": 2025,
      "ĠBe": 2026,
      "OT": 2027,
      "ribute": 2028,
      "ords": 2029,
      "Ġaccess": 2030,
      "75": 2031,
      "ives": 2032,
      "pose": 2033,
      "ved": 2034,
      "Ġtool": 2035,
      "ARN": 2036,
      "Ġrec": 2037,
      "Ġalways": 2038,
      "uation": 2039,
      "eld": 2040,
      "Ġyet": 2041,
      "SS": 2042,
      "Ġindicating": 2043,
      "ĊĠĠĠĠĠĠĠ": 2044,
      "></": 2045,
      "Ġdec": 2046,
      "Ġexample": 2047,
      "ency": 2048,
      "ĠVer": 2049,
      "bat": 2050,
      "78": 2051,
      "fo": 2052,
      "Ġquotes": 2053,
      "gin": 2054,
      "opt": 2055,
      "Ġdatabase": 2056,
      "ribe": 2057,
      "gn": 2058,
      "Ġcompute": 2059,
      "Ġcorrectness": 2060,
      "Ġhel": 2061,
      "Ġcorrectly": 2062,
      "ault": 2063,
      "Ġke": 2064,
      "Ġslow": 2065,
      "Ġdemonstr": 2066,
      "ts": 2067,
      "2025": 2068,
      "control": 2069,
      "sample": 2070,
      "69": 2071,
      "Release": 2072,
      "Ġform": 2073,
      "Ġbetter": 2074,
      "Optional": 2075,
      "Ġtak": 2076,
      "ango": 2077,
      "Ġmissing": 2078,
      "self": 2079,
      "mage": 2080,
      "70": 2081,
      "Ġrob": 2082,
      "ĠString": 2083,
      "lso": 2084,
      "Ġmode": 2085,
      "mysql": 2086,
      "^^^^^^^^": 2087,
      "order": 2088,
      "by": 2089,
      "Ġsmaller": 2090,
      "It": 2091,
      "\\\\\\\\\\\\\\\\": 2092,
      "Ġref": 2093,
      "src": 2094,
      "itions": 2095,
      "Ġsit": 2096,
      "81": 2097,
      "ARNING": 2098,
      "edit": 2099,
      "Ġproduct": 2100,
      "peg": 2101,
      "));": 2102,
      "ks": 2103,
      "Ġcannot": 2104,
      "ML": 2105,
      "roup": 2106,
      "Ġcause": 2107,
      "WARNING": 2108,
      "Ġavoid": 2109,
      "Ġ>/": 2110,
      "Ġsecond": 2111,
      "ĠInRelease": 2112,
      "79": 2113,
      "Ġescaping": 2114,
      "Ġ(\\": 2115,
      "ply": 2116,
      "Ġobjects": 2117,
      "ĠScreen": 2118,
      "aceholders": 2119,
      "65": 2120,
      "udit": 2121,
      "uring": 2122,
      "ĠGit": 2123,
      "Ġproviding": 2124,
      "ized": 2125,
      "ailed": 2126,
      "Ġdescript": 2127,
      "site": 2128,
      "Ġbid": 2129,
      "\")": 2130,
      "find": 2131,
      "rontend": 2132,
      "ves": 2133,
      "rame": 2134,
      "Ġtrig": 2135,
      "Command": 2136,
      "que": 2137,
      "Ġappe": 2138,
      "Ġmatch": 2139,
      "the": 2140,
      "Ġauto": 2141,
      "SV": 2142,
      "cle": 2143,
      "Ġinclud": 2144,
      "Ġwhy": 2145,
      "Ġready": 2146,
      "Ġclass": 2147,
      "Ġwhit": 2148,
      "Ġfinished": 2149,
      "];\\": 2150,
      "oolean": 2151,
      "Ġtaking": 2152,
      "Hit": 2153,
      "WARNINGS": 2154,
      "Ġparent": 2155,
      "ai": 2156,
      "mux": 2157,
      "Ġ'__": 2158,
      "Ġlike": 2159,
      "Ġfull": 2160,
      "Ġinterm": 2161,
      "ĠĠĠĠĠĠĠĠĠĠĠĠĠĠĠĠĠĠĠĠĠĠĠ": 2162,
      "Ġconnect": 2163,
      "ssh": 2164,
      "Ġdiffe": 2165,
      "Ġissues": 2166,
      "Ġele": 2167,
      "pip": 2168,
      "gor": 2169,
      "Ġpubl": 2170,
      "Ġpackages": 2171,
      "Ġattribute": 2172,
      "Ġinputs": 2173,
      "docs": 2174,
      "Ġwhitespace": 2175,
      "ĠSE": 2176,
      "():": 2177,
      "time": 2178,
      "Ġsolving": 2179,
      "pi": 2180,
      "Ġworkflow": 2181,
      "Ġdeliver": 2182,
      "ces": 2183,
      "Ġgcc": 2184,
      "case": 2185,
      "Ġtoler": 2186,
      "73": 2187,
      "Ġbatches": 2188,
      "Ġlibkrb": 2189,
      "ANT": 2190,
      "ĠNumber": 2191,
      "Ġintermediate": 2192,
      "EN": 2193,
      "Ġcand": 2194,
      "Ġescape": 2195,
      "job": 2196,
      "ache": 2197,
      "required": 2198,
      "Ġcost": 2199,
      "Ġcompletely": 2200,
      "valid": 2201,
      "91": 2202,
      "(!": 2203,
      "ĠVerify": 2204,
      "Ġvari": 2205,
      "Ġaccomplished": 2206,
      "Format": 2207,
      "email": 2208,
      "think": 2209,
      "yste": 2210,
      "config": 2211,
      "ystemd": 2212,
      "Reading": 2213,
      "72": 2214,
      "Ġbackend": 2215,
      "Ġ\"\",": 2216,
      "Ġsure": 2217,
      "proposal": 2218,
      "ithm": 2219,
      "itive": 2220,
      "Import": 2221,
      "Ġcnt": 2222,
      "Ġsystem": 2223,
      "Ġ[]\\": 2224,
      "nalyze": 2225,
      "vis": 2226,
      "Ġdue": 2227,
      "Ġequ": 2228,
      "Ġoptim": 2229,
      "Ġsituation": 2230,
      "gorithm": 2231,
      "jango": 2232,
      "])\\": 2233,
      "ins": 2234,
      "ĠFalse": 2235,
      "escribe": 2236,
      "Ġscripts": 2237,
      "Ġtheir": 2238,
      "Ġpoll": 2239,
      "var": 2240,
      "PO": 2241,
      "ĠArray": 2242,
      "umer": 2243,
      "title": 2244,
      "ads": 2245,
      "loy": 2246,
      "Ġassistant": 2247,
      "63": 2248,
      "Ġreg": 2249,
      "graph": 2250,
      "Ġtmux": 2251,
      "share": 2252,
      "Ġaccomplish": 2253,
      "RE": 2254,
      "Ġplaceholders": 2255,
      "Required": 2256,
      "onent": 2257,
      "]);": 2258,
      "?\",": 2259,
      "Important": 2260,
      "ĠCommands": 2261,
      "Ġdefault": 2262,
      "table": 2263,
      "();": 2264,
      "ced": 2265,
      "ĠBoolean": 2266,
      "ification": 2267,
      "><": 2268,
      "ptr": 2269,
      "\"\\": 2270,
      "Describe": 2271,
      "png": 2272,
      "Ġrust": 2273,
      "IMPORT": 2274,
      "secon": 2275,
      "Ġspecifies": 2276,
      "sqlite": 2277,
      "eek": 2278,
      "ĠMost": 2279,
      "ĠNever": 2280,
      "Ġcolumn": 2281,
      "Ġthree": 2282,
      "umbers": 2283,
      "Ġtasked": 2284,
      "Ġmkdir": 2285,
      "Ġrustc": 2286,
      "Analyze": 2287,
      "batim": 2288,
      "ecur": 2289,
      "Ġverbatim": 2290,
      "IMPORTANT": 2291,
      "Ġtolerated": 2292,
      "bus": 2293,
      "Ġalgorithm": 2294,
      "ability": 2295,
      "Ġgrid": 2296,
      "Ġrobust": 2297,
      "Ġthese": 2298,
      "reel": 2299,
      "exp": 2300,
      "renc": 2301,
      "ween": 2302,
      "Ġintegers": 2303,
      "Ġperm": 2304,
      "ession": 2305,
      "struct": 2306,
      "rypt": 2307,
      "rence": 2308,
      "Ġlatest": 2309,
      "Ġlarge": 2310,
      "Ġsuccessfully": 2311,
      "St": 2312,
      "iss": 2313,
      "\\\"\\\\": 2314,
      "Ġalready": 2315,
      "ha": 2316,
      "rief": 2317,
      "emory": 2318,
      "Ġent": 2319,
      "Ġgroup": 2320,
      "mpeg": 2321,
      "ĠAPI": 2322,
      "sync": 2323,
      "Ġbec": 2324,
      "Ġsolver": 2325,
      "assets": 2326,
      "so": 2327,
      "ntax": 2328,
      "di": 2329,
      "scripts": 2330,
      "template": 2331,
      "Ġinv": 2332,
      "00000000": 2333,
      "Ġlo": 2334,
      "sed": 2335,
      "Ġdays": 2336,
      "ĠHT": 2337,
      "lab": 2338,
      "\";": 2339,
      "Ġyi": 2340,
      "php": 2341,
      "Ġacross": 2342,
      "ASE": 2343,
      "ecurity": 2344,
      "âĢ¢": 2345,
      "['": 2346,
      "rror": 2347,
      ").\",": 2348,
      "ular": 2349,
      "Ġ'#": 2350,
      "design": 2351,
      "Ġmay": 2352,
      "Ġmultiple": 2353,
      "Ġintegr": 2354,
      "Ġbrand": 2355,
      "Ġmaximum": 2356,
      "IT": 2357,
      "lear": 2358,
      "dist": 2359,
      "Ġbasic": 2360,
      "62": 2361,
      "Ġkeep": 2362,
      "nam": 2363,
      "Ġvenv": 2364,
      "request": 2365,
      "Ġtra": 2366,
      "Ġ50": 2367,
      "####": 2368,
      "open": 2369,
      "DF": 2370,
      "CPP": 2371,
      "grep": 2372,
      "ta": 2373,
      "lob": 2374,
      "Ġdescriptor": 2375,
      "ontent": 2376,
      "ĠBad": 2377,
      "sc": 2378,
      "Ġdat": 2379,
      "Ġworkspace": 2380,
      "ĠWH": 2381,
      "ĠCheck": 2382,
      "Project": 2383,
      "backend": 2384,
      "Ġtype": 2385,
      "Ġexisting": 2386,
      "ould": 2387,
      "velo": 2388,
      "andom": 2389,
      "Ġhandles": 2390,
      "ĠDP": 2391,
      "Ġbetween": 2392,
      "NA": 2393,
      "Ġsign": 2394,
      "Ġchanges": 2395,
      "Ġcho": 2396,
      "Ġsequence": 2397,
      "ava": 2398,
      "using": 2399,
      "Ġrows": 2400,
      "LI": 2401,
      "Ġreport": 2402,
      "acle": 2403,
      "ĠCurrent": 2404,
      "idth": 2405,
      "eries": 2406,
      "system": 2407,
      "ecute": 2408,
      "Ġproceed": 2409,
      "vert": 2410,
      "OU": 2411,
      "Ġrem": 2412,
      "EG": 2413,
      "71": 2414,
      "aw": 2415,
      "Ġsepar": 2416,
      "Ġ40": 2417,
      "inter": 2418,
      "ugh": 2419,
      "Ġ15": 2420,
      "Ġimplementation": 2421,
      "Ġoff": 2422,
      "nT": 2423,
      "pdf": 2424,
      "day": 2425,
      "pat": 2426,
      "61": 2427,
      "Ġnumbers": 2428,
      "raft": 2429,
      "query": 2430,
      "chema": 2431,
      "ĠDB": 2432,
      "':\\": 2433,
      "ik": 2434,
      "ĠBY": 2435,
      "ey": 2436,
      "(),": 2437,
      "Ġalso": 2438,
      "Ġcy": 2439,
      "Ġ30": 2440,
      "Ġrandom": 2441,
      "Ġsamples": 2442,
      "Ġdig": 2443,
      "PA": 2444,
      "Ġinspect": 2445,
      "Ġart": 2446,
      "Ġbase": 2447,
      "/.": 2448,
      "first": 2449,
      "Ġ@": 2450,
      "Ġfont": 2451,
      "Ġedit": 2452,
      "ert": 2453,
      "Ġagainst": 2454,
      "())": 2455,
      "ling": 2456,
      "Ġlists": 2457,
      "value": 2458,
      "oug": 2459,
      "content": 2460,
      "Ġpay": 2461,
      "ĠTABLE": 2462,
      "},": 2463,
      "ider": 2464,
      "status": 2465,
      "web": 2466,
      "EX": 2467,
      "Ġexport": 2468,
      "->": 2469,
      "Ġ200": 2470,
      "alth": 2471,
      ")]": 2472,
      "Ġmysql": 2473,
      "igned": 2474,
      "]*": 2475,
      "Ġspace": 2476,
      "Ġbrute": 2477,
      "====": 2478,
      "etc": 2479,
      "agement": 2480,
      "Ġarch": 2481,
      "indow": 2482,
      "localhost": 2483,
      "crypt": 2484,
      "Ġstdout": 2485,
      "als": 2486,
      "ptionally": 2487,
      "of": 2488,
      "zip": 2489,
      "Ġconsist": 2490,
      "CR": 2491,
      "ERE": 2492,
      "iew": 2493,
      "Ġcall": 2494,
      "TP": 2495,
      "ark": 2496,
      "ĠĠĠĠĠĠĠĠĠĠĠĠĠĠĠĠĠĠĠĠĠĠĠĠ": 2497,
      "ĠPl": 2498,
      "Ġsome": 2499,
      "Ġfunction": 2500,
      "({": 2501,
      "'.": 2502,
      "Ġlibr": 2503,
      "Ġsyntax": 2504,
      "ream": 2505,
      "Ġguide": 2506,
      "ster": 2507,
      "MA": 2508,
      "Ġinformation": 2509,
      "ode": 2510,
      "ffic": 2511,
      "Ġperform": 2512,
      "ulate": 2513,
      "raw": 2514,
      "Ġwon": 2515,
      "ian": 2516,
      "Ġfl": 2517,
      "Ġinit": 2518,
      "Ġtop": 2519,
      "ĠFile": 2520,
      "Ġ'/": 2521,
      "fl": 2522,
      "Ġ120": 2523,
      "check": 2524,
      "son": 2525,
      "Ġtrigger": 2526,
      "Error": 2527,
      "IR": 2528,
      "ci": 2529,
      "Ġfre": 2530,
      "body": 2531,
      "Ġmatches": 2532,
      "Ġrefe": 2533,
      "Ġext": 2534,
      "ward": 2535,
      "Ġkn": 2536,
      "ĠPost": 2537,
      "ref": 2538,
      "Ġtemplates": 2539,
      "Ġcounts": 2540,
      "Ġ16": 2541,
      "Ġdepth": 2542,
      "Ġinteger": 2543,
      "gle": 2544,
      "ne": 2545,
      "Ġwere": 2546,
      "ĠTest": 2547,
      "book": 2548,
      "---": 2549,
      "logo": 2550,
      "rences": 2551,
      "sert": 2552,
      "Ġproposals": 2553,
      "ified": 2554,
      "ero": 2555,
      "Ġtrack": 2556,
      "Ġpr": 2557,
      "Ġable": 2558,
      "Ġtoken": 2559,
      "ures": 2560,
      "new": 2561,
      "create": 2562,
      "Ġdoes": 2563,
      "Ġmon": 2564,
      "false": 2565,
      "ĠEn": 2566,
      "ULL": 2567,
      "bits": 2568,
      "Ġdirectories": 2569,
      "Ġkrb": 2570,
      "Ġuses": 2571,
      "Ġflo": 2572,
      "sg": 2573,
      "ier": 2574,
      "Ġevery": 2575,
      "Ġcaptured": 2576,
      "eliverables": 2577,
      "Ġrepo": 2578,
      "otnet": 2579,
      "cp": 2580,
      "velop": 2581,
      "ities": 2582,
      "ech": 2583,
      "Ġ</": 2584,
      "ĠLimit": 2585,
      "Ġlogic": 2586,
      "color": 2587,
      "Ġsummary": 2588,
      "ĠInst": 2589,
      "pr": 2590,
      "Ġcore": 2591,
      "omation": 2592,
      "aging": 2593,
      "anch": 2594,
      "Ġsed": 2595,
      "result": 2596,
      "olve": 2597,
      "mask": 2598,
      "aged": 2599,
      "Ġmove": 2600,
      "ATH": 2601,
      "ming": 2602,
      "Ġlimit": 2603,
      "LA": 2604,
      "depth": 2605,
      "Ġworking": 2606,
      "Ġsince": 2607,
      "Ġmid": 2608,
      "idate": 2609,
      "Ġclear": 2610,
      "Ġremains": 2611,
      "Ġshort": 2612,
      "cope": 2613,
      "\\\";": 2614,
      "Ġarr": 2615,
      "direct": 2616,
      "Ġsource": 2617,
      "Ġhelp": 2618,
      "Ġcurrently": 2619,
      "etch": 2620,
      "ld": 2621,
      "Ġfold": 2622,
      "Ġendpo": 2623,
      "264": 2624,
      "CH": 2625,
      "atform": 2626,
      "Ġdifferent": 2627,
      "EATE": 2628,
      "Ġ'*.": 2629,
      "ights": 2630,
      "Ġbit": 2631,
      "lend": 2632,
      "gest": 2633,
      "ĠWHERE": 2634,
      "show": 2635,
      "2023": 2636,
      "HO": 2637,
      "ĠThen": 2638,
      "ĠIm": 2639,
      "ĠOR": 2640,
      "Ġstand": 2641,
      "Ġqueries": 2642,
      "Ġ\"/": 2643,
      "We": 2644,
      "derr": 2645,
      "Ġstderr": 2646,
      "mb": 2647,
      "Ġjson": 2648,
      "Ġterm": 2649,
      "top": 2650,
      "rm": 2651,
      "ĠAfter": 2652,
      "Ġgraph": 2653,
      "\":\"": 2654,
      "ones": 2655,
      "Are": 2656,
      "ording": 2657,
      ".\\\\": 2658,
      "search": 2659,
      "\\'": 2660,
      "emo": 2661,
      ":*.": 2662,
      "string": 2663,
      "irt": 2664,
      "Ġdesc": 2665,
      "gener": 2666,
      "NAME": 2667,
      "Ġcorrections": 2668,
      "video": 2669,
      "Ġarg": 2670,
      "#!/": 2671,
      "campaign": 2672,
      "ags": 2673,
      "ĠâĢĶ": 2674,
      "sys": 2675,
      "Ġ11": 2676,
      "ategy": 2677,
      "ards": 2678,
      "Ġexcept": 2679,
      "Ġpoint": 2680,
      "Ġelif": 2681,
      "process": 2682,
      "llib": 2683,
      "core": 2684,
      "Ġgraded": 2685,
      "Ġvideo": 2686,
      "Ġallow": 2687,
      "AAAA": 2688,
      "Ġthey": 2689,
      "Ġminimum": 2690,
      "Ġlay": 2691,
      "cise": 2692,
      "Ġplace": 2693,
      "Ġvalidate": 2694,
      "Ġlook": 2695,
      "fi": 2696,
      "auth": 2697,
      "pty": 2698,
      "\"}": 2699,
      "Ġbin": 2700,
      "loca": 2701,
      "ustomer": 2702,
      "cin": 2703,
      "urllib": 2704,
      "Ġnamespace": 2705,
      "ndroid": 2706,
      "Ġtri": 2707,
      ".'": 2708,
      "Ġsn": 2709,
      "Ġ28": 2710,
      "stand": 2711,
      "pass": 2712,
      "ĠUse": 2713,
      "Ġdetails": 2714,
      "Ġorig": 2715,
      "FI": 2716,
      "xml": 2717,
      "Ġdiff": 2718,
      "els": 2719,
      "Ġnpm": 2720,
      "dated": 2721,
      "static": 2722,
      "brand": 2723,
      "UM": 2724,
      "Ġitems": 2725,
      "Ġadjust": 2726,
      "empty": 2727,
      "Ġsrc": 2728,
      "eting": 2729,
      "uture": 2730,
      "ipp": 2731,
      "solution": 2732,
      "tex": 2733,
      "Ġusage": 2734,
      "const": 2735,
      "Ġpoints": 2736,
      "Ġdemo": 2737,
      "dp": 2738,
      "ead": 2739,
      "Ġsetup": 2740,
      "mark": 2741,
      "Ġposition": 2742,
      "Ġ?": 2743,
      "Ġos": 2744,
      "udio": 2745,
      "rough": 2746,
      "Ġios": 2747,
      "Ġdocker": 2748,
      "Ġ]": 2749,
      "pend": 2750,
      "++.": 2751,
      "Ġweb": 2752,
      "Ġdy": 2753,
      "Ġinstallation": 2754,
      "present": 2755,
      "URL": 2756,
      "any": 2757,
      "comp": 2758,
      "Ġ\"./": 2759,
      "linux": 2760,
      "Ġcontainer": 2761,
      "']": 2762,
      "Ġrequirements": 2763,
      "PUT": 2764,
      "det": 2765,
      "encies": 2766,
      "<=": 2767,
      "ĠOpen": 2768,
      "001": 2769,
      "'\",": 2770,
      "Ġwee": 2771,
      "Ġsk": 2772,
      "Ġstack": 2773,
      "NG": 2774,
      "Ġmessage": 2775,
      "tie": 2776,
      "Ġworks": 2777,
      "vector": 2778,
      "ĠPDF": 2779,
      "ilest": 2780,
      "ĠINF": 2781,
      "ĠBuild": 2782,
      "chmod": 2783,
      "havi": 2784,
      "ups": 2785,
      "ots": 2786,
      "Ġsafe": 2787,
      "Ġprints": 2788,
      "Ġsup": 2789,
      "Ġlater": 2790,
      "stdc": 2791,
      "update": 2792,
      "ĠProject": 2793,
      "crypto": 2794,
      "rt": 2795,
      "ĠNext": 2796,
      "mon": 2797,
      "Ġfailed": 2798,
      "mount": 2799,
      "Ġ('": 2800,
      "Ġ'%": 2801,
      "fix": 2802,
      "ibility": 2803,
      "Ġord": 2804,
      "bile": 2805,
      "packages": 2806,
      "ĠSELECT": 2807,
      "hod": 2808,
      "export": 2809,
      "ched": 2810,
      "support": 2811,
      "Ġbehavi": 2812,
      "stdio": 2813,
      "Ġvert": 2814,
      "px": 2815,
      "bit": 2816,
      "vals": 2817,
      ";\\\\": 2818,
      "igr": 2819,
      "security": 2820,
      "Ġmy": 2821,
      "pwd": 2822,
      "weight": 2823,
      "gress": 2824,
      "Ġremove": 2825,
      "ĠEX": 2826,
      "Ġbound": 2827,
      "{\"": 2828,
      "curs": 2829,
      "amp": 2830,
      "ION": 2831,
      "used": 2832,
      "force": 2833,
      "Id": 2834,
      "ood": 2835,
      "Ġemail": 2836,
      "char": 2837,
      "cmd": 2838,
      "]:\\": 2839,
      "nullptr": 2840,
      "inct": 2841,
      "tot": 2842,
      "]:": 2843,
      "âĶģâĶģâĶģâĶģâĶģâĶģâĶģâĶģ": 2844,
      "DAT": 2845,
      "IST": 2846,
      "ĠThere": 2847,
      "whl": 2848,
      "Ġ13": 2849,
      "EY": 2850,
      "Ġcomponent": 2851,
      "Ġfuture": 2852,
      "Ġdatas": 2853,
      "127": 2854,
      "tools": 2855,
      "second": 2856,
      "Ġnote": 2857,
      "Ġbehavior": 2858,
      "conn": 2859,
      "Ġonce": 2860,
      "ager": 2861,
      "Ġmask": 2862,
      "div": 2863,
      ":',": 2864,
      "Ġ27": 2865,
      "udget": 2866,
      "pg": 2867,
      "Ġlet": 2868,
      "Ġsw": 2869,
      "fficient": 2870,
      "Ġtyp": 2871,
      "dis": 2872,
      "ĠURL": 2873,
      "thoug": 2874,
      "Ġdate": 2875,
      "Ġconsider": 2876,
      "Ġfact": 2877,
      "over": 2878,
      "${": 2879,
      "ĊĊĊĊĊĊĊĊ": 2880,
      "iname": 2881,
      "my": 2882,
      "Ġsession": 2883,
      "Ġ24": 2884,
      "Ġprefix": 2885,
      "ball": 2886,
      "ĠConf": 2887,
      "ivity": 2888,
      "Ġlink": 2889,
      "contain": 2890,
      "Ġcap": 2891,
      "class": 2892,
      "ndex": 2893,
      "Ġstarting": 2894,
      "left": 2895,
      "ton": 2896,
      "locales": 2897,
      "sort": 2898,
      "Ġrel": 2899,
      "ause": 2900,
      "ank": 2901,
      "LO": 2902,
      "resp": 2903,
      "Ġfall": 2904,
      "nfrom": 2905,
      "gu": 2906,
      "Ġbu": 2907,
      "Ġok": 2908,
      "Ġprompt": 2909,
      "Ġ03": 2910,
      "home": 2911,
      "MP": 2912,
      "Ġflow": 2913,
      "Ġsat": 2914,
      "summary": 2915,
      "Ġlight": 2916,
      "serve": 2917,
      "agram": 2918,
      "Ġwould": 2919,
      "Ġoperation": 2920,
      "Ġ-=": 2921,
      "Ġ19": 2922,
      "Ġaw": 2923,
      "ocker": 2924,
      "You": 2925,
      "DER": 2926,
      "Ġaddress": 2927,
      "Ġdfs": 2928,
      "Ġblocks": 2929,
      "<<": 2930,
      "br": 2931,
      "(!(": 2932,
      "Ġerrors": 2933,
      "ols": 2934,
      "Ġvirt": 2935,
      "ĠNode": 2936,
      "Ġpairs": 2937,
      "Ġevent": 2938,
      "Ġlibs": 2939,
      "Ġ04": 2940,
      "Ġreplace": 2941,
      "lobal": 2942,
      "Ġbrief": 2943,
      "ignore": 2944,
      "Ġnet": 2945,
      "expected": 2946,
      "Ġcompleted": 2947,
      "level": 2948,
      "pute": 2949,
      "def": 2950,
      "Ġ29": 2951,
      "ĠON": 2952,
      "vices": 2953,
      "Ġchild": 2954,
      "_{": 2955,
      "mance": 2956,
      "init": 2957,
      "ĠNOT": 2958,
      "AD": 2959,
      "Ġcollect": 2960,
      "Ġcommon": 2961,
      "SD": 2962,
      "Ġproperly": 2963,
      "nder": 2964,
      "Ġreach": 2965,
      "eng": 2966,
      "hint": 2967,
      "Ġprogramming": 2968,
      "ĠCSV": 2969,
      "Ġdescrib": 2970,
      "npm": 2971,
      "CE": 2972,
      "--------": 2973,
      "'),": 2974,
      "Ġreview": 2975,
      "pipe": 2976,
      "Ġlibk": 2977,
      "Ġruns": 2978,
      "orm": 2979,
      "Ġdbus": 2980,
      "Ġelements": 2981,
      "ĠImplement": 2982,
      "Ġchecks": 2983,
      "Ġnear": 2984,
      "ALU": 2985,
      "isf": 2986,
      "riend": 2987,
      "ication": 2988,
      "formance": 2989,
      "Ġunt": 2990,
      "ection": 2991,
      "sl": 2992,
      "oot": 2993,
      "Ġ25": 2994,
      "ocial": 2995,
      "arr": 2996,
      "Ġverification": 2997,
      "tree": 2998,
      "Ġvirtual": 2999,
      "Ġpy": 3000,
      "ront": 3001,
      "umns": 3002,
      "Ġanal": 3003,
      "Ġbecause": 3004,
      "do": 3005,
      "ired": 3006,
      "oogle": 3007,
      "rap": 3008,
      "placeholder": 3009,
      "ĠMy": 3010,
      "Ġfrontend": 3011,
      "Ġremaining": 3012,
      "DIR": 3013,
      "ared": 3014,
      "thought": 3015,
      "8000": 3016,
      "cs": 3017,
      "{\\": 3018,
      "down": 3019,
      "Ġunderstand": 3020,
      "([": 3021,
      "Ġocc": 3022,
      "Ġ\\\"__": 3023,
      "Ġbranch": 3024,
      "ĠEnsure": 3025,
      "uffix": 3026,
      "Ġnum": 3027,
      "........": 3028,
      "bl": 3029,
      "OIN": 3030,
      "Ġ=>": 3031,
      "Ġlibp": 3032,
      "Ġsatisf": 3033,
      "Ġwrite": 3034,
      "dfsg": 3035,
      "Ġwho": 3036,
      "iness": 3037,
      "format": 3038,
      "Ġgre": 3039,
      "ĠMB": 3040,
      "If": 3041,
      "rapp": 3042,
      "__\\\":": 3043,
      "Ġincre": 3044,
      "Ġenumer": 3045,
      "mit": 3046,
      "info": 3047,
      "args": 3048,
      "Ġte": 3049,
      "velopment": 3050,
      "pping": 3051,
      "Ġhost": 3052,
      ")]\\": 3053,
      "trans": 3054,
      "Ġefficient": 3055,
      "ĠData": 3056,
      "NO": 3057,
      "plus": 3058,
      "package": 3059,
      "Ġday": 3060,
      "Ġfill": 3061,
      "begin": 3062,
      "www": 3063,
      "Ġstore": 3064,
      "SERT": 3065,
      "HT": 3066,
      "ecutive": 3067,
      "cel": 3068,
      "Ġdisplay": 3069,
      "Ġhandling": 3070,
      "eed": 3071,
      "Ġotherwise": 3072,
      "riter": 3073,
      "lendar": 3074,
      "alc": 3075,
      "ĠSte": 3076,
      "FS": 3077,
      "Ġbatch": 3078,
      "Ġproduced": 3079,
      "Ġstandard": 3080,
      "lag": 3081,
      "Ġdelivery": 3082,
      "Ġconfiguration": 3083,
      "Ġmap": 3084,
      "acts": 3085,
      "Ġamount": 3086,
      "Ġexit": 3087,
      "ined": 3088,
      "ssapi": 3089,
      "ĠOr": 3090,
      "gres": 3091,
      "Ġbl": 3092,
      "pair": 3093,
      "Ġtho": 3094,
      "ique": 3095,
      "Ġcould": 3096,
      "True": 3097,
      "Ġ17": 3098,
      "fol": 3099,
      "edia": 3100,
      "Ġsorted": 3101,
      "product": 3102,
      "Ġpattern": 3103,
      "dules": 3104,
      "compose": 3105,
      "adata": 3106,
      "ARY": 3107,
      "ĠUp": 3108,
      "Ġoperations": 3109,
      "keyutils": 3110,
      "ĠVal": 3111,
      "Ġlocate": 3112,
      "Ġprep": 3113,
      "Ġparsing": 3114,
      "signed": 3115,
      "ĠAp": 3116,
      "tc": 3117,
      "round": 3118,
      "ware": 3119,
      "icy": 3120,
      "lient": 3121,
      "Ġreads": 3122,
      "=$(": 3123,
      "MS": 3124,
      "ĠMark": 3125,
      "ources": 3126,
      "Ġsl": 3127,
      "123": 3128,
      "erver": 3129,
      "ips": 3130,
      "Ġupdated": 3131,
      "ĠCh": 3132,
      "Ġ[[": 3133,
      "dri": 3134,
      "Po": 3135,
      "Ġlibcurl": 3136,
      "ĠList": 3137,
      "Ġdistinct": 3138,
      "Ġpaths": 3139,
      "Ġview": 3140,
      "Ġleast": 3141,
      "Ġsupport": 3142,
      "Ġmodule": 3143,
      "Ġtesting": 3144,
      "gresql": 3145,
      "respon": 3146,
      "like": 3147,
      "Ġtarball": 3148,
      "Ġai": 3149,
      "ribution": 3150,
      "ĠHTTP": 3151,
      "apsh": 3152,
      "Ġexec": 3153,
      "Ġapply": 3154,
      "org": 3155,
      "ernal": 3156,
      "Ġplay": 3157,
      "nA": 3158,
      "Ġcombin": 3159,
      "Ġpi": 3160,
      "wn": 3161,
      "pay": 3162,
      "ited": 3163,
      "https": 3164,
      "link": 3165,
      "plicit": 3166,
      "ube": 3167,
      "Ġphone": 3168,
      "Ġtail": 3169,
      "Ġequal": 3170,
      "Ġ{}": 3171,
      "auto": 3172,
      "sa": 3173,
      "libx": 3174,
      "Ġhigh": 3175,
      "ilter": 3176,
      "Ġuntil": 3177,
      "adle": 3178,
      "Ġpositions": 3179,
      "ĠINTO": 3180,
      "group": 3181,
      "Ġphp": 3182,
      "Ġtemplate": 3183,
      "Ġurllib": 3184,
      "Ġ99": 3185,
      "yt": 3186,
      "cache": 3187,
      "Ġmodel": 3188,
      "ĠOver": 3189,
      "Ch": 3190,
      "ĠNow": 3191,
      "FILE": 3192,
      "Ġupgr": 3193,
      "plication": 3194,
      "lish": 3195,
      "Ġ^": 3196,
      "Ġcross": 3197,
      "Ġdemonstrate": 3198,
      "ants": 3199,
      "ception": 3200,
      "Ġconfirmation": 3201,
      "Ġdiv": 3202,
      "ru": 3203,
      "PATH": 3204,
      "Col": 3205,
      "=/": 3206,
      "Ġconcept": 3207,
      "Ġmer": 3208,
      "nS": 3209,
      "Ġdependencies": 3210,
      "Ġless": 3211,
      "dk": 3212,
      "'\\\\": 3213,
      "CREATE": 3214,
      "ĠAndroid": 3215,
      "mu": 3216,
      "Ġincluding": 3217,
      "Aut": 3218,
      "Ġago": 3219,
      "Ġcopy": 3220,
      "Ġfeas": 3221,
      "ience": 3222,
      "bed": 3223,
      "[:": 3224,
      "java": 3225,
      "Ġlow": 3226,
      "document": 3227,
      "Ġextract": 3228,
      "Mo": 3229,
      "Ġdown": 3230,
      "Ġthrough": 3231,
      "systemd": 3232,
      "folio": 3233,
      "Ġunexpected": 3234,
      "Ġlibgssapi": 3235,
      "ĠOptionally": 3236,
      "Ġsegment": 3237,
      "//": 3238,
      "ty": 3239,
      "Ġrepresent": 3240,
      "1080": 3241,
      "Time": 3242,
      "__':\\": 3243,
      "Ġest": 3244,
      "totype": 3245,
      "Ġ\"__": 3246,
      "mode": 3247,
      "Ġseparate": 3248,
      "Ġplus": 3249,
      "Ġsite": 3250,
      "Ġandroid": 3251,
      "Ġbro": 3252,
      "ngit": 3253,
      "ĊĠĠ": 3254,
      "ĠVALU": 3255,
      "lete": 3256,
      "ĠDis": 3257,
      "Initial": 3258,
      "Ġcent": 3259,
      ",\\": 3260,
      "AI": 3261,
      "Ġintegration": 3262,
      "token": 3263,
      "alle": 3264,
      "ear": 3265,
      "Ġlibkeyutils": 3266,
      "Ġpage": 3267,
      "__\":": 3268,
      "ĠĠĠĠĠĠĠĠĠĠĠĠĠĠĠĠĠĠĠĠĠĠĠĠĠĠĠĠĠĠĠĠ": 3269,
      "match": 3270,
      "Ġchange": 3271,
      "docker": 3272,
      "Ġconcise": 3273,
      "ĠMake": 3274,
      "Ġbinary": 3275,
      "Ġheight": 3276,
      "ric": 3277,
      "Content": 3278,
      "mes": 3279,
      "ORD": 3280,
      "ĠEd": 3281,
      "Ġissue": 3282,
      "tim": 3283,
      "ilestones": 3284,
      "ĠComp": 3285,
      "ISTS": 3286,
      "cor": 3287,
      "Ġmost": 3288,
      "ither": 3289,
      "service": 3290,
      "Ġcampaign": 3291,
      "PASS": 3292,
      "Ġcharacter": 3293,
      "icsuffix": 3294,
      "):\\\\": 3295,
      "nusing": 3296,
      "report": 3297,
      "Ġperformance": 3298,
      "Ġupgraded": 3299,
      "ĠInspect": 3300,
      "000000": 3301,
      "files": 3302,
      "Ġnetwork": 3303,
      "Ġ\\\\": 3304,
      "Ġrepe": 3305,
      "ABASE": 3306,
      "nel": 3307,
      "Ġaccount": 3308,
      "Ġhttps": 3309,
      "Ġpot": 3310,
      "Ġnodes": 3311,
      "aaaa": 3312,
      "Ġlightweight": 3313,
      "iverse": 3314,
      "\",\"": 3315,
      "mer": 3316,
      "Ġmath": 3317,
      "Ġexplicit": 3318,
      "ashboard": 3319,
      "Ġpand": 3320,
      "())\\": 3321,
      "Let": 3322,
      "Ġ64": 3323,
      "Ġoutline": 3324,
      "ĠVALUES": 3325,
      "cap": 3326,
      "Ġaudit": 3327,
      "mages": 3328,
      "part": 3329,
      "ĠDocker": 3330,
      "psl": 3331,
      "store": 3332,
      "ĠSet": 3333,
      "Ġimage": 3334,
      "pop": 3335,
      "deliverables": 3336,
      "Ġclo": 3337,
      "ĠJOIN": 3338,
      "Ġ---": 3339,
      "Ġyields": 3340,
      "maxdepth": 3341,
      "fer": 3342,
      "ocket": 3343,
      "Ġff": 3344,
      "zf": 3345,
      "clo": 3346,
      "ifest": 3347,
      "VER": 3348,
      "ĠSince": 3349,
      "Ġimplemented": 3350,
      "parse": 3351,
      "gitignore": 3352,
      "ĠSe": 3353,
      "Note": 3354,
      "execute": 3355,
      "ries": 3356,
      "oice": 3357,
      "ms": 3358,
      "Ġorders": 3359,
      "OL": 3360,
      "AS": 3361,
      "spec": 3362,
      "');": 3363,
      "EF": 3364,
      "Ġextend": 3365,
      "psql": 3366,
      "__':": 3367,
      "Ġeng": 3368,
      "UP": 3369,
      "Ġdir": 3370,
      "greSQL": 3371,
      "Ġ\\\"\\\\": 3372,
      "={": 3373,
      "-]": 3374,
      "box": 3375,
      "ancer": 3376,
      "Ġfolder": 3377,
      "Ġidentity": 3378,
      "Ġ14": 3379,
      "wp": 3380,
      "ugin": 3381,
      "\\\\\\\\\\\\\\\\\\\\\\\\\\\\\\\\": 3382,
      "Ġeven": 3383,
      "ott": 3384,
      "nghttp": 3385,
      "Ġoriginal": 3386,
      "ĠWeek": 3387,
      "Ġcompile": 3388,
      "enmo": 3389,
      "ĠEXISTS": 3390,
      "Ġcond": 3391,
      "urs": 3392,
      "logs": 3393,
      "__\\\":\\": 3394,
      "ĠNULL": 3395,
      "ĠMo": 3396,
      "Ġ1000": 3397,
      "Ġcell": 3398,
      "best": 3399,
      "ordin": 3400,
      "items": 3401,
      "Ġtools": 3402,
      "nint": 3403,
      "android": 3404,
      "128": 3405,
      "Ġetc": 3406,
      "256": 3407,
      "Ġmethod": 3408,
      "USER": 3409,
      "();\\": 3410,
      "Ġenable": 3411,
      "atives": 3412,
      "Ġcompet": 3413,
      "Ġpwd": 3414,
      "rem": 3415,
      "words": 3416,
      "lin": 3417,
      "Ġlibssh": 3418,
      "dict": 3419,
      "Ġrecent": 3420,
      "Ġconfigure": 3421,
      "ically": 3422,
      "ĠConfirm": 3423,
      "nD": 3424,
      "abel": 3425,
      "Ġproduce": 3426,
      "ĠDesign": 3427,
      "Ġ2025": 3428,
      "ĠBid": 3429,
      "Ġadded": 3430,
      "Ġdetected": 3431,
      "ĠIF": 3432,
      "atch": 3433,
      "cost": 3434,
      "bu": 3435,
      "Ġla": 3436,
      "reelancer": 3437,
      "idd": 3438,
      "icro": 3439,
      "ging": 3440,
      "Ġappears": 3441,
      "Ġbudget": 3442,
      "rade": 3443,
      "ĠInstall": 3444,
      "rix": 3445,
      "verse": 3446,
      "page": 3447,
      "Ġidentify": 3448,
      "imal": 3449,
      "ĠDe": 3450,
      "Ġbidding": 3451,
      "ĊĊĠĠĠ": 3452,
      "Ġexecutable": 3453,
      "Ġ\\\\\\\"": 3454,
      "nter": 3455,
      "Ġexternal": 3456,
      "active": 3457,
      "Ġmany": 3458,
      "setup": 3459,
      "ells": 3460,
      "VP": 3461,
      "Ġartif": 3462,
      "css": 3463,
      "Ġfetch": 3464,
      "Ġcapt": 3465,
      "(-": 3466,
      "itect": 3467,
      "Ġgenerated": 3468,
      "aces": 3469,
      "ytics": 3470,
      "Ġbeing": 3471,
      "ĠFinal": 3472,
      "ummary": 3473,
      "\">": 3474,
      "utf": 3475,
      "Ġwidth": 3476,
      "quare": 3477,
      "Ġenumerate": 3478,
      "apshot": 3479,
      "Ġear": 3480,
      "module": 3481,
      "loyment": 3482,
      "leep": 3483,
      "App": 3484,
      "Ġnames": 3485,
      "font": 3486,
      "Ġ~": 3487,
      "++)": 3488,
      "dum": 3489,
      "Ġmoves": 3490,
      "Ġpublic": 3491,
      "Pl": 3492,
      "Val": 3493,
      "ally": 3494,
      "Ġcred": 3495,
      "ĠORDER": 3496,
      "âĶĢ": 3497,
      "Ġ--[": 3498,
      "crete": 3499,
      "Ġdigits": 3500,
      "health": 3501,
      "Ġ399": 3502,
      "Ġdistance": 3503,
      "source": 3504,
      "970": 3505,
      "Ġguid": 3506,
      "Ġdeb": 3507,
      "none": 3508,
      "9999": 3509,
      "rec": 3510,
      "Ġfree": 3511,
      "Ġscaffolding": 3512,
      "ĠMySQL": 3513,
      "Ġpers": 3514,
      "vation": 3515,
      "âĢĵ": 3516,
      "uplic": 3517,
      "Ġlibxcb": 3518,
      "plot": 3519,
      "AC": 3520,
      "Ġlibrtmp": 3521,
      "produ": 3522,
      "utls": 3523,
      "Ġpotential": 3524,
      "schema": 3525,
      "loading": 3526,
      "ission": 3527,
      "num": 3528,
      "Ġ((": 3529,
      "Ġru": 3530,
      "ĠTask": 3531,
      "aran": 3532,
      "ily": 3533,
      "roll": 3534,
      "oring": 3535,
      "ĠUI": 3536,
      "req": 3537,
      "solve": 3538,
      "gnutls": 3539,
      "Ġsetting": 3540,
      "Ġhandle": 3541,
      "iling": 3542,
      "ature": 3543,
      "Ġpublicsuffix": 3544,
      "na": 3545,
      "universe": 3546,
      "ons": 3547,
      "Ġcycle": 3548,
      "Ġconstruct": 3549,
      "iter": 3550,
      "FF": 3551,
      "Ġtre": 3552,
      "ivate": 3553,
      "width": 3554,
      "ĠĠĠĠĠĠĠĠĠ": 3555,
      "After": 3556,
      "Ġlibpsl": 3557,
      "Ġlayout": 3558,
      "Ġweek": 3559,
      "asy": 3560,
      "Ġfast": 3561,
      "MD": 3562,
      "Ġtimes": 3563,
      "ĠIndex": 3564,
      "]]": 3565,
      "Ġlogs": 3566,
      "Ġden": 3567,
      "ĠHow": 3568,
      "Ġitem": 3569,
      "ĠDeliverables": 3570,
      "._": 3571,
      "Ġ18": 3572,
      "To": 3573,
      "ĠOut": 3574,
      "ĠPR": 3575,
      "WORD": 3576,
      "ĠException": 3577,
      "Your": 3578,
      "tk": 3579,
      "message": 3580,
      "header": 3581,
      "tegr": 3582,
      "utes": 3583,
      "Ġcover": 3584,
      "Ġaltern": 3585,
      "target": 3586,
      "Add": 3587,
      "OS": 3588,
      "unch": 3589,
      ">=": 3590,
      "ision": 3591,
      "\\\";\\": 3592,
      "Ġ`/": 3593,
      "ilt": 3594,
      "EXT": 3595,
      "ĠAct": 3596,
      "Ġ#!/": 3597,
      "Ġdocumentation": 3598,
      "hing": 3599,
      "Ġprogress": 3600,
      "cli": 3601,
      "ĠZ": 3602,
      "length": 3603,
      "Ġlibnghttp": 3604,
      "ustr": 3605,
      "Al": 3606,
      "ĠKEY": 3607,
      "ĠProblem": 3608,
      "Ġdelta": 3609,
      "land": 3610,
      "nThis": 3611,
      "Ġalign": 3612,
      "face": 3613,
      "Ġhref": 3614,
      "Ġcompetitive": 3615,
      "audit": 3616,
      "rics": 3617,
      "Ġdataset": 3618,
      "Ġsums": 3619,
      "sen": 3620,
      "Build": 3621,
      "HP": 3622,
      "Ġpop": 3623,
      "Ġbranding": 3624,
      "Ġmobile": 3625,
      "Ġknow": 3626,
      "Ġdependency": 3627,
      ",'": 3628,
      "ĠAut": 3629,
      "last": 3630,
      "Ġinstr": 3631,
      "results": 3632,
      "Ġinsert": 3633,
      "intain": 3634,
      "ret": 3635,
      "ĠContent": 3636,
      "Ġfallback": 3637,
      "asi": 3638,
      "Ġoptions": 3639,
      "Ġcells": 3640,
      "Ġffmpeg": 3641,
      "Ġcolumns": 3642,
      "dbc": 3643,
      "OK": 3644,
      "Next": 3645,
      "Ġfonts": 3646,
      "ĠAd": 3647,
      "Ġpermut": 3648,
      "available": 3649,
      "Ġeither": 3650,
      "Ġsystemd": 3651,
      "ĠAll": 3652,
      "Ġimplementing": 3653,
      "aps": 3654,
      "Ġheader": 3655,
      "API": 3656,
      "emp": 3657,
      "details": 3658,
      "Ġturn": 3659,
      "ivery": 3660,
      "~~": 3661,
      "Ġprocessing": 3662,
      "utter": 3663,
      "ĠPlan": 3664,
      "Ġlevel": 3665,
      "Ã³": 3666,
      "Ġvertices": 3667,
      "notes": 3668,
      "ĠPh": 3669,
      "^^^^^^^^^^^^^^^^": 3670,
      "tion": 3671,
      "orn": 3672,
      "Ġenco": 3673,
      "Ġchmod": 3674,
      "500": 3675,
      "Ġdesired": 3676,
      "label": 3677,
      "Ġreli": 3678,
      "Ġaccording": 3679,
      "Ġ10000": 3680,
      "Ġcustom": 3681,
      "ded": 3682,
      "Ġscope": 3683,
      "amet": 3684,
      "ĠReport": 3685,
      "644": 3686,
      "fact": 3687,
      "admin": 3688,
      "Ġ'.": 3689,
      "ana": 3690,
      "Ġpostgres": 3691,
      "graphy": 3692,
      "Ġvisited": 3693,
      "Ġfeed": 3694,
      "ĠContest": 3695,
      "Ġâľ": 3696,
      "PLA": 3697,
      "Ġ'\\\\": 3698,
      "Ġwindow": 3699,
      "state": 3700,
      "isk": 3701,
      "Ġdraft": 3702,
      "Test": 3703,
      "Ġattempts": 3704,
      "namic": 3705,
      "ĠHTML": 3706,
      "Ġfixed": 3707,
      "orial": 3708,
      "}'": 3709,
      "Ġ\"\\": 3710,
      "Ġded": 3711,
      "OUT": 3712,
      "meta": 3713,
      "](": 3714,
      "hor": 3715,
      "readline": 3716,
      "Ġvertex": 3717,
      "Ġindices": 3718,
      "ively": 3719,
      "Ġendpoints": 3720,
      "\".": 3721,
      "istic": 3722,
      "ior": 3723,
      "1001": 3724,
      "Ġpayment": 3725,
      "range": 3726,
      "rames": 3727,
      "Ġfour": 3728,
      "kg": 3729,
      "soft": 3730,
      "emon": 3731,
      "Ġfunct": 3732,
      "izes": 3733,
      "Please": 3734,
      "ĠInformation": 3735,
      "essential": 3736,
      "issing": 3737,
      "101": 3738,
      "Ġvalidation": 3739,
      "Ġpolicy": 3740,
      "itecture": 3741,
      "Ġlisting": 3742,
      "Ġlibedit": 3743,
      "PS": 3744,
      "Ġconcrete": 3745,
      "Ġ''": 3746,
      "ĠFl": 3747,
      "ĠINTEG": 3748,
      "action": 3749,
      "****": 3750,
      "array": 3751,
      "Ġwhether": 3752,
      "Ġmanage": 3753,
      "Ġadding": 3754,
      "Ġstrategy": 3755,
      "dotnet": 3756,
      "ĠINTEGER": 3757,
      "Ġ21": 3758,
      "XT": 3759,
      "uffer": 3760,
      "Ġfield": 3761,
      "ROR": 3762,
      "ĠUpdate": 3763,
      "Ġguidance": 3764,
      "ownloading": 3765,
      "resh": 3766,
      "Ġhandoff": 3767,
      "Ġpsql": 3768,
      "ĠRet": 3769,
      "ĠSho": 3770,
      "Ġens": 3771,
      ")/": 3772,
      "ĠTEXT": 3773,
      "########": 3774,
      "Ġupdates": 3775,
      "ĠGr": 3776,
      "Ġmodul": 3777,
      "Ġstatic": 3778,
      "Ġask": 3779,
      "Problem": 3780,
      "Ġensuring": 3781,
      "card": 3782,
      "ĠPostgreSQL": 3783,
      "Ġjoin": 3784,
      "Tr": 3785,
      "cale": 3786,
      "Ġcard": 3787,
      "INSERT": 3788,
      "Ġmatching": 3789,
      "========": 3790,
      "install": 3791,
      "âĢĶ": 3792,
      "Ġdigit": 3793,
      "contained": 3794,
      "PASSWORD": 3795,
      "ĠAn": 3796,
      "Ġinstruct": 3797,
      "Ġexecution": 3798,
      "Ġfloat": 3799,
      "entials": 3800,
      "Ġfew": 3801,
      "Ġlibf": 3802,
      "Ġword": 3803,
      "Ġdescribed": 3804,
      "stdout": 3805,
      "iff": 3806,
      "asing": 3807,
      "EW": 3808,
      "Ġselect": 3809,
      "Ġprev": 3810,
      "Example": 3811,
      "master": 3812,
      "Ġreprodu": 3813,
      "model": 3814,
      "argv": 3815,
      "nC": 3816,
      "Ġscen": 3817,
      "Ġschema": 3818,
      "Contest": 3819,
      "ido": 3820,
      "ĠPlaceholder": 3821,
      "parent": 3822,
      "Type": 3823,
      "Ġconcatenation": 3824,
      "Ġrequires": 3825,
      "Ġ${": 3826,
      "way": 3827,
      "Ġown": 3828,
      "hand": 3829,
      "arante": 3830,
      "Ġlogo": 3831,
      "ĠDAT": 3832,
      "Ġcalc": 3833,
      "send": 3834,
      "Ġconsistent": 3835,
      "864": 3836,
      "olog": 3837,
      "Ġ[],": 3838,
      "ĠUn": 3839,
      "block": 3840,
      "cnt": 3841,
      "ĠInitial": 3842,
      "Ġthose": 3843,
      "lev": 3844,
      "Ġpages": 3845,
      "terns": 3846,
      "Ġpoly": 3847,
      "ĠSQLite": 3848,
      "section": 3849,
      "LOG": 3850,
      "publ": 3851,
      "Ġreports": 3852,
      "abc": 3853,
      "ifier": 3854,
      "POS": 3855,
      "ually": 3856,
      "generate": 3857,
      "seg": 3858,
      "frontend": 3859,
      "\\\",\\\"": 3860,
      "ĠVideo": 3861,
      "Name": 3862,
      "ulation": 3863,
      "Ġends": 3864,
      "ĠMVP": 3865,
      "'ve": 3866,
      "values": 3867,
      "YES": 3868,
      "amb": 3869,
      "Ġguarante": 3870,
      "Ġcomponents": 3871,
      "aced": 3872,
      "ĠEnd": 3873,
      "Ġcoordin": 3874,
      "ĠĠĠĠĠĠĠĠĠĠĠĠĠĠĠĠĠĠĠĠĠĠĠĠĠĠĠ": 3875,
      "Ed": 3876,
      "False": 3877,
      "Ġnamed": 3878,
      "Ġcomputes": 3879,
      "Python": 3880,
      "environment": 3881,
      "GB": 3882,
      "ERROR": 3883,
      "oracle": 3884,
      "Memory": 3885,
      "hel": 3886,
      "emb": 3887,
      "OUNT": 3888,
      "Data": 3889,
      "Ġusers": 3890,
      "go": 3891,
      "ered": 3892,
      "buntu": 3893,
      "Ġtermin": 3894,
      "stream": 3895,
      "Ġinvalid": 3896,
      "Ġpow": 3897,
      "issions": 3898,
      "templates": 3899,
      "item": 3900,
      "umbn": 3901,
      "Ġ1970": 3902,
      "sn": 3903,
      "HOST": 3904,
      "ĠJan": 3905,
      "Ġspe": 3906,
      "Ġdotnet": 3907,
      "GET": 3908,
      "live": 3909,
      "Ġalong": 3910,
      "Ġtake": 3911,
      "Ġins": 3912,
      "Ġht": 3913,
      "Ġsplit": 3914,
      "ĠNO": 3915,
      "Ġattempted": 3916,
      "Ġmodulo": 3917,
      "ĠCol": 3918,
      "ium": 3919,
      "Solve": 3920,
      "ĠCR": 3921,
      "Ġbool": 3922,
      "&](": 3923,
      "pol": 3924,
      "ĨĴ": 3925,
      "Ġreference": 3926,
      "ift": 3927,
      "CC": 3928,
      "ĠMet": 3929,
      "Points": 3930,
      "Ġparser": 3931,
      "Ġstri": 3932,
      "etime": 3933,
      "Ġvenmo": 3934,
      "Ġplease": 3935,
      "*(": 3936,
      "This": 3937,
      "ĠUSD": 3938,
      "ĠPrint": 3939,
      "Ġlibxext": 3940,
      "Ġcompletion": 3941,
      "Ġchosen": 3942,
      "ume": 3943,
      "Ġdx": 3944,
      "dat": 3945,
      "Ġstyle": 3946,
      "Ġartifacts": 3947,
      "Ġhi": 3948,
      "itch": 3949,
      "ĠWeb": 3950,
      "muu": 3951,
      "XX": 3952,
      "Ġvisible": 3953,
      "ah": 3954,
      "??": 3955,
      "Ġreferences": 3956,
      "ale": 3957,
      "Ġservice": 3958,
      "Ġodd": 3959,
      "Ġseen": 3960,
      "Ġimpro": 3961,
      ");\\\\": 3962,
      "Ġactions": 3963,
      "emplate": 3964,
      "Rating": 3965,
      "Ġ'-": 3966,
      "ĊĠĠĠĠĠĠĠĠĠĠĠ": 3967,
      "ides": 3968,
      "cover": 3969,
      "Ġformatting": 3970,
      "Ġhtml": 3971,
      "ining": 3972,
      "Ġmigr": 3973,
      "rays": 3974,
      "Ġjust": 3975,
      "Ġremote": 3976,
      "Tags": 3977,
      "testbed": 3978,
      "nan": 3979,
      "allest": 3980,
      "bot": 3981,
      "here": 3982,
      "Ġfinalize": 3983,
      "week": 3984,
      "ose": 3985,
      "420": 3986,
      "uch": 3987,
      "Ġwell": 3988,
      "Ġam": 3989,
      "'>": 3990,
      "Ġendpoint": 3991,
      "AG": 3992,
      "ĠQu": 3993,
      "Ġfeasible": 3994,
      "Ġscore": 3995,
      "tra": 3996,
      "Ġtech": 3997,
      "Ġabs": 3998,
      "Ġdisk": 3999,
      "Ġelement": 4000,
      "undle": 4001,
      "Ġcorrespon": 4002,
      "Cre": 4003,
      "Ġoccur": 4004,
      "Ġprovides": 4005,
      "ĠStart": 4006,
      "ĠHowever": 4007,
      "Ġawk": 4008,
      "ĠPNG": 4009,
      "Ġarea": 4010,
      "reg": 4011,
      "ape": 4012,
      "ĠCLI": 4013,
      "rel": 4014,
      "Ġ32": 4015,
      "ĠApp": 4016,
      "Ġaccept": 4017,
      "Ġcandidate": 4018,
      "ged": 4019,
      "password": 4020,
      "hi": 4021,
      "ĠRead": 4022,
      "Ġcredentials": 4023,
      "Ġ[&](": 4024,
      "ĠMan": 4025,
      "IMARY": 4026,
      "357": 4027,
      "Ġbook": 4028,
      "nCPP": 4029,
      "Ġpipeline": 4030,
      "which": 4031,
      "ĠDoc": 4032,
      "Ġbal": 4033,
      "point": 4034,
      "ĠTr": 4035,
      "tters": 4036,
      "Ġduring": 4037,
      "Ġzero": 4038,
      "Ġcolors": 4039,
      "Ġnd": 4040,
      "Ġbaseline": 4041,
      "headers": 4042,
      "Ġfreq": 4043,
      "Ġfail": 4044,
      "ffect": 4045,
      "Ġdoesn": 4046,
      "ĠPo": 4047,
      "ighb": 4048,
      "ĠPRIMARY": 4049,
      "gen": 4050,
      "icrosoft": 4051,
      "kn": 4052,
      "late": 4053,
      "Cont": 4054,
      "seconds": 4055,
      "usiness": 4056,
      "'m": 4057,
      "ĠRO": 4058,
      "Ġconnection": 4059,
      "\\\".": 4060,
      "cent": 4061,
      "Ġloo": 4062,
      "()\\\\": 4063,
      "Ã³n": 4064,
      "kens": 4065,
      "most": 4066,
      "bound": 4067,
      "icon": 4068,
      "RI": 4069,
      "Ġprice": 4070,
      "exit": 4071,
      "Ġregular": 4072,
      "Ġweight": 4073,
      "ird": 4074,
      "django": 4075,
      "ident": 4076,
      "Ġ4096": 4077,
      "120": 4078,
      "400": 4079,
      "quirements": 4080,
      "250": 4081,
      "Ġapplication": 4082,
      "covery": 4083,
      "Ġexpress": 4084,
      "POSAL": 4085,
      "gan": 4086,
      "Ġpts": 4087,
      "access": 4088,
      "ROPOSAL": 4089,
      "Ġdjango": 4090,
      "Ġmapping": 4091,
      "Ġ$(": 4092,
      "rome": 4093,
      "eep": 4094,
      "lar": 4095,
      "Ġcomplex": 4096,
      "hes": 4097,
      "Ġra": 4098,
      "acing": 4099,
      "ĠEmail": 4100,
      "ventory": 4101,
      "ĠGoogle": 4102,
      "vm": 4103,
      "pify": 4104,
      "Ġtables": 4105,
      "mv": 4106,
      "cast": 4107,
      "wordpress": 4108,
      "ĠAl": 4109,
      "Ġrot": 4110,
      "ĠOutline": 4111,
      "ived": 4112,
      "ni": 4113,
      "('/": 4114,
      "Man": 4115,
      "ĠSp": 4116,
      "Ġ26": 4117,
      "loc": 4118,
      "lette": 4119,
      "HA": 4120,
      "âĶĢâĶĢ": 4121,
      "Ġsmallest": 4122,
      "ategory": 4123,
      "VG": 4124,
      "Ġparse": 4125,
      "Ġsquare": 4126,
      "Ġcsv": 4127,
      "ĠReplace": 4128,
      "aves": 4129,
      "Ġdq": 4130,
      "nfor": 4131,
      "Ġmaster": 4132,
      "Ġsatisfy": 4133,
      "llustr": 4134,
      "inv": 4135,
      "edge": 4136,
      "image": 4137,
      "adb": 4138,
      "change": 4139,
      "Ġpract": 4140,
      "Ġduplic": 4141,
      "Ġ};\\": 4142,
      "ĠOracle": 4143,
      "Ġdb": 4144,
      "gex": 4145,
      "vels": 4146,
      "Ġround": 4147,
      "DD": 4148,
      "]=": 4149,
      "BB": 4150,
      "Ġincludes": 4151,
      "Ġop": 4152,
      "Ġevents": 4153,
      "Ġunique": 4154,
      "Ġ05": 4155,
      "concept": 4156,
      "mt": 4157,
      "dig": 4158,
      "Ġteam": 4159,
      "Ġmight": 4160,
      "Ġdeployment": 4161,
      "modules": 4162,
      "Ġassign": 4163,
      "ĠSummary": 4164,
      "ĠRE": 4165,
      "jpg": 4166,
      "ason": 4167,
      ";++": 4168,
      "sim": 4169,
      "ĠProposal": 4170,
      "Ġexports": 4171,
      "grade": 4172,
      "Ġsettings": 4173,
      "Ġadjac": 4174,
      "eros": 4175,
      "istory": 4176,
      "Ġcir": 4177,
      "reach": 4178,
      "tests": 4179,
      "bout": 4180,
      "Ġsumma": 4181,
      "Ġsegments": 4182,
      "/\\": 4183,
      "ĠRes": 4184,
      "ĠEng": 4185,
      "JSON": 4186,
      "track": 4187,
      "1920": 4188,
      "verify": 4189,
      "CI": 4190,
      "Ġgood": 4191,
      "]}": 4192,
      "hent": 4193,
      "Ġlibav": 4194,
      "Ġconvert": 4195,
      "Ġconfirms": 4196,
      "TER": 4197,
      "ROUP": 4198,
      "full": 4199,
      "Ġallowed": 4200,
      "))\\\\": 4201,
      "Ġ'\\": 4202,
      "(*": 4203,
      "Ġfloor": 4204,
      "Ġ80": 4205,
      "Str": 4206,
      "Ġsug": 4207,
      "Ġdistribution": 4208,
      "activate": 4209,
      "Ġwire": 4210,
      "Ġpreview": 4211,
      "SA": 4212,
      "Ġlead": 4213,
      "Ġ['": 4214,
      "Ġwp": 4215,
      "Ġcare": 4216,
      "Ġlibxmuu": 4217,
      "]\\\\": 4218,
      "uple": 4219,
      "ĠMA": 4220,
      "rows": 4221,
      "Ġexper": 4222,
      "').": 4223,
      "err": 4224,
      "Ġdon": 4225,
      "ban": 4226,
      "antclient": 4227,
      "fun": 4228,
      "guide": 4229,
      "nW": 4230,
      "Ġopenssh": 4231,
      "Ġmonth": 4232,
      "models": 4233,
      ">\\\\": 4234,
      "prev": 4235,
      "Ġxauth": 4236,
      "oneline": 4237,
      "Ġmemory": 4238,
      "Ġreturns": 4239,
      "Ġlarger": 4240,
      "ula": 4241,
      "ertific": 4242,
      "Ġ'---": 4243,
      "Ġsuggest": 4244,
      "edy": 4245,
      "Ġearli": 4246,
      "extract": 4247,
      "column": 4248,
      "ĠExecute": 4249,
      "tegration": 4250,
      "ĠSEO": 4251,
      "Ġliberror": 4252,
      "Building": 4253,
      "Press": 4254,
      "Ġque": 4255,
      "ĠCount": 4256,
      "Process": 4257,
      "Ġchildren": 4258,
      "Ġtracking": 4259,
      "diff": 4260,
      "Ġdelimit": 4261,
      "ĠCT": 4262,
      "Ġprepare": 4263,
      "Ġoptionally": 4264,
      "Ġ}\\\\": 4265,
      "su": 4266,
      "ĠWord": 4267,
      "Ġplatform": 4268,
      "Ġknown": 4269,
      "erial": 4270,
      "pix": 4271,
      "riteria": 4272,
      "IP": 4273,
      "Ġmeans": 4274,
      "Ġmaintain": 4275,
      "Ġold": 4276,
      "hen": 4277,
      ")\"": 4278,
      "ui": 4279,
      "ottom": 4280,
      "ĠFind": 4281,
      "limit": 4282,
      "Ġlibc": 4283,
      "1010": 4284,
      "ĠOverwrite": 4285,
      "ĠFreelancer": 4286,
      "Ġlikely": 4287,
      "UI": 4288,
      "INF": 4289,
      "tain": 4290,
      "anced": 4291,
      "ances": 4292,
      "aml": 4293,
      "PE": 4294,
      "ĠName": 4295,
      "ather": 4296,
      "HTML": 4297,
      "Ġdelete": 4298,
      "Ġargs": 4299,
      "Ġ100000000": 4300,
      "gradle": 4301,
      "Ġdivis": 4302,
      "buffer": 4303,
      "/{": 4304,
      "Ġestab": 4305,
      "front": 4306,
      "ids": 4307,
      "ĠPO": 4308,
      "Ġpatterns": 4309,
      "Ġmock": 4310,
      "agent": 4311,
      "od": 4312,
      "Ġsuff": 4313,
      "ention": 4314,
      "uv": 4315,
      "ĠKeep": 4316,
      "reserve": 4317,
      "cluding": 4318,
      "global": 4319,
      "ĠCompile": 4320,
      "daemon": 4321,
      "ĠâĤ": 4322,
      "DATE": 4323,
      "Ġautom": 4324,
      "Ġpres": 4325,
      "arm": 4326,
      "frames": 4327,
      "ormal": 4328,
      "Ġway": 4329,
      "ssql": 4330,
      "otify": 4331,
      "Ġdeg": 4332,
      "necho": 4333,
      "ĠHe": 4334,
      "strap": 4335,
      "Ġpush": 4336,
      "Ġdevice": 4337,
      "Ġparity": 4338,
      "Ġmess": 4339,
      "Act": 4340,
      "ĠAND": 4341,
      "pand": 4342,
      "Ġparts": 4343,
      "Ġvoid": 4344,
      "Ġcut": 4345,
      "YY": 4346,
      "Ġexplo": 4347,
      "Ġlang": 4348,
      "ĠValidate": 4349,
      "Ġnp": 4350,
      "assign": 4351,
      "Ġlibfido": 4352,
      "zz": 4353,
      "Ġcreation": 4354,
      "ĠGet": 4355,
      "Ġspeed": 4356,
      "ĠSh": 4357,
      "};": 4358,
      "enef": 4359,
      "Ġrespect": 4360,
      "OUR": 4361,
      "ramework": 4362,
      "Ġlibd": 4363,
      "ĠAt": 4364,
      "current": 4365,
      "Ġinstructions": 4366,
      "lement": 4367,
      "ĠEND": 4368,
      "child": 4369,
      "ilar": 4370,
      "Ġ2024": 4371,
      "sorted": 4372,
      "Ġpaid": 4373,
      "Ġsqlcmd": 4374,
      "All": 4375,
      "decode": 4376,
      "short": 4377,
      "Ġentry": 4378,
      "attr": 4379,
      "Ġsnipp": 4380,
      "nB": 4381,
      "Ġ100644": 4382,
      "ably": 4383,
      "altern": 4384,
      "Ġrelev": 4385,
      "ists": 4386,
      "AAAAAAAA": 4387,
      "Ġreser": 4388,
      "your": 4389,
      "oting": 4390,
      "None": 4391,
      "Ġwrapp": 4392,
      "Ġdeque": 4393,
      "1111": 4394,
      "Ġstatement": 4395,
      "cles": 4396,
      "encode": 4397,
      "note": 4398,
      "Ġfoc": 4399,
      "payment": 4400,
      "Ġoption": 4401,
      "atures": 4402,
      "Ġconnected": 4403,
      "nanos": 4404,
      "cbor": 4405,
      "ecab": 4406,
      "ĠâĨĴ": 4407,
      "Ġpe": 4408,
      "layout": 4409,
      "nThe": 4410,
      "Ġexamples": 4411,
      "bject": 4412,
      "proc": 4413,
      "omet": 4414,
      "CA": 4415,
      "nP": 4416,
      "outputs": 4417,
      "Ġbackup": 4418,
      "Ġ};": 4419,
      "Ġinterior": 4420,
      "Ġaccordingly": 4421,
      "ĠPa": 4422,
      "indows": 4423,
      "Ġactive": 4424,
      "customer": 4425,
      "libg": 4426,
      "ats": 4427,
      "Ġunsigned": 4428,
      "Ġ'{": 4429,
      "Ġ[-": 4430,
      "Ġmilestones": 4431,
      "ĠSVG": 4432,
      "cy": 4433,
      "ettings": 4434,
      "ĠCOUNT": 4435,
      "Ġadmin": 4436,
      "exports": 4437,
      "Ġlower": 4438,
      "nb": 4439,
      "itor": 4440,
      ":-": 4441,
      "iÃ³n": 4442,
      "login": 4443,
      "ĠLe": 4444,
      "ĠStep": 4445,
      "ĠAss": 4446,
      "Ġhealth": 4447,
      "stra": 4448,
      "170": 4449,
      "Ġcounting": 4450,
      "ench": 4451,
      "yles": 4452,
      "\\\":\\\"": 4453,
      "ĠĠĠĠĠĠĠĠĠĠ": 4454,
      "Ġscal": 4455,
      "angle": 4456,
      "ypes": 4457,
      "estamp": 4458,
      "oryboard": 4459,
      "Ġnxt": 4460,
      "Ġletters": 4461,
      "ffmpeg": 4462,
      "chain": 4463,
      "ece": 4464,
      "reading": 4465,
      "Ġpostgresql": 4466,
      "ĠCompute": 4467,
      "RA": 4468,
      "DE": 4469,
      "friend": 4470,
      "Ġlevels": 4471,
      "matic": 4472,
      "Ġheap": 4473,
      "gi": 4474,
      "IG": 4475,
      "}.": 4476,
      "(){": 4477,
      ")'": 4478,
      "Ġmatrix": 4479,
      "solver": 4480,
      "Ġcreating": 4481,
      "ambda": 4482,
      "Ġcontext": 4483,
      "Ġcustomer": 4484,
      "]+": 4485,
      "connect": 4486,
      "aries": 4487,
      "many": 4488,
      "branding": 4489,
      ":'": 4490,
      "Ġnumpy": 4491,
      "Ġskip": 4492,
      "ĠOS": 4493,
      "flo": 4494,
      "Ġneg": 4495,
      "Ġcity": 4496,
      "Ġobtain": 4497,
      "ĠDjango": 4498,
      "hens": 4499,
      "imeline": 4500,
      "clus": 4501,
      "sleep": 4502,
      "Ġoptimization": 4503,
      "ĠReturn": 4504,
      "Ġguidelines": 4505,
      "yaml": 4506,
      "possible": 4507,
      "Ġyield": 4508,
      "ĠServer": 4509,
      "backports": 4510,
      "Ġdirectly": 4511,
      "alternatives": 4512,
      "2015": 4513,
      "102": 4514,
      "Ġ07": 4515,
      "commend": 4516,
      "Ġstud": 4517,
      "(){\\": 4518,
      "Ġlocation": 4519,
      "Ġload": 4520,
      "Fi": 4521,
      "ĠCo": 4522,
      "fin": 4523,
      "Ġgame": 4524,
      "plotlib": 4525,
      "sm": 4526,
      "come": 4527,
      "Ġdetailed": 4528,
      "Des": 4529,
      "cursor": 4530,
      "argument": 4531,
      "event": 4532,
      "Ġfriend": 4533,
      "fig": 4534,
      "kan": 4535,
      "pography": 4536,
      "ole": 4537,
      "Oi": 4538,
      "ools": 4539,
      "va": 4540,
      "dbus": 4541,
      "Ġraw": 4542,
      "prehens": 4543,
      "Ġfilesystem": 4544,
      "Or": 4545,
      "compute": 4546,
      "eyJ": 4547,
      "Ġproduction": 4548,
      "Ġpermutation": 4549,
      "Ġtemp": 4550,
      "Ġtooling": 4551,
      "Not": 4552,
      "fect": 4553,
      "Ġpayload": 4554,
      "Proposal": 4555,
      "Ġwc": 4556,
      "Ġdict": 4557,
      "Ġasset": 4558,
      "Ġwin": 4559,
      ".)": 4560,
      "OiJ": 4561,
      "TABLE": 4562,
      "Ġredirect": 4563,
      "Ġlibgl": 4564,
      "session": 4565,
      "255": 4566,
      "Ġarchive": 4567,
      "SH": 4568,
      "Ġrender": 4569,
      "RIn": 4570,
      "dered": 4571,
      "step": 4572,
      "Ġ'<": 4573,
      "ĠGROUP": 4574,
      "Ġdynamic": 4575,
      "Ġrece": 4576,
      "nls": 4577,
      "amount": 4578,
      "otstrap": 4579,
      "object": 4580,
      "INPUT": 4581,
      "Ġlocally": 4582,
      "poser": 4583,
      "Ġvisual": 4584,
      "platform": 4585,
      "tri": 4586,
      "rf": 4587,
      "Ġ[(": 4588,
      "az": 4589,
      "ĊĠĠĠĠ": 4590,
      "ĠSee": 4591,
      "Ġnewly": 4592,
      "ĠPOST": 4593,
      ":**": 4594,
      "bove": 4595,
      "subdir": 4596,
      "Ġsche": 4597,
      "Ġhapp": 4598,
      "Ġavail": 4599,
      "ĠPHP": 4600,
      "Ġflag": 4601,
      "NS": 4602,
      "Ġdevelopment": 4603,
      "ebian": 4604,
      "Ġemp": 4605,
      "Ġchanged": 4606,
      "Is": 4607,
      "Ġalternative": 4608,
      "Ġloop": 4609,
      "Ġsources": 4610,
      "MAX": 4611,
      "Ġlibcbor": 4612,
      "rop": 4613,
      "ios": 4614,
      "Ġhours": 4615,
      "Ġabove": 4616,
      "Ġpresence": 4617,
      "Ġtex": 4618,
      "sem": 4619,
      "move": 4620,
      "copy": 4621,
      "Inst": 4622,
      "delivery": 4623,
      "='*.": 4624,
      "Ġmodels": 4625,
      "prime": 4626,
      "ased": 4627,
      "Ġtin": 4628,
      "sect": 4629,
      "Ġfoot": 4630,
      "Client": 4631,
      "1223": 4632,
      "strings": 4633,
      "Ġpermissions": 4634,
      "Ġrank": 4635,
      "lex": 4636,
      "3000": 4637,
      "idden": 4638,
      "=[": 4639,
      "Alice": 4640,
      "Ġsuper": 4641,
      "Ġverified": 4642,
      "illed": 4643,
      "Ġhelper": 4644,
      "Ġquest": 4645,
      "ents": 4646,
      "Ġ`('": 4647,
      "Ġdiag": 4648,
      "Final": 4649,
      "urlo": 4650,
      "appl": 4651,
      "Ġ...,": 4652,
      "yml": 4653,
      "Ġrelevant": 4654,
      "Ġdan": 4655,
      "Ġheaders": 4656,
      "Ġvar": 4657,
      "filter": 4658,
      ".*": 4659,
      "MOD": 4660,
      "otion": 4661,
      "kit": 4662,
      "urlopen": 4663,
      "Ġshare": 4664,
      "patch": 4665,
      "metadata": 4666,
      "Ġvariable": 4667,
      "Ġoptimal": 4668,
      "ĠPlace": 4669,
      "));\\": 4670,
      "ned": 4671,
      "/_": 4672,
      "points": 4673,
      "release": 4674,
      "Ġ08": 4675,
      "600": 4676,
      "Tube": 4677,
      "heet": 4678,
      "Ġsnapshot": 4679,
      "Ġtouch": 4680,
      "mission": 4681,
      "00000": 4682,
      "ox": 4683,
      "Ġsimilar": 4684,
      "8646": 4685,
      "thing": 4686,
      "known": 4687,
      "Key": 4688,
      ".\"": 4689,
      "Ġ\",": 4690,
      "De": 4691,
      "price": 4692,
      "404": 4693,
      "Ġax": 4694,
      "itable": 4695,
      "venmo": 4696,
      "only": 4697,
      "Ġthird": 4698,
      "ĠSo": 4699,
      "gl": 4700,
      "Ġcampaigns": 4701,
      "312": 4702,
      "wc": 4703,
      "ĠĠĠĠĠĠĠĠĠĠĠĠĠĠĠĠĠĠĠĠĠĠĠĠĠĠĠĠ": 4704,
      "0357": 4705,
      "Ġsur": 4706,
      "Ġrest": 4707,
      "Ġ8000": 4708,
      "Ġ33": 4709,
      "Ġexternally": 4710,
      "ENT": 4711,
      "Ġgreedy": 4712,
      "ĠDocument": 4713,
      "untime": 4714,
      "ensitive": 4715,
      "lead": 4716,
      "ĠâĤ¹": 4717,
      "Ġexpl": 4718,
      "Ġgroups": 4719,
      "Ġdebug": 4720,
      "Ġutil": 4721,
      "double": 4722,
      "Ġrevis": 4723,
      "olution": 4724,
      "description": 4725,
      "bs": 4726,
      "ĠâĢ¢": 4727,
      "gitfa": 4728,
      "20151223": 4729,
      "Ġearlier": 4730,
      "Ġexpand": 4731,
      "Ġways": 4732,
      "icated": 4733,
      "432": 4734,
      "Res": 4735,
      "OM": 4736,
      "application": 4737,
      "ĠSim": 4738,
      "Ġdid": 4739,
      "ses": 4740,
      "theme": 4741,
      "ĠAbout": 4742,
      "ĠMAX": 4743,
      "Ġzeros": 4744,
      "ales": 4745,
      "Ġlimited": 4746,
      "Ġresulting": 4747,
      "ĠRem": 4748,
      "pha": 4749,
      "Ġzip": 4750,
      "Ġcalendar": 4751,
      "orage": 4752,
      "Ġneighb": 4753,
      "air": 4754,
      "sage": 4755,
      "ĠClient": 4756,
      "Ġpassword": 4757,
      "correct": 4758,
      "Ġpandas": 4759,
      "Ġaud": 4760,
      "acy": 4761,
      "grid": 4762,
      "Work": 4763,
      "rest": 4764,
      "Ġtokens": 4765,
      "postgresql": 4766,
      "ination": 4767,
      "Ġstarted": 4768,
      "izing": 4769,
      "ĠTry": 4770,
      "inx": 4771,
      "Ġsnippet": 4772,
      "Ġrules": 4773,
      "Ġnumer": 4774,
      "aming": 4775,
      "Ġfails": 4776,
      "river": 4777,
      "dumps": 4778,
      "EC": 4779,
      "idates": 4780,
      "Ġprof": 4781,
      "Ġtested": 4782,
      "ĠYES": 4783,
      "ĠSteps": 4784,
      "ED": 4785,
      "ĠActive": 4786,
      "random": 4787,
      "Ġanalytics": 4788,
      "Ġdeep": 4789,
      ">'": 4790,
      "ĠInitialize": 4791,
      "ĠDisplay": 4792,
      "Ġfunctional": 4793,
      "Ġmix": 4794,
      "ump": 4795,
      "Ġlocalhost": 4796,
      "zero": 4797,
      "Ġsever": 4798,
      "Ġstra": 4799,
      "can": 4800,
      "ECT": 4801,
      "cell": 4802,
      "ilds": 4803,
      "Ġefficiently": 4804,
      "Ġptr": 4805,
      "$$$.": 4806,
      "ĠGo": 4807,
      "insert": 4808,
      "device": 4809,
      "Ġinstead": 4810,
      "enefits": 4811,
      "Ġshared": 4812,
      "field": 4813,
      "names": 4814,
      "ators": 4815,
      "Ġimprove": 4816,
      "ĠHand": 4817,
      "cand": 4818,
      "heap": 4819,
      "Ġsqlplus": 4820,
      "ĠRec": 4821,
      "ĠProduct": 4822,
      "Ġending": 4823,
      "On": 4824,
      "Ġstraight": 4825,
      "aba": 4826,
      "PG": 4827,
      "Ġseveral": 4828,
      "pli": 4829,
      "rev": 4830,
      "Node": 4831,
      "dr": 4832,
      "]*(": 4833,
      "First": 4834,
      "cons": 4835,
      "Ġreason": 4836,
      "ĠDel": 4837,
      "Ġappear": 4838,
      "=\\\\\\\"": 4839,
      "Ġconstraint": 4840,
      "qrt": 4841,
      "ĠâĢĵ": 4842,
      "MENT": 4843,
      "nding": 4844,
      "Ġdemonstration": 4845,
      "mid": 4846,
      "Ġorgan": 4847,
      "ĠBFS": 4848,
      "prehensive": 4849,
      "odbc": 4850,
      "Ġour": 4851,
      "ĠOpt": 4852,
      "),(": 4853,
      "Ġcombined": 4854,
      "IMIT": 4855,
      "adj": 4856,
      "UR": 4857,
      "Ġ256": 4858,
      "ĠGener": 4859,
      "Ġtexlive": 4860,
      "ipad": 4861,
      "ĠINR": 4862,
      "icorn": 4863,
      "wrapp": 4864,
      "ology": 4865,
      "calendar": 4866,
      "mecab": 4867,
      "ĠDATABASE": 4868,
      "dx": 4869,
      "ening": 4870,
      "pages": 4871,
      "Ġcorrected": 4872,
      "close": 4873,
      "ĠFirst": 4874,
      "Ġauthent": 4875,
      "Ġpropose": 4876,
      "cing": 4877,
      "automation": 4878,
      "eff": 4879,
      "Ġjobs": 4880,
      "chie": 4881,
      "Ġequals": 4882,
      "\\\")": 4883,
      "proj": 4884,
      "(*)": 4885,
      "mobile": 4886,
      "Ġty": 4887,
      "ĠTh": 4888,
      "ĠPlease": 4889,
      "omes": 4890,
      "ĠNEW": 4891,
      "ĠWordPress": 4892,
      "Ġtitle": 4893,
      "ety": 4894,
      "Ġmetrics": 4895,
      "Ġcp": 4896,
      "term": 4897,
      "WS": 4898,
      "Ġcollections": 4899,
      "ĠAv": 4900,
      "alf": 4901,
      "Ġrecurs": 4902,
      "Ġps": 4903,
      "Ġinterpre": 4904,
      "Ġconsecutive": 4905,
      "Ġhis": 4906,
      "dern": 4907,
      "ipadic": 4908,
      "versions": 4909,
      "DATABASE": 4910,
      "Ġhistory": 4911,
      "Need": 4912,
      "Ġcoreutils": 4913,
      "ality": 4914,
      "extra": 4915,
      "Ġchoose": 4916,
      "Ġmerge": 4917,
      "Ġglobal": 4918,
      "proposals": 4919,
      "dent": 4920,
      "Ġexplore": 4921,
      "Ġ\\'": 4922,
      "]-": 4923,
      "Ġ2023": 4924,
      "Ġweekly": 4925,
      "=(": 4926,
      "Ġcontact": 4927,
      "Ġnest": 4928,
      "has": 4929,
      "Ġlibglib": 4930,
      "np": 4931,
      "alog": 4932,
      "Ġparamet": 4933,
      "orig": 4934,
      "Ġstrict": 4935,
      "utton": 4936,
      "Ġ1080": 4937,
      "unsigned": 4938,
      "}\\\\": 4939,
      "1000": 4940,
      "COL": 4941,
      "[(": 4942,
      "âĶģâĶģâĶģâĶģâĶģâĶģâĶģâĶģâĶģâĶģâĶģâĶģâĶģâĶģâĶģâĶģ": 4943,
      "adi": 4944,
      "Ġvariables": 4945,
      "IS": 4946,
      "Ġtimeline": 4947,
      "ipping": 4948,
      "forward": 4949,
      "Ġaccessible": 4950,
      "leq": 4951,
      "[-": 4952,
      "ervice": 4953,
      "ections": 4954,
      "foot": 4955,
      "300": 4956,
      "Ġforward": 4957,
      "Ġstream": 4958,
      "Ġredu": 4959,
      "convert": 4960,
      "ÃĹ": 4961,
      "settings": 4962,
      "Ġfolders": 4963,
      "Ġxml": 4964,
      "ĠPATH": 4965,
      "skeleton": 4966,
      "Ġformula": 4967,
      "pid": 4968,
      "andbox": 4969,
      "kt": 4970,
      "ners": 4971,
      "Ġplanning": 4972,
      "images": 4973,
      "Ġsizes": 4974,
      "Ġsuccessful": 4975,
      "Ġaudio": 4976,
      "vest": 4977,
      "Ġestablish": 4978,
      "Ġchain": 4979,
      "rowth": 4980,
      "lap": 4981,
      "File": 4982,
      "instance": 4983,
      "avel": 4984,
      "memory": 4985,
      "Ġstar": 4986,
      "now": 4987,
      "deg": 4988,
      "brief": 4989,
      "rie": 4990,
      "Ġbody": 4991,
      "Ġcar": 4992,
      ")))": 4993,
      "Ġweeks": 4994,
      "Ġbi": 4995,
      "240": 4996,
      "Ar": 4997,
      "Ġverifier": 4998,
      "Ġ(!": 4999,
      "Ġcondition": 5000,
      "rate": 5001,
      "Ġdf": 5002,
      "Ġ39": 5003,
      "Ġcaused": 5004,
      "idge": 5005,
      "venue": 5006,
      "phone": 5007,
      "anges": 5008,
      "Ġtriggers": 5009,
      "Ġwords": 5010,
      "Ġfilter": 5011,
      "Ġrect": 5012,
      "Ġpositive": 5013,
      "Ġmanagement": 5014,
      "Deliverables": 5015,
      "âķ": 5016,
      "uck": 5017,
      "Ġbecomes": 5018,
      "Ġsales": 5019,
      "xtures": 5020,
      "____": 5021,
      "PT": 5022,
      "Ġportfolio": 5023,
      "}\\\")\\": 5024,
      "NET": 5025,
      "Ġreverse": 5026,
      "orld": 5027,
      "instantclient": 5028,
      "Ġside": 5029,
      "Ġreflect": 5030,
      "flag": 5031,
      "Ġavailability": 5032,
      "usic": 5033,
      "ored": 5034,
      "Ġblue": 5035,
      "Ġful": 5036,
      "ĠOK": 5037,
      "depend": 5038,
      "Ġreachable": 5039,
      "Ġprime": 5040,
      "Ġlive": 5041,
      "Ġfinish": 5042,
      "Ġmcp": 5043,
      "counts": 5044,
      "Ġcorresponding": 5045,
      ">(": 5046,
      "Ġboundary": 5047,
      "tail": 5048,
      "................": 5049,
      "ugins": 5050,
      "ĠWork": 5051,
      "INAL": 5052,
      "ĠKey": 5053,
      "aved": 5054,
      "Ġder": 5055,
      "Server": 5056,
      "aff": 5057,
      "Ġdisc": 5058,
      "ĠInvalid": 5059,
      "Ġkeys": 5060,
      "Ġtransl": 5061,
      "ational": 5062,
      "Ġwants": 5063,
      "hip": 5064,
      "Ġpick": 5065,
      "Hel": 5066,
      "Yes": 5067,
      "à¤": 5068,
      "ĠRemote": 5069,
      "-%": 5070,
      "alk": 5071,
      "Ġletter": 5072,
      "adding": 5073,
      "Found": 5074,
      "ĠIS": 5075,
      "Ġnewlines": 5076,
      "Ġdefined": 5077,
      "ama": 5078,
      "perm": 5079,
      "Ġdev": 5080,
      "Activity": 5081,
      "ze": 5082,
      "Ġnull": 5083,
      "SU": 5084,
      "Ġrequested": 5085,
      "randint": 5086,
      "Ġintervals": 5087,
      "light": 5088,
      "Ġrisk": 5089,
      "ĠST": 5090,
      "edges": 5091,
      "icle": 5092,
      "vate": 5093,
      "490": 5094,
      "3986": 5095,
      "Ġisn": 5096,
      "Ġarchives": 5097,
      "Ġformats": 5098,
      "++){": 5099,
      "tona": 5100,
      "igation": 5101,
      "Ġoptional": 5102,
      "ĠCre": 5103,
      "CON": 5104,
      "2024": 5105,
      "Ġpackaging": 5106,
      "nprintf": 5107,
      "UN": 5108,
      "Ġcompare": 5109,
      "Ġgcd": 5110,
      "US": 5111,
      "neg": 5112,
      "Ġanalyze": 5113,
      "social": 5114,
      "'],": 5115,
      "Ġachie": 5116,
      "'))": 5117,
      "Ġprob": 5118,
      "migr": 5119,
      ".'\\": 5120,
      "bi": 5121,
      "Processing": 5122,
      "Ġ(-": 5123,
      "iring": 5124,
      "Ġsec": 5125,
      "Ġland": 5126,
      "Ġrepl": 5127,
      "ĠFF": 5128,
      "Hand": 5129,
      "eframe": 5130,
      "ĠPhase": 5131,
      "Ġdedicated": 5132,
      "List": 5133,
      "amily": 5134,
      "nodes": 5135,
      "DO": 5136,
      "Ġvertical": 5137,
      "har": 5138,
      "latex": 5139,
      "Ġargument": 5140,
      "ĠReact": 5141,
      "Ġaround": 5142,
      "Ġign": 5143,
      "lower": 5144,
      "Ġedits": 5145,
      ".</": 5146,
      "150": 5147,
      "nclass": 5148,
      "Ġmedia": 5149,
      "Ġregion": 5150,
      "ĠMMS": 5151,
      "Ġunit": 5152,
      "frame": 5153,
      "Request": 5154,
      "ĠLog": 5155,
      "Ġrepeated": 5156,
      "Ġremoved": 5157,
      "Ġexceed": 5158,
      "true": 5159,
      "arget": 5160,
      "Ġillustr": 5161,
      "JS": 5162,
      "});": 5163,
      "insensitive": 5164,
      "Ġsection": 5165,
      "promo": 5166,
      "Ġ)": 5167,
      "Ġrepeat": 5168,
      "Ø§": 5169,
      "itted": 5170,
      "Ġvs": 5171,
      "ĠCPP": 5172,
      "ĠPROPOSAL": 5173,
      "ĠCREATE": 5174,
      "Ġstates": 5175,
      "enw": 5176,
      "gnu": 5177,
      "backup": 5178,
      "mysqld": 5179,
      "Ġtimeframe": 5180,
      "Ġstdin": 5181,
      "upt": 5182,
      "ensions": 5183,
      "Ġsubdirect": 5184,
      "Ġamong": 5185,
      "bef": 5186,
      "Ġswap": 5187,
      "Ġlibt": 5188,
      "ico": 5189,
      "ĠMon": 5190,
      "âĸ": 5191,
      "Ġcoordinates": 5192,
      "Ġfixtures": 5193,
      "Ġlibn": 5194,
      "ĠSystem": 5195,
      "database": 5196,
      "Ġstructured": 5197,
      "Ġincluded": 5198,
      "Ġrelated": 5199,
      "ĠBenefits": 5200,
      "Ġ<<\\\"": 5201,
      "mvp": 5202,
      "ivot": 5203,
      "Model": 5204,
      "ĠDet": 5205,
      "number": 5206,
      "ja": 5207,
      "ancy": 5208,
      "Ġstop": 5209,
      "awk": 5210,
      "ĠAds": 5211,
      "Ġencoding": 5212,
      "semble": 5213,
      "Ġtypes": 5214,
      "Ġdatasets": 5215,
      "Ġeval": 5216,
      "ĠOnce": 5217,
      "Ġservices": 5218,
      ":\\\",": 5219,
      "pow": 5220,
      "ĠCTA": 5221,
      "Ġseparated": 5222,
      "Ġsubset": 5223,
      "reels": 5224,
      "ering": 5225,
      "443": 5226,
      "ĠCont": 5227,
      "Sample": 5228,
      "]){": 5229,
      "KEY": 5230,
      "ties": 5231,
      "Ġsuitable": 5232,
      "uage": 5233,
      "Ġstruct": 5234,
      "ĠExample": 5235,
      "3987": 5236,
      "ĠDFS": 5237,
      "Ġinterval": 5238,
      "Ġprototype": 5239,
      "Ġxi": 5240,
      "111": 5241,
      "nical": 5242,
      "found": 5243,
      "ĠFormat": 5244,
      "Ġguaranteed": 5245,
      "Ġimages": 5246,
      "Ġdifference": 5247,
      "ĠEnds": 5248,
      "###": 5249,
      "inf": 5250,
      "mbed": 5251,
      "td": 5252,
      "dpkg": 5253,
      "ĠQA": 5254,
      "icu": 5255,
      "Ġones": 5256,
      "$$$,": 5257,
      "non": 5258,
      ")))\\": 5259,
      "ĠSUM": 5260,
      "napp": 5261,
      "Ġmodify": 5262,
      "Ġlabel": 5263,
      "Ġrecreate": 5264,
      "npython": 5265,
      "uggest": 5266,
      "Ġcriteria": 5267,
      "Ġlab": 5268,
      "Date": 5269,
      "Debian": 5270,
      "styles": 5271,
      "ouch": 5272,
      "Ġmanager": 5273,
      "editor": 5274,
      "position": 5275,
      "Ġinstalling": 5276,
      "Ġbegin": 5277,
      "ĠDevelopment": 5278,
      "replace": 5279,
      "ctl": 5280,
      "JECT": 5281,
      "clean": 5282,
      "ĠPosted": 5283,
      "ĠBrand": 5284,
      "boarding": 5285,
      "Ġbelow": 5286,
      "Ġcenter": 5287,
      "Ġrecord": 5288,
      "Ġlargest": 5289,
      "----------------": 5290,
      "Ġmult": 5291,
      "Ġnested": 5292,
      "Ġpractical": 5293,
      "aper": 5294,
      "Ġ90": 5295,
      "By": 5296,
      "dec": 5297,
      "~/": 5298,
      "reports": 5299,
      "Ġscalable": 5300,
      "doct": 5301,
      "417": 5302,
      "ilities": 5303,
      "416": 5304,
      "ride": 5305,
      "pattern": 5306,
      "mag": 5307,
      "Ġlibdrm": 5308,
      "olved": 5309,
      "143": 5310,
      "prefix": 5311,
      "Ġdest": 5312,
      "POST": 5313,
      "Ġblack": 5314,
      "ader": 5315,
      "Ġshown": 5316,
      "Ġrefine": 5317,
      "');\\": 5318,
      "Ġide": 5319,
      "Sum": 5320,
      "ĠĊ": 5321,
      "onal": 5322,
      "0828": 5323,
      "Ġprimes": 5324,
      "Ġclone": 5325,
      "express": 5326,
      "ifications": 5327,
      "acebook": 5328,
      "Ġpatch": 5329,
      "uzz": 5330,
      "Ġxyz": 5331,
      "Ġediting": 5332,
      "oto": 5333,
      "View": 5334,
      "nR": 5335,
      "isode": 5336,
      "fast": 5337,
      "ople": 5338,
      "Ġwish": 5339,
      "workflow": 5340,
      "Ġnone": 5341,
      "nconst": 5342,
      "dashboard": 5343,
      "CD": 5344,
      "ĠAlso": 5345,
      "Ġiterate": 5346,
      "Ġ##": 5347,
      "Ġqueue": 5348,
      "wx": 5349,
      "Ġspecified": 5350,
      "market": 5351,
      "labor": 5352,
      "Ġreservation": 5353,
      "++++": 5354,
      ";\"": 5355,
      "Ġbits": 5356,
      "Ġlibxml": 5357,
      "pipeline": 5358,
      "+~": 5359,
      "Ġpandoc": 5360,
      "keys": 5361,
      "rs": 5362,
      "ending": 5363,
      "idget": 5364,
      "Ġnothing": 5365,
      "Ġvery": 5366,
      "ops": 5367,
      "590": 5368,
      "blue": 5369,
      "debconf": 5370,
      "Ġconcepts": 5371,
      "Ġmarking": 5372,
      "445": 5373,
      "});\\": 5374,
      "ond": 5375,
      "LD": 5376,
      "Ġ06": 5377,
      "Ġblocked": 5378,
      "OUTPUT": 5379,
      "Ġduplicates": 5380,
      "enwick": 5381,
      "Ġarrays": 5382,
      "loads": 5383,
      "418": 5384,
      "aca": 5385,
      "mock": 5386,
      "ny": 5387,
      "render": 5388,
      "efe": 5389,
      "ĠInput": 5390,
      "Ġsections": 5391,
      "20230828": 5392,
      "824": 5393,
      "Ġshowing": 5394,
      "Ġupper": 5395,
      "aaaaaaaa": 5396,
      "nI": 5397,
      "Ġdelay": 5398,
      "Ġsocket": 5399,
      "public": 5400,
      "Ġrely": 5401,
      "Ġdatetime": 5402,
      "manylinux": 5403,
      "ĠEdge": 5404,
      "\\\",\\": 5405,
      "fetch": 5406,
      "latest": 5407,
      "Ġsan": 5408,
      "ral": 5409,
      "erce": 5410,
      "Ġfront": 5411,
      "Th": 5412,
      "ĠWindows": 5413,
      "videos": 5414,
      "ĠFFmpeg": 5415,
      "Ġsave": 5416,
      "ivered": 5417,
      "riadb": 5418,
      "ĠPer": 5419,
      "ensors": 5420,
      "++;": 5421,
      "nE": 5422,
      "libr": 5423,
      "]);\\": 5424,
      "Ġadjacent": 5425,
      "lambda": 5426,
      "ension": 5427,
      "3333": 5428,
      "750": 5429,
      "ideos": 5430,
      "Ġbuilt": 5431,
      "Ġom": 5432,
      "Ġcomprehensive": 5433,
      "ĠTH": 5434,
      "My": 5435,
      "voice": 5436,
      "visor": 5437,
      "Ġarchitecture": 5438,
      "ĠSub": 5439,
      "Ġentries": 5440,
      "Ġsubtree": 5441,
      "Ġcharset": 5442,
      "Ġ57": 5443,
      "Ġengine": 5444,
      "break": 5445,
      "KE": 5446,
      "lang": 5447,
      "ĠInter": 5448,
      "Ġstraightforward": 5449,
      "greg": 5450,
      "IME": 5451,
      "xy": 5452,
      ".__": 5453,
      "Per": 5454,
      "plugin": 5455,
      "boards": 5456,
      "3990": 5457,
      "buf": 5458,
      "aceback": 5459,
      "Examples": 5460,
      "otos": 5461,
      "Ġrm": 5462,
      "ĠFrom": 5463,
      "arios": 5464,
      "423": 5465,
      "container": 5466,
      "sw": 5467,
      "',\\": 5468,
      "Ġplugin": 5469,
      "phar": 5470,
      "lie": 5471,
      "integration": 5472,
      "Ġconfirmed": 5473,
      "zy": 5474,
      "ĠAs": 5475,
      "ĠDownloading": 5476,
      "ĠYouTube": 5477,
      "Ġsuffix": 5478,
      "Ġsocial": 5479,
      "Ġhard": 5480,
      "repare": 5481,
      "ams": 5482,
      "Ġâľĵ": 5483,
      "ulated": 5484,
      "499": 5485,
      "CHAR": 5486,
      "Ġ2000": 5487,
      "Ġheapq": 5488,
      "uman": 5489,
      "Ġunavailable": 5490,
      "Ġcausing": 5491,
      "ktop": 5492,
      "ĠRo": 5493,
      "ĠLIMIT": 5494,
      "Ġappend": 5495,
      "Ġdirection": 5496,
      "pref": 5497,
      "ees": 5498,
      "Ġsimulate": 5499,
      "Ġentire": 5500,
      "ĠCI": 5501,
      "TS": 5502,
      "ĠCF": 5503,
      "roller": 5504,
      "Now": 5505,
      "Ġsong": 5506,
      "Ġpipx": 5507,
      "fold": 5508,
      "Ġ'./": 5509,
      "ĠAccess": 5510,
      "\\\\\\\\\\\\\\\\\\\\\\\\\\\\\\\\\\\\\\\\\\\\\\\\\\\\\\\\\\\\\\\\": 5511,
      "__(": 5512,
      "exec": 5513,
      "Ġpara": 5514,
      "Ġ70": 5515,
      "ĠExp": 5516,
      "fre": 5517,
      "mf": 5518,
      "``": 5519,
      "account": 5520,
      "gon": 5521,
      "writer": 5522,
      "ĠRequirements": 5523,
      "ada": 5524,
      "());": 5525,
      "Ġindicates": 5526,
      "Collecting": 5527,
      "hook": 5528,
      "urch": 5529,
      "Ġ36": 5530,
      "ncat": 5531,
      "Ġleading": 5532,
      "MI": 5533,
      "Ġmar": 5534,
      "Ad": 5535,
      "Index": 5536,
      "Ġorient": 5537,
      "Ġsets": 5538,
      "Ġreporting": 5539,
      "448": 5540,
      "unk": 5541,
      "Ġtag": 5542,
      "Qu": 5543,
      "*'": 5544,
      "}\"": 5545,
      "415": 5546,
      "month": 5547,
      "Ġswitch": 5548,
      "izont": 5549,
      "Ġfresh": 5550,
      "Ġbottom": 5551,
      "orce": 5552,
      "Ġlibicu": 5553,
      "Ġ45": 5554,
      "bar": 5555,
      "strict": 5556,
      "aste": 5557,
      "CSV": 5558,
      "Ġraise": 5559,
      "ONE": 5560,
      "Ġcards": 5561,
      "ural": 5562,
      "ĠInstagram": 5563,
      "Demo": 5564,
      "Ġemploy": 5565,
      "ĠSearch": 5566,
      "nSELECT": 5567,
      "Ġbusiness": 5568,
      "MY": 5569,
      "rial": 5570,
      "Ġ,": 5571,
      "Ġstrictly": 5572,
      "commerce": 5573,
      "aving": 5574,
      "apter": 5575,
      "Ġgir": 5576,
      "Ġprojects": 5577,
      "Ġlinks": 5578,
      "outube": 5579,
      "writ": 5580,
      "Ġsubprocess": 5581,
      "($": 5582,
      "ĠCapture": 5583,
      "Â·": 5584,
      "tables": 5585,
      "Ġbootstrap": 5586,
      "seq": 5587,
      "ĠDi": 5588,
      "ĊĊĊĊĊĊĊĊĊĊĊĊĊĊĊĊ": 5589,
      "Ġsolid": 5590,
      "digit": 5591,
      ":~/": 5592,
      "VC": 5593,
      "Ġfully": 5594,
      "8080": 5595,
      "cending": 5596,
      "created": 5597,
      "\"]": 5598,
      "uses": 5599,
      "ĠFenwick": 5600,
      "Ġtransform": 5601,
      "upgrade": 5602,
      "Ġlibl": 5603,
      "certific": 5604,
      ")(": 5605,
      "Ġincorrect": 5606,
      "Run": 5607,
      "aily": 5608,
      "ATE": 5609,
      "ptions": 5610,
      "Ġyum": 5611,
      "PRO": 5612,
      "nav": 5613,
      "portfolio": 5614,
      "Ġrate": 5615,
      "nSQL": 5616,
      "Ġreproduce": 5617,
      "ĠPaid": 5618,
      "related": 5619,
      "ĠPay": 5620,
      "nF": 5621,
      "Ġreliably": 5622,
      "Ġprepared": 5623,
      "Bob": 5624,
      "Ġ{\\\"": 5625,
      "Ġtypical": 5626,
      "NV": 5627,
      "raform": 5628,
      "ising": 5629,
      "Ġstarts": 5630,
      "\\\"\\\"": 5631,
      "Par": 5632,
      "parts": 5633,
      "missing": 5634,
      "eta": 5635,
      "umbnail": 5636,
      "profile": 5637,
      "uggested": 5638,
      "annel": 5639,
      "draft": 5640,
      "Ġ{}\\": 5641,
      "Ġconfigured": 5642,
      "pc": 5643,
      "TXT": 5644,
      "Ġdelet": 5645,
      "Ġdeliverable": 5646,
      "Ġincrement": 5647,
      "allow": 5648,
      "Ġcosts": 5649,
      "Ġfeatures": 5650,
      "';\\": 5651,
      "nf": 5652,
      "Ġ48": 5653,
      "456": 5654,
      "Ġgeneration": 5655,
      "Ġâľħ": 5656,
      "nl": 5657,
      "Ġnormal": 5658,
      "asure": 5659,
      "Ġfootage": 5660,
      "Ġrefund": 5661,
      "wide": 5662,
      "Ġ\"-": 5663,
      "ĠFound": 5664,
      "Ġscan": 5665,
      "20231001": 5666,
      "ĠCan": 5667,
      "ough": 5668,
      "Usage": 5669,
      "Ġcandidates": 5670,
      "17029": 5671,
      "Ġprevent": 5672,
      "257": 5673,
      "180": 5674,
      "Ġembed": 5675,
      "iting": 5676,
      "pliance": 5677,
      "etched": 5678,
      "fonts": 5679,
      "multi": 5680,
      "Ġda": 5681,
      "bid": 5682,
      "Ġcommits": 5683,
      "ĠUser": 5684,
      "Ġ[[]": 5685,
      "Ġdemonstrates": 5686,
      "Ġomitted": 5687,
      "Ii": 5688,
      "Ġ*.": 5689,
      "commit": 5690,
      "sqlcmd": 5691,
      "Downloading": 5692,
      "daytona": 5693,
      "ppt": 5694,
      "Ġreturned": 5695,
      "`.": 5696,
      "Creating": 5697,
      "2000": 5698,
      "cision": 5699,
      "Core": 5700,
      "ĠAcc": 5701,
      "ĠAutomation": 5702,
      "Ġmarketing": 5703,
      "Ġmessages": 5704,
      "Ġroom": 5705,
      "oh": 5706,
      "Ġmodified": 5707,
      "proper": 5708,
      "ĠNote": 5709,
      "720": 5710,
      "Ġclar": 5711,
      "ĠTe": 5712,
      "129": 5713,
      "Ġobser": 5714,
      "song": 5715,
      "Ġ<<\"": 5716,
      "PN": 5717,
      "};\\": 5718,
      "vered": 5719,
      "istent": 5720,
      "ĠShow": 5721,
      "two": 5722,
      "safe": 5723,
      "Log": 5724,
      "king": 5725,
      "]))": 5726,
      "ĠTemplate": 5727,
      "Ġmaterial": 5728,
      "Edge": 5729,
      "447": 5730,
      "Ġsubt": 5731,
      "Ġplayer": 5732,
      "$(": 5733,
      "Ġri": 5734,
      "clip": 5735,
      "ached": 5736,
      "Android": 5737,
      "Ġboard": 5738,
      "Ġbuilds": 5739,
      "Table": 5740,
      "ĠXOR": 5741,
      "need": 5742,
      "ership": 5743,
      "cCI": 5744,
      "abb": 5745,
      "udo": 5746,
      "CLI": 5747,
      "Ġcycles": 5748,
      "Ġll": 5749,
      "iddle": 5750,
      "}\")": 5751,
      "ĠPack": 5752,
      "ĠPy": 5753,
      "omy": 5754,
      "Ġrestore": 5755,
      "Ġcou": 5756,
      "vari": 5757,
      "Ġproduces": 5758,
      "driver": 5759,
      "Ubuntu": 5760,
      "':'": 5761,
      "Ġeasy": 5762,
      "ĠCopy": 5763,
      "ĠTools": 5764,
      "464": 5765,
      "nx": 5766,
      "Ġdraw": 5767,
      "265": 5768,
      "HTTP": 5769,
      "Element": 5770,
      "Ġ...]": 5771,
      "network": 5772,
      "ĠMarkdown": 5773,
      "SVG": 5774,
      "friendly": 5775,
      "BD": 5776,
      "tw": 5777,
      "Ġmanaged": 5778,
      "Ġtransfer": 5779,
      "480": 5780,
      "ĠFast": 5781,
      "lists": 5782,
      "Over": 5783,
      "Ġtrailing": 5784,
      "uptools": 5785,
      "Ġred": 5786,
      "wait": 5787,
      "actions": 5788,
      "Ġ42": 5789,
      "\\\">": 5790,
      "Ġpreser": 5791,
      "Ġcapturing": 5792,
      "Ġnav": 5793,
      "ordered": 5794,
      "ĠProcess": 5795,
      "Ġwhose": 5796,
      "Ġ35": 5797,
      "Ġmetadata": 5798,
      "rive": 5799,
      "Ġbox": 5800,
      "Ġnumeric": 5801,
      "ini": 5802,
      "Ġadapt": 5803,
      "`,": 5804,
      "Ġtravel": 5805,
      "Ġgrading": 5806,
      "icing": 5807,
      "Ġ256000000": 5808,
      "doctype": 5809,
      "Ġbalance": 5810,
      "Ġwhite": 5811,
      "Ġcompact": 5812,
      "Print": 5813,
      "icks": 5814,
      "icial": 5815,
      "iq": 5816,
      "score": 5817,
      "800": 5818,
      "ĠUbuntu": 5819,
      "Ġchecking": 5820,
      "imation": 5821,
      "isect": 5822,
      "microsoft": 5823,
      "stat": 5824,
      "Video": 5825,
      "Web": 5826,
      "prototype": 5827,
      "reads": 5828,
      "ĠSample": 5829,
      "__.": 5830,
      "Ġscenarios": 5831,
      "Ġxmlns": 5832,
      "where": 5833,
      "Ġnc": 5834,
      "Ġenh": 5835,
      "ĠMP": 5836,
      "wers": 5837,
      "})": 5838,
      "Ġhalf": 5839,
      "AV": 5840,
      "shared": 5841,
      "Ġliter": 5842,
      "Ġseed": 5843,
      "olds": 5844,
      "igure": 5845,
      "bG": 5846,
      "Ġpq": 5847,
      "fill": 5848,
      "Ġforce": 5849,
      "Ġweights": 5850,
      "CK": 5851,
      "PDF": 5852,
      "Root": 5853,
      "Ġautomation": 5854,
      "Ġvideos": 5855,
      "[...": 5856,
      "ĠReview": 5857,
      "ĊĊĊ": 5858,
      "Ġmanifest": 5859,
      "dg": 5860,
      "ansion": 5861,
      "413": 5862,
      "media": 5863,
      "Ġpower": 5864,
      "Post": 5865,
      "Ġ500": 5866,
      "ĠDep": 5867,
      "specific": 5868,
      "142": 5869,
      "Ġpassed": 5870,
      "atal": 5871,
      "ĠTimeline": 5872,
      "Ġprinting": 5873,
      "cer": 5874,
      "Notes": 5875,
      "Ġrecords": 5876,
      "Ġspaces": 5877,
      "Ġlogin": 5878,
      "Traceback": 5879,
      "Ġmean": 5880,
      "Suggested": 5881,
      "ĠAppend": 5882,
      "Count": 5883,
      "ync": 5884,
      "after": 5885,
      "Ġ127": 5886,
      "Ġdomain": 5887,
      "Ġhour": 5888,
      "Ġtiny": 5889,
      "nr": 5890,
      "ĠINSERT": 5891,
      "EP": 5892,
      "bal": 5893,
      "posite": 5894,
      "REPO": 5895,
      "rupt": 5896,
      "abs": 5897,
      ",-": 5898,
      "Ġeditorial": 5899,
      "Ġvol": 5900,
      "Ġprocesses": 5901,
      "alls": 5902,
      "isks": 5903,
      "Ġ34": 5904,
      ";'": 5905,
      "Ġdelimiter": 5906,
      "mssql": 5907,
      "ersion": 5908,
      "ROP": 5909,
      "Ġrev": 5910,
      "Ġawait": 5911,
      "^{": 5912,
      "Ġ37": 5913,
      "({'": 5914,
      "Ġdefin": 5915,
      "nLet": 5916,
      "keep": 5917,
      "Ġterms": 5918,
      "Di": 5919,
      "Ġisinstance": 5920,
      "ilestone": 5921,
      ":\",": 5922,
      "ivers": 5923,
      "Ġpalette": 5924,
      "zon": 5925,
      "410": 5926,
      "free": 5927,
      "oci": 5928,
      "img": 5929,
      "Ġunzip": 5930,
      "ithmet": 5931,
      "Ġ255": 5932,
      "440": 5933,
      "Ġpdf": 5934,
      "aciÃ³n": 5935,
      "ÙĦ": 5936,
      "Placeholder": 5937,
      "Ġsubstring": 5938,
      "seed": 5939,
      "OP": 5940,
      "mlink": 5941,
      "Ġproducts": 5942,
      "Max": 5943,
      "button": 5944,
      "348": 5945,
      "Ġhor": 5946,
      "sS": 5947,
      "Ġiterative": 5948,
      "ĠSkeleton": 5949,
      "GBGB": 5950,
      "427": 5951,
      "Ġ\"<": 5952,
      "Fetched": 5953,
      "188": 5954,
      "ears": 5955,
      "ĠPrepare": 5956,
      "Ġsafely": 5957,
      "Ġrespectively": 5958,
      "ĠMay": 5959,
      "structure": 5960,
      "ĠPoint": 5961,
      "âĢĿ": 5962,
      "umbnails": 5963,
      "ithmetic": 5964,
      "seo": 5965,
      "Ġban": 5966,
      "engine": 5967,
      "poly": 5968,
      "ĠTime": 5969,
      "Ġassemble": 5970,
      "Field": 5971,
      "ĠVAR": 5972,
      "aws": 5973,
      "Ġincreasing": 5974,
      "Total": 5975,
      "'re": 5976,
      "DS": 5977,
      "SET": 5978,
      "fixed": 5979,
      "acc": 5980,
      "Base": 5981,
      "youtube": 5982,
      "MM": 5983,
      "428": 5984,
      "audio": 5985,
      "ĠWP": 5986,
      "large": 5987,
      "Ġoverwrite": 5988,
      "Ġdownload": 5989,
      "Ġpasses": 5990,
      "Up": 5991,
      "122": 5992,
      "/*.": 5993,
      "Ġthink": 5994,
      "ĠCould": 5995,
      "Ġmariadb": 5996,
      "ĠObject": 5997,
      "());\\": 5998,
      "Ġvi": 5999,
      "sqlplus": 6000,
      "Ġaccum": 6001,
      "ĠSimple": 6002,
      "Ġleaves": 6003,
      "ference": 6004,
      "Ġmatplotlib": 6005,
      "ĠBut": 6006,
      "Ġsz": 6007,
      "exclude": 6008,
      "Ġoverview": 6009,
      "era": 6010,
      "999": 6011,
      "Ġbill": 6012,
      "hash": 6013,
      "Ġauth": 6014,
      "obile": 6015,
      "Ġcleanly": 6016,
      "afe": 6017,
      "urls": 6018,
      "Ġclearly": 6019,
      "Ġreproduc": 6020,
      "Ġarithmetic": 6021,
      "Ġbar": 6022,
      "iere": 6023,
      "}:": 6024,
      "sets": 6025,
      "ROOT": 6026,
      "/*": 6027,
      "TH": 6028,
      "Ġroad": 6029,
      "lass": 6030,
      "Ġcurr": 6031,
      "ĠMarketing": 6032,
      "ames": 6033,
      "Ġmes": 6034,
      "\\\">\\": 6035,
      "Ġcustomers": 6036,
      "ense": 6037,
      "Ġkeywords": 6038,
      "ĠDES": 6039,
      "Ġurl": 6040,
      "Ġ58": 6041,
      "float": 6042,
      "Ġcancel": 6043,
      "ĠSpec": 6044,
      "Pass": 6045,
      "Ġmen": 6046,
      "Ġyear": 6047,
      "times": 6048,
      "ingest": 6049,
      "han": 6050,
      "Ġ+%": 6051,
      "UL": 6052,
      "ĠSET": 6053,
      "Ġinterpret": 6054,
      "Ġrestart": 6055,
      "Ġmemb": 6056,
      "Ġimpossible": 6057,
      "Ġnr": 6058,
      "ĠTHEN": 6059,
      "CAD": 6060,
      "EFT": 6061,
      "Ġinfo": 6062,
      "Ġhar": 6063,
      "PR": 6064,
      "Ġlibrary": 6065,
      "Ġposts": 6066,
      "parser": 6067,
      "response": 6068,
      "touch": 6069,
      "429": 6070,
      "nable": 6071,
      "imate": 6072,
      "Ġwrapper": 6073,
      "loud": 6074,
      "Ġactually": 6075,
      "family": 6076,
      "Ġmodules": 6077,
      "separ": 6078,
      "izontal": 6079,
      ":.": 6080,
      "ĠLEFT": 6081,
      "Ġbroken": 6082,
      "high": 6083,
      "Ġinternal": 6084,
      "uc": 6085,
      "555": 6086,
      "Ġdashboard": 6087,
      "Ġborder": 6088,
      "chedul": 6089,
      "(\\\"\\\\": 6090,
      "Ġran": 6091,
      "sign": 6092,
      "411": 6093,
      "Ġcategory": 6094,
      "419": 6095,
      "ĠCO": 6096,
      "Ġpartic": 6097,
      "Ġads": 6098,
      "Ġcalls": 6099,
      "Ġge": 6100,
      "except": 6101,
      "certificates": 6102,
      "AN": 6103,
      "stack": 6104,
      "Ġconsistency": 6105,
      "Module": 6106,
      "Ġpeople": 6107,
      "He": 6108,
      "initial": 6109,
      "Min": 6110,
      "Ġlogging": 6111,
      "Ġutilities": 6112,
      "Ġ\"\"": 6113,
      "449": 6114,
      "bad": 6115,
      "Ġbuilding": 6116,
      "marketing": 6117,
      "exists": 6118,
      "Ġinner": 6119,
      "nG": 6120,
      "Ġtypography": 6121,
      "dirs": 6122,
      "Ġ49": 6123,
      "Ġapps": 6124,
      "Ġregex": 6125,
      "Ġpd": 6126,
      "Ġmount": 6127,
      "nels": 6128,
      "Ġgive": 6129,
      "Hello": 6130,
      "EL": 6131,
      "internal": 6132,
      "mart": 6133,
      "Ġenough": 6134,
      "gy": 6135,
      "Ġqr": 6136,
      "iles": 6137,
      "pixbuf": 6138,
      "ĠALL": 6139,
      "car": 6140,
      "reat": 6141,
      "Ġpadding": 6142,
      "ĠWhen": 6143,
      "ĠGu": 6144,
      "Ġcommun": 6145,
      "kp": 6146,
      "strategy": 6147,
      "ĠCore": 6148,
      "scale": 6149,
      "Ġreq": 6150,
      "Sp": 6151,
      "ĠUN": 6152,
      "omin": 6153,
      "Ġengagement": 6154,
      "Ġprocessed": 6155,
      "160": 6156,
      "Ġleads": 6157,
      "answer": 6158,
      "Ġfactor": 6159,
      "Ġoverride": 6160,
      "Ġ135": 6161,
      "Tok": 6162,
      "mbol": 6163,
      "Ġtimestamp": 6164,
      "cceed": 6165,
      "Ġci": 6166,
      "Ġtransitions": 6167,
      "otlin": 6168,
      "Ġmv": 6169,
      "ĠPath": 6170,
      "Handler": 6171,
      "110": 6172,
      "including": 6173,
      "Ġconnectivity": 6174,
      "################": 6175,
      "Ġconsole": 6176,
      "win": 6177,
      "ĠVis": 6178,
      "ĠCAD": 6179,
      "tag": 6180,
      "ongo": 6181,
      "Sub": 6182,
      "Ġconver": 6183,
      "optim": 6184,
      "ĠGenerate": 6185,
      "usable": 6186,
      "mq": 6187,
      "wxr": 6188,
      "ĠMa": 6189,
      "Ġdetermin": 6190,
      "Ġindicate": 6191,
      "real": 6192,
      "apping": 6193,
      "Ġcontract": 6194,
      "Ġlengths": 6195,
      "ĊĠĠĠĠĠĠĠĠĠĠĠĠĠĠĠ": 6196,
      "ĠRequest": 6197,
      "bool": 6198,
      "environ": 6199,
      "manifest": 6200,
      "=\\\"$": 6201,
      "alent": 6202,
      "Ġsummari": 6203,
      "instagram": 6204,
      "onents": 6205,
      "ĠKPI": 6206,
      "aaa": 6207,
      "mono": 6208,
      "nders": 6209,
      "Exp": 6210,
      "idence": 6211,
      "Ġtargets": 6212,
      "Ġsubmission": 6213,
      "game": 6214,
      "Ã©": 6215,
      "avy": 6216,
      "inematic": 6217,
      "Ġrespons": 6218,
      "fr": 6219,
      "TY": 6220,
      "ĊĊĠ": 6221,
      "ĠCampaign": 6222,
      "Ġdiction": 6223,
      "disable": 6224,
      "Ġhuman": 6225,
      "Ġdocuments": 6226,
      "================": 6227,
      "Ġaux": 6228,
      "Ġsucceed": 6229,
      ":#": 6230,
      "ĠCase": 6231,
      "Ġny": 6232,
      "Ġfrequ": 6233,
      "Ġimplements": 6234,
      "ulator": 6235,
      "Open": 6236,
      "Ġsubdirectories": 6237,
      "Ġsymlink": 6238,
      "Ġleaf": 6239,
      "ncd": 6240,
      "height": 6241,
      "ĠâĢľ": 6242,
      "Ġpal": 6243,
      "imits": 6244,
      "Template": 6245,
      "Ġvariants": 6246,
      "207": 6247,
      "Ġprinted": 6248,
      "********": 6249,
      "services": 6250,
      "Ġcx": 6251,
      "wayland": 6252,
      "426": 6253,
      "hods": 6254,
      "ftware": 6255,
      "icket": 6256,
      "Ġrecommend": 6257,
      "ĠLO": 6258,
      "Ġruntime": 6259,
      "Ġorigin": 6260,
      "letter": 6261,
      "Ġfeasibility": 6262,
      "Ġvariant": 6263,
      "Ġcouple": 6264,
      "Ġcaptions": 6265,
      "Ġdr": 6266,
      "Path": 6267,
      "Ġtrying": 6268,
      "Provide": 6269,
      "plugins": 6270,
      "pptx": 6271,
      "Ġtheme": 6272,
      "333": 6273,
      "afety": 6274,
      "Ġminutes": 6275,
      "190": 6276,
      "ccept": 6277,
      "xl": 6278,
      "Ġce": 6279,
      "essional": 6280,
      "Ġillustrate": 6281,
      "Ġtmp": 6282,
      "Ġdescribing": 6283,
      "CP": 6284,
      "Ġsuggests": 6285,
      "Ġquickly": 6286,
      "Ġ3000": 6287,
      "Ġmemo": 6288,
      "ship": 6289,
      "elines": 6290,
      "ber": 6291,
      "Ġremoving": 6292,
      "sha": 6293,
      "512": 6294,
      "Design": 6295,
      "ĠCommit": 6296,
      "Ġperson": 6297,
      "Ġtuple": 6298,
      "ĠAWS": 6299,
      "ĠNot": 6300,
      "merce": 6301,
      "âĶĢâĶĢâĶĢâĶĢ": 6302,
      "Ġdelaying": 6303,
      "Ġmaximize": 6304,
      "columns": 6305,
      "au": 6306,
      "Ġ56": 6307,
      "Sh": 6308,
      "generated": 6309,
      "Ġflight": 6310,
      "room": 6311,
      "Ġmodular": 6312,
      "Rni": 6313,
      "Ġsanity": 6314,
      "KU": 6315,
      "Ġobserve": 6316,
      "ĠWHEN": 6317,
      "ĠGB": 6318,
      "User": 6319,
      "help": 6320,
      "Ġsecurity": 6321,
      "ortest": 6322,
      "trib": 6323,
      "Ġauthor": 6324,
      "Ġ123": 6325,
      "Ġstarter": 6326,
      "),\\": 6327,
      "Ġexpectations": 6328,
      "Ġcompiled": 6329,
      "467": 6330,
      "Ġlooking": 6331,
      "forces": 6332,
      "swith": 6333,
      "Ġmp": 6334,
      "]))\\": 6335,
      "ervices": 6336,
      "Ġconversion": 6337,
      "Ġdbo": 6338,
      "%]": 6339,
      "Ġfinding": 6340,
      "ashboards": 6341,
      "Ġinvfact": 6342,
      "}/": 6343,
      "IV": 6344,
      "ĠPri": 6345,
      "separated": 6346,
      "Le": 6347,
      "Ġnegative": 6348,
      "aches": 6349,
      "Ġ300": 6350,
      "cycle": 6351,
      "ĠDiscovery": 6352,
      "Ġcollabor": 6353,
      "jo": 6354,
      "Mask": 6355,
      "DK": 6356,
      "Ġlibhtml": 6357,
      "obe": 6358,
      "campaigns": 6359,
      "Ġinstance": 6360,
      "Ġxs": 6361,
      "Ġmention": 6362,
      "Ġ38": 6363,
      "Ġfocus": 6364,
      "Ġfeedback": 6365,
      "ka": 6366,
      "OUND": 6367,
      "ntry": 6368,
      "Ġinline": 6369,
      "bose": 6370,
      ".\\\"": 6371,
      "vicorn": 6372,
      "ĠStop": 6373,
      "math": 6374,
      "openj": 6375,
      "umptions": 6376,
      "Ġlibgdk": 6377,
      "Ġsandbox": 6378,
      "Ġlibv": 6379,
      "Ġexam": 6380,
      "Ġrewrite": 6381,
      "acity": 6382,
      "Ġeditable": 6383,
      "Ġconditions": 6384,
      "Ġcommitted": 6385,
      "compile": 6386,
      "OKEN": 6387,
      "cr": 6388,
      "125": 6389,
      "Automation": 6390,
      "Ap": 6391,
      "Ġubuntu": 6392,
      "ĠLoc": 6393,
      "109": 6394,
      "Ġter": 6395,
      "ĠâĪ": 6396,
      "Value": 6397,
      "mar": 6398,
      "Ġtriple": 6399,
      "TERM": 6400,
      "ĠFastAPI": 6401,
      "Ġ});": 6402,
      "176": 6403,
      "wire": 6404,
      "Ġ($": 6405,
      "ĠArch": 6406,
      "Ġ.\\": 6407,
      "ital": 6408,
      "Ġ128": 6409,
      "++){\\": 6410,
      "Ġprofile": 6411,
      "ĠUT": 6412,
      "ikTok": 6413,
      "bon": 6414,
      "ĠOptional": 6415,
      "Ġlibat": 6416,
      "()))\\": 6417,
      "loop": 6418,
      "~~~~": 6419,
      "Ġpartial": 6420,
      "Ġhash": 6421,
      "ĠTotal": 6422,
      "babel": 6423,
      "Ġcla": 6424,
      "'))\\": 6425,
      "Ġkeeps": 6426,
      "city": 6427,
      "108": 6428,
      "ĠBot": 6429,
      "Ġcarefully": 6430,
      "going": 6431,
      "Ġtrees": 6432,
      "ĠCON": 6433,
      "Ġstoryboard": 6434,
      "ĠNEG": 6435,
      "firm": 6436,
      "450": 6437,
      "kb": 6438,
      "ESS": 6439,
      "ithub": 6440,
      "Ġdevelop": 6441,
      "Ġoptimized": 6442,
      "regex": 6443,
      "ring": 6444,
      "LS": 6445,
      "medi": 6446,
      "sock": 6447,
      "olves": 6448,
      "Ġmerged": 6449,
      "Form": 6450,
      "424": 6451,
      "1002": 6452,
      "226": 6453,
      "Ġsleep": 6454,
      "fff": 6455,
      "ooking": 6456,
      "Ġexplicitly": 6457,
      "<!": 6458,
      "Ġ47": 6459,
      "Ġbackups": 6460,
      "RR": 6461,
      "185": 6462,
      "pler": 6463,
      "ĠApr": 6464,
      "snapshot": 6465,
      "ĠâĢĺ": 6466,
      "Ġsupervisor": 6467,
      "Git": 6468,
      "Ġoutlines": 6469,
      "Ġofficial": 6470,
      "pu": 6471,
      "rr": 6472,
      "sec": 6473,
      "Start": 6474,
      "sole": 6475,
      "pairs": 6476,
      "CS": 6477,
      "nest": 6478,
      "ĠĠĠĠĠĠĠĠĠĠĠĠĠ": 6479,
      "tracking": 6480,
      "/__": 6481,
      "/>": 6482,
      "hinx": 6483,
      "ĠĠĊ": 6484,
      "aster": 6485,
      "setuptools": 6486,
      "return": 6487,
      "eft": 6488,
      "Line": 6489,
      "ĠTech": 6490,
      "oke": 6491,
      "aption": 6492,
      "():\\\\": 6493,
      "Ġfore": 6494,
      "Ġrestrict": 6495,
      "ĠIDs": 6496,
      "ART": 6497,
      "validate": 6498,
      "Ġframe": 6499,
      "Ġmoving": 6500,
      "Ġintersect": 6501,
      "ĠAttempt": 6502,
      "gcc": 6503,
      "launch": 6504,
      "construct": 6505,
      "Ġreusable": 6506,
      "Ġaggreg": 6507,
      "Ġwrap": 6508,
      "Ġlex": 6509,
      "Ġstaged": 6510,
      "examples": 6511,
      "118": 6512,
      "codec": 6513,
      "EGIN": 6514,
      "ister": 6515,
      "via": 6516,
      "Ġ1000000007": 6517,
      "akehold": 6518,
      "ĠValue": 6519,
      "Ġclip": 6520,
      "Ġensures": 6521,
      "wfile": 6522,
      "zd": 6523,
      "Ã¡": 6524,
      "rag": 6525,
      "ĠOUT": 6526,
      "ked": 6527,
      "Ġinteractive": 6528,
      "Ġrule": 6529,
      "YOUR": 6530,
      "Ġwordpress": 6531,
      "irror": 6532,
      "fort": 6533,
      "pts": 6534,
      "comput": 6535,
      "Ġops": 6536,
      "itles": 6537,
      "bundle": 6538,
      "Ġnums": 6539,
      "Create": 6540,
      "Ġoutside": 6541,
      "ĠMeta": 6542,
      "/$": 6543,
      "At": 6544,
      "405": 6545,
      "Ġexer": 6546,
      "flat": 6547,
      "ĠGiven": 6548,
      "Ġgenerator": 6549,
      "Product": 6550,
      ";\\\"\\": 6551,
      "urance": 6552,
      "ĠGradle": 6553,
      "jk": 6554,
      "5000": 6555,
      "ĠScope": 6556,
      "ower": 6557,
      "Ġ^^^^^^^^^^^^^^^^": 6558,
      "Ġavoids": 6559,
      "Ġlibpam": 6560,
      "clusive": 6561,
      "outline": 6562,
      "icient": 6563,
      "('\\\\": 6564,
      "177": 6565,
      "Ġmade": 6566,
      "Ġupd": 6567,
      "ima": 6568,
      "ĠPrecompute": 6569,
      "Ġitself": 6570,
      "Ġ&\\": 6571,
      "Ġ});\\": 6572,
      "ĠRemo": 6573,
      "PLACE": 6574,
      "Ni": 6575,
      "avahi": 6576,
      "IGN": 6577,
      "Ġ'*": 6578,
      "ORE": 6579,
      "Ġonboarding": 6580,
      "delete": 6581,
      "Inter": 6582,
      "ĠPrem": 6583,
      "LC": 6584,
      "positions": 6585,
      "mm": 6586,
      "tered": 6587,
      "basic": 6588,
      "iving": 6589,
      "435": 6590,
      "uel": 6591,
      "graphics": 6592,
      "ivalent": 6593,
      "Ġnewest": 6594,
      "weekly": 6595,
      "remove": 6596,
      "Ġsaved": 6597,
      "Ġcircle": 6598,
      "Ġti": 6599,
      "manager": 6600,
      "ainActivity": 6601,
      ",\"": 6602,
      "Ġdepending": 6603,
      "003": 6604,
      "heapp": 6605,
      "ado": 6606,
      "Ġyang": 6607,
      "ĠJava": 6608,
      "433": 6609,
      "si": 6610,
      "Ġscreen": 6611,
      "Ġdetect": 6612,
      "Ġinsight": 6613,
      "ĠLink": 6614,
      "260": 6615,
      "Ġoccurrences": 6616,
      "Ġplaced": 6617,
      "Ġcompress": 6618,
      "Co": 6619,
      "InR": 6620,
      "Ġconfirming": 6621,
      "How": 6622,
      "apple": 6623,
      "qual": 6624,
      "\\\"{": 6625,
      "Ġgrowth": 6626,
      "INE": 6627,
      "430": 6628,
      "Ġtargeted": 6629,
      ":';": 6630,
      "=\"$": 6631,
      "entry": 6632,
      "Ġsi": 6633,
      "ĠMin": 6634,
      "ĠĊĠ": 6635,
      "Ġpassing": 6636,
      "ĠShort": 6637,
      "Ġsignal": 6638,
      "Ġexperience": 6639,
      "Ġlst": 6640,
      "zI": 6641,
      "Ġprovider": 6642,
      "Ġexplain": 6643,
      "adius": 6644,
      "Ġenabled": 6645,
      "Ġspotify": 6646,
      "Ġexchange": 6647,
      "brut": 6648,
      "uite": 6649,
      "ĠLa": 6650,
      "bro": 6651,
      "GR": 6652,
      "icograph": 6653,
      "ffects": 6654,
      "ĠStudio": 6655,
      "Ġthresh": 6656,
      "()))": 6657,
      "wav": 6658,
      "ĠImage": 6659,
      "rowser": 6660,
      "360": 6661,
      "Ġsatisfied": 6662,
      "ĠEPS": 6663,
      "ĠGoal": 6664,
      "IU": 6665,
      "ulations": 6666,
      "401": 6667,
      "Ġuvicorn": 6668,
      "driven": 6669,
      "mesa": 6670,
      "Ġlibwayland": 6671,
      "Ġemployees": 6672,
      "website": 6673,
      "ĠExecutive": 6674,
      "Ġquestion": 6675,
      "DA": 6676,
      "ĠQuick": 6677,
      ":$": 6678,
      "ĠEnglish": 6679,
      "Script": 6680,
      "olid": 6681,
      "594": 6682,
      "Ġ---';": 6683,
      "Ġauthentication": 6684,
      "Ġwor": 6685,
      "ssl": 6686,
      "Ġwebsite": 6687,
      "('--": 6688,
      "Ġsubstrings": 6689,
      "username": 6690,
      "IF": 6691,
      "Te": 6692,
      "Iter": 6693,
      "nset": 6694,
      "Working": 6695,
      "mime": 6696,
      "SUM": 6697,
      "Ġanswers": 6698,
      "ades": 6699,
      "Ġpending": 6700,
      "Ġclips": 6701,
      "display": 6702,
      "Check": 6703,
      "xx": 6704,
      "ĠDESC": 6705,
      "ĠPol": 6706,
      "Ġtee": 6707,
      "plied": 6708,
      "Ġtempor": 6709,
      "Ġinf": 6710,
      "Ġconsists": 6711,
      "439": 6712,
      "Ġvoice": 6713,
      "Ġwriting": 6714,
      "ĠFacebook": 6715,
      "ĠOverview": 6716,
      "Perfect": 6717,
      "probe": 6718,
      "ites": 6719,
      "conomy": 6720,
      "sup": 6721,
      "ĠDef": 6722,
      "Ġunknown": 6723,
      "Ġdefaultdict": 6724,
      "Ġplot": 6725,
      "rd": 6726,
      "Ste": 6727,
      "github": 6728,
      "Ġpopulate": 6729,
      "105": 6730,
      "make": 6731,
      "Eng": 6732,
      "\")\\": 6733,
      "atio": 6734,
      "hbG": 6735,
      "inten": 6736,
      "Pack": 6737,
      "Ġlibavahi": 6738,
      "ĠSep": 6739,
      "Ġ($$$": 6740,
      "colors": 6741,
      "pisode": 6742,
      "emplace": 6743,
      "gcd": 6744,
      "Ġdiagno": 6745,
      "ucky": 6746,
      "fatal": 6747,
      "anted": 6748,
      "Status": 6749,
      "Ġeverything": 6750,
      "Ġfriends": 6751,
      "1500": 6752,
      "Ġ41": 6753,
      "iso": 6754,
      "Ġproblems": 6755,
      "aab": 6756,
      "MPLE": 6757,
      "ĠDocumentation": 6758,
      "Ġunordered": 6759,
      "tech": 6760,
      "ane": 6761,
      "onical": 6762,
      "amps": 6763,
      "lain": 6764,
      "flutter": 6765,
      "ĠDeliver": 6766,
      "Ġcontribution": 6767,
      "469": 6768,
      "Ġcompleting": 6769,
      "Ġversions": 6770,
      "ciOiJ": 6771,
      "hbGciOiJ": 6772,
      "ĠAvailable": 6773,
      "IUzI": 6774,
      "hbGciOiJIUzI": 6775,
      "Ġlanguage": 6776,
      "intenance": 6777,
      "Ġinventory": 6778,
      "nwith": 6779,
      "Ġfollows": 6780,
      "Ġoutreach": 6781,
      "NiIs": 6782,
      "Ikp": 6783,
      "XVC": 6784,
      "Ġdim": 6785,
      "NiIsInR": 6786,
      "IkpXVC": 6787,
      "IkpXVCJ": 6788,
      "Ġcompat": 6789,
      "906": 6790,
      "optional": 6791,
      "ĠAdobe": 6792,
      "segment": 6793,
      "135": 6794,
      "Ġstorage": 6795,
      "idi": 6796,
      "eyJhbGciOiJIUzI": 6797,
      "ĠYes": 6798,
      "pleft": 6799,
      "zdW": 6800,
      "contact": 6801,
      "eyJzdW": 6802,
      "IiOiJ": 6803,
      "eyJzdWIiOiJ": 6804,
      "Ġvalidated": 6805,
      "AAAAAAAAAAAAAAAA": 6806,
      "115": 6807,
      "popleft": 6808,
      "oup": 6809,
      "verage": 6810,
      "Ġpackaged": 6811,
      "ĠType": 6812,
      "Ġlistening": 6813,
      "Pos": 6814,
      "libv": 6815,
      "=-": 6816,
      "asci": 6817,
      "oney": 6818,
      "ĠFinally": 6819,
      "Ġmom": 6820,
      "formed": 6821,
      "fmt": 6822,
      "Ġbul": 6823,
      "?\\": 6824,
      "Ġyuv": 6825,
      "untuk": 6826,
      "An": 6827,
      "ĠGraph": 6828,
      "Ġprun": 6829,
      "iro": 6830,
      "Mark": 6831,
      "Comp": 6832,
      "Ġconstruction": 6833,
      "posed": 6834,
      "chedule": 6835,
      "yes": 6836,
      "Ġcr": 6837,
      "Ġrepeatable": 6838,
      "ashion": 6839,
      "transl": 6840,
      "ÃŃ": 6841,
      "=${": 6842,
      "tle": 6843,
      "157": 6844,
      "425": 6845,
      "ĠDec": 6846,
      "repo": 6847,
      "414": 6848,
      "DEX": 6849,
      ".\",\"": 6850,
      "Ġ~/": 6851,
      "NR": 6852,
      "libz": 6853,
      "days": 6854,
      "ĠDate": 6855,
      "clone": 6856,
      "anged": 6857,
      "107": 6858,
      "vidence": 6859,
      "Py": 6860,
      "Text": 6861,
      "880": 6862,
      "gg": 6863,
      ")\"}": 6864,
      "vfb": 6865,
      "Ġargparse": 6866,
      "Ġsolutions": 6867,
      "Ġstable": 6868,
      "Ġminimize": 6869,
      "nested": 6870,
      "Ġreliable": 6871,
      "409": 6872,
      "Ġrounds": 6873,
      "ndor": 6874,
      "ĠLI": 6875,
      "Ġdeterministic": 6876,
      "199": 6877,
      "Ġdiscovery": 6878,
      "prod": 6879,
      "ĠIs": 6880,
      "Ġ44": 6881,
      "eforce": 6882,
      "Ġhig": 6883,
      "Ġwins": 6884,
      "Ġmist": 6885,
      "Ġaudience": 6886,
      "Ġmixed": 6887,
      "types": 6888,
      "Ġgap": 6889,
      "State": 6890,
      "Ġflights": 6891,
      "Ġlexicograph": 6892,
      "NotFound": 6893,
      "rupted": 6894,
      "delta": 6895,
      "ĠVARCHAR": 6896,
      "ario": 6897,
      "Ġintersection": 6898,
      "Tree": 6899,
      "react": 6900,
      "compat": 6901,
      "Ġproducing": 6902,
      "Item": 6903,
      "download": 6904,
      "Ġts": 6905,
      "handoff": 6906,
      "99999999": 6907,
      "Gr": 6908,
      "Ġ'{\\": 6909,
      "ĠAnal": 6910,
      "Ġresolve": 6911,
      "rou": 6912,
      "Ġmargin": 6913,
      "Ġinser": 6914,
      "Ġshortest": 6915,
      "Ġgives": 6916,
      "ury": 6917,
      "3992": 6918,
      "Ġdepart": 6919,
      "alpha": 6920,
      "Ġcomb": 6921,
      "docx": 6922,
      "ĠFlask": 6923,
      "477": 6924,
      "ade": 6925,
      "ĠManagement": 6926,
      "extracted": 6927,
      "Ġdelivered": 6928,
      "dbd": 6929,
      "payload": 6930,
      "aeb": 6931,
      "matches": 6932,
      "irepository": 6933,
      "bashrc": 6934,
      "(\"\\": 6935,
      "Ġql": 6936,
      "ledge": 6937,
      "nM": 6938,
      "ffff": 6939,
      "ĠSA": 6940,
      "Ġfeature": 6941,
      "Ġoptimize": 6942,
      "Ġstored": 6943,
      "gal": 6944,
      "Ġequivalent": 6945,
      "Ġbench": 6946,
      "UMN": 6947,
      "Ġcontrib": 6948,
      "Ġcompar": 6949,
      "/'": 6950,
      "Ġapk": 6951,
      "Ġenhance": 6952,
      "ĠBas": 6953,
      "ills": 6954,
      "ĠMilestones": 6955,
      "nection": 6956,
      "Ġharness": 6957,
      "478": 6958,
      "Ġbisect": 6959,
      "ĠFlutter": 6960,
      "users": 6961,
      "Ġdrop": 6962,
      "ĠCode": 6963,
      "Ġstray": 6964,
      "function": 6965,
      "168": 6966,
      "eces": 6967,
      "contrib": 6968,
      "406": 6969,
      "Ġstat": 6970,
      "PL": 6971,
      "Ġmesa": 6972,
      "ummy": 6973,
      "BASE": 6974,
      "ĠRed": 6975,
      "Ġcomplexity": 6976,
      "Author": 6977,
      "NotFoundError": 6978,
      "ITH": 6979,
      "TOKEN": 6980,
      "Ġlibjs": 6981,
      "117": 6982,
      "planation": 6983,
      "draw": 6984,
      "uo": 6985,
      "yond": 6986,
      "tic": 6987,
      "Ġisol": 6988,
      "dep": 6989,
      "izer": 6990,
      "ĠStream": 6991,
      "stab": 6992,
      "452": 6993,
      "ĠBash": 6994,
      "Char": 6995,
      "Ġprimary": 6996,
      "pem": 6997,
      "Ġstory": 6998,
      "HOME": 6999,
      "470": 7000,
      "prefer": 7001,
      "Ġassoci": 7002,
      "Ġschedule": 7003,
      "uint": 7004,
      "Ġfinally": 7005,
      "clear": 7006,
      "Ġlocated": 7007,
      "freq": 7008,
      "beb": 7009,
      "PLAN": 7010,
      "ĠCSS": 7011,
      "ONG": 7012,
      "ĠDSU": 7013,
      "Ġsummar": 7014,
      "Ġlanding": 7015,
      "nxt": 7016,
      "Order": 7017,
      "indices": 7018,
      "Executive": 7019,
      "Ġgot": 7020,
      "inner": 7021,
      "provid": 7022,
      "408": 7023,
      "ĠDE": 7024,
      "annot": 7025,
      "istics": 7026,
      "address": 7027,
      "ĠAlice": 7028,
      "Ġ{\\\\": 7029,
      "Ġsharing": 7030,
      "Ġextracted": 7031,
      "Ġextraction": 7032,
      "Ġlibsensors": 7033,
      "../": 7034,
      "method": 7035,
      "management": 7036,
      "ĠTBD": 7037,
      "Ġwater": 7038,
      "Ġsummarising": 7039,
      "bench": 7040,
      "à¸": 7041,
      "Ġpreferred": 7042,
      "Ġcop": 7043,
      "Ġrunnable": 7044,
      "ĠCalc": 7045,
      "Ġclose": 7046,
      "Ġignore": 7047,
      ":]": 7048,
      "Ġuntuk": 7049,
      "google": 7050,
      "Ġdashboards": 7051,
      "Ġkeyword": 7052,
      "bab": 7053,
      "pending": 7054,
      "Ġwrites": 7055,
      "umes": 7056,
      "Ġplt": 7057,
      "Ġlooks": 7058,
      "Ġclosed": 7059,
      "endor": 7060,
      "Ġwriter": 7061,
      "dest": 7062,
      "Ġpricing": 7063,
      "MARY": 7064,
      "Ġbroad": 7065,
      "Ġhook": 7066,
      "bdb": 7067,
      "HOW": 7068,
      "area": 7069,
      "189": 7070,
      "Ġfar": 7071,
      "straints": 7072,
      "save": 7073,
      "Ġadv": 7074,
      "ĠENV": 7075,
      "Ġapi": 7076,
      "Ġexpansion": 7077,
      "Ġescaped": 7078,
      "nIN": 7079,
      "Ġ|=": 7080,
      "437": 7081,
      "Ġ43": 7082,
      "Ġupload": 7083,
      "dependent": 7084,
      ":--": 7085,
      "you": 7086,
      "wrap": 7087,
      "Ġtoo": 7088,
      "unique": 7089,
      "Ġdistances": 7090,
      "ĠStrategy": 7091,
      "mult": 7092,
      "Case": 7093,
      "Ġlimits": 7094,
      "Ġbreaking": 7095,
      ">\",": 7096,
      "488": 7097,
      "Ġlazy": 7098,
      "Ġreasonable": 7099,
      "403": 7100,
      "8888": 7101,
      "ixel": 7102,
      "tty": 7103,
      "xs": 7104,
      "ĠPDFs": 7105,
      "Ġreader": 7106,
      "plane": 7107,
      "146": 7108,
      "Ġterminated": 7109,
      "aed": 7110,
      "ameter": 7111,
      "????": 7112,
      "Ġdot": 7113,
      "ĠGET": 7114,
      "interactive": 7115,
      "\"{": 7116,
      "bruteforce": 7117,
      "Ġintegrity": 7118,
      "Ġaccessibility": 7119,
      "Ġcities": 7120,
      "Ġmssql": 7121,
      "uscript": 7122,
      "156": 7123,
      "ims": 7124,
      "Ġpermutations": 7125,
      "lent": 7126,
      "econd": 7127,
      "/\\\\": 7128,
      "Ġtell": 7129,
      "ĠBob": 7130,
      "comple": 7131,
      "ĠSeg": 7132,
      "475": 7133,
      "ĠTrack": 7134,
      "Ġpolygon": 7135,
      "457": 7136,
      "Ġbundle": 7137,
      "Iteration": 7138,
      "nab": 7139,
      "uss": 7140,
      "czf": 7141,
      "Ġdeck": 7142,
      "Ġoffset": 7143,
      "even": 7144,
      "Ġinterpretation": 7145,
      "review": 7146,
      "UD": 7147,
      "ĠPt": 7148,
      "glob": 7149,
      "Ġ46": 7150,
      "Brand": 7151,
      "857": 7152,
      "bak": 7153,
      "Ġstre": 7154,
      "spi": 7155,
      "Ġflows": 7156,
      "Ġstro": 7157,
      "Ġbeyond": 7158,
      "('\\": 7159,
      "Rin": 7160,
      "Ġgaps": 7161,
      "Ph": 7162,
      "Ġpid": 7163,
      "Ġoffline": 7164,
      "ifi": 7165,
      "SION": 7166,
      "ssib": 7167,
      "Ġdecimal": 7168,
      "hest": 7169,
      "(\\'": 7170,
      "ili": 7171,
      "nCREATE": 7172,
      "113": 7173,
      "Ġenvironments": 7174,
      "tuple": 7175,
      "ĠEngine": 7176,
      "Created": 7177,
      "Ġmodern": 7178,
      "NGE": 7179,
      "Ġreproducible": 7180,
      "Ġallows": 7181,
      "angles": 7182,
      "164": 7183,
      "Ġrelease": 7184,
      "allback": 7185,
      "Ġlogical": 7186,
      "UTF": 7187,
      "Ġconsisting": 7188,
      "CO": 7189,
      "Ġunion": 7190,
      "497": 7191,
      "ĠTrans": 7192,
      "ene": 7193,
      "dump": 7194,
      "Ġframework": 7195,
      "ĠAB": 7196,
      "Ġintro": 7197,
      "Ġchecklist": 7198,
      "SP": 7199,
      "465": 7200,
      "APP": 7201,
      "Ġsubject": 7202,
      "Ġpartition": 7203,
      "Ġdates": 7204,
      "before": 7205,
      "ricing": 7206,
      "den": 7207,
      "Ġbriefs": 7208,
      "middle": 7209,
      "pag": 7210,
      "Ġnx": 7211,
      "Ġhull": 7212,
      "Ġuniq": 7213,
      "VI": 7214,
      "ĠAudit": 7215,
      "Ġta": 7216,
      "ĠHel": 7217,
      "ĠBase": 7218,
      "Ġreel": 7219,
      "Ġlibhttp": 7220,
      "!!": 7221,
      "ensor": 7222,
      "ĠInd": 7223,
      "Ġapplic": 7224,
      "Ġpersist": 7225,
      "gent": 7226,
      "Ġhome": 7227,
      "Ġtoward": 7228,
      "Ġmanually": 7229,
      "erase": 7230,
      "Ġndp": 7231,
      "Ġ102": 7232,
      "458": 7233,
      "Ġrevisions": 7234,
      "anel": 7235,
      "Ġeas": 7236,
      "obj": 7237,
      "/>\\": 7238,
      "ĠDemo": 7239,
      "Ġspecification": 7240,
      "Box": 7241,
      "Ass": 7242,
      "\",\\": 7243,
      "ĠRemove": 7244,
      "shopify": 7245,
      "\\\\\"": 7246,
      "spa": 7247,
      "4353": 7248,
      "rouble": 7249,
      "Done": 7250,
      "arn": 7251,
      "likely": 7252,
      "Ġnb": 7253,
      "stderr": 7254,
      "ĠExcel": 7255,
      "Ġ'[": 7256,
      "Ġverbose": 7257,
      "ĠĠĠĠĠĠĠĠĠĠĠĠĠĠĠĠĠĠĠĠĠĠĠĠĠĠĠĠĠĠĠ": 7258,
      "455": 7259,
      "Ġvals": 7260,
      "Ġ71": 7261,
      "ĠApply": 7262,
      "nstruct": 7263,
      "nstatic": 7264,
      "por": 7265,
      "datas": 7266,
      "isan": 7267,
      "Ġhandled": 7268,
      "Ġstroke": 7269,
      "ĠWh": 7270,
      "Ġasked": 7271,
      "Ġvisuals": 7272,
      ")}": 7273,
      "SERVER": 7274,
      "IRON": 7275,
      "batch": 7276,
      "oost": 7277,
      "Ġmaterials": 7278,
      "since": 7279,
      "Ġongoing": 7280,
      "pped": 7281,
      "Port": 7282,
      "Ġfit": 7283,
      "shm": 7284,
      "Ġroll": 7285,
      "orders": 7286,
      "187": 7287,
      ">>>": 7288,
      "Lo": 7289,
      "192": 7290,
      "footage": 7291,
      "LES": 7292,
      "options": 7293,
      "xyz": 7294,
      "Ġseems": 7295,
      "category": 7296,
      "socket": 7297,
      "requirements": 7298,
      "Service": 7299,
      "String": 7300,
      "roma": 7301,
      "890": 7302,
      "oted": 7303,
      "ials": 7304,
      "407": 7305,
      "nchmod": 7306,
      "amera": 7307,
      "Ġinspects": 7308,
      "Ġingest": 7309,
      "recommend": 7310,
      "cu": 7311,
      "173": 7312,
      "sphinx": 7313,
      "Ġinitialized": 7314,
      "Ġlav": 7315,
      "247": 7316,
      "cceptance": 7317,
      "vable": 7318,
      "liner": 7319,
      "ĠShopify": 7320,
      "IRONMENT": 7321,
      "ĠStopIteration": 7322,
      "igma": 7323,
      "ĠLead": 7324,
      "AML": 7325,
      "servation": 7326,
      "487": 7327,
      "lict": 7328,
      "ĠDay": 7329,
      "Ġquoting": 7330,
      "900": 7331,
      "What": 7332,
      "echan": 7333,
      "Ġlif": 7334,
      "cir": 7335,
      "Ġtk": 7336,
      "domain": 7337,
      "migration": 7338,
      "=$((": 7339,
      "Ġparameters": 7340,
      "468": 7341,
      "Ġlaunch": 7342,
      "bdf": 7343,
      "Ġ100000": 7344,
      "Ġtemporary": 7345,
      "ĠOrder": 7346,
      "ibbon": 7347,
      "\\\\\\\"\\\\": 7348,
      "ĠIP": 7349,
      "Ġformatted": 7350,
      "618": 7351,
      "Ġlat": 7352,
      "165": 7353,
      "ById": 7354,
      "Ġlavfi": 7355,
      "acked": 7356,
      "antity": 7357,
      "ĠMD": 7358,
      "Ġmigrations": 7359,
      "ĠOne": 7360,
      "Ġxdg": 7361,
      "Ġsqrt": 7362,
      "ĠENVIRONMENT": 7363,
      "Ġcomputed": 7364,
      "Ġprofessional": 7365,
      "bind": 7366,
      "Ġlibxt": 7367,
      "ĠClean": 7368,
      "ĠMicrosoft": 7369,
      "vations": 7370,
      "ĠWith": 7371,
      "stic": 7372,
      "Ġgreater": 7373,
      "RC": 7374,
      "directory": 7375,
      "vacy": 7376,
      "Ġcareful": 7377,
      "orth": 7378,
      "39925": 7379,
      "Ġtimeout": 7380,
      "sales": 7381,
      "cols": 7382,
      "Ġmistake": 7383,
      "lue": 7384,
      "Ġev": 7385,
      "ĠSum": 7386,
      "banner": 7387,
      "TERMINAL": 7388,
      "']\\": 7389,
      "aac": 7390,
      "Ġgift": 7391,
      "tok": 7392,
      "Ġreadiness": 7393,
      "***": 7394,
      "Ġbig": 7395,
      "Ġinvolves": 7396,
      "ickets": 7397,
      "498": 7398,
      "hello": 7399,
      "ias": 7400,
      "ĠNet": 7401,
      "159": 7402,
      "ĠSDK": 7403,
      "harfb": 7404,
      "vial": 7405,
      "Ġnavigation": 7406,
      "harfbuzz": 7407,
      "Ġ()": 7408,
      "uccess": 7409,
      "INFO": 7410,
      "Ġcf": 7411,
      "ibr": 7412,
      "Ġextended": 7413,
      "objects": 7414,
      "Ġdivisors": 7415,
      "Del": 7416,
      "ĠPort": 7417,
      "splitlines": 7418,
      "Docker": 7419,
      "Ġ97": 7420,
      "izations": 7421,
      "Dict": 7422,
      "edIn": 7423,
      "290": 7424,
      "iful": 7425,
      "Ġindent": 7426,
      "ayout": 7427,
      "178": 7428,
      "INT": 7429,
      "Ġportable": 7430,
      "Ġupdating": 7431,
      "ĠInt": 7432,
      "Ġreplaced": 7433,
      "arrays": 7434,
      "'...": 7435,
      "tn": 7436,
      ";\\\"": 7437,
      "dt": 7438,
      "Ġresid": 7439,
      "iod": 7440,
      "Ġextension": 7441,
      "autiful": 7442,
      "Ġalignment": 7443,
      "queue": 7444,
      "invoke": 7445,
      "Ġsear": 7446,
      "wner": 7447,
      "485": 7448,
      "managed": 7449,
      "vb": 7450,
      "aj": 7451,
      "Ġmethods": 7452,
      "ĠSort": 7453,
      "bbbb": 7454,
      "ĠLar": 7455,
      "Ġhorizontal": 7456,
      "Set": 7457,
      "recording": 7458,
      "EST": 7459,
      "454": 7460,
      "imated": 7461,
      "uristic": 7462,
      "armor": 7463,
      "){\\\\": 7464,
      "Object": 7465,
      "Ġexecutive": 7466,
      "Ġrole": 7467,
      "never": 7468,
      "436": 7469,
      "nNext": 7470,
      "uous": 7471,
      "ĠHAT": 7472,
      "sidered": 7473,
      "103": 7474,
      "Ġdictionary": 7475,
      "=\\\"#": 7476,
      "nfi": 7477,
      "stop": 7478,
      "ĠLeave": 7479,
      "249": 7480,
      "Ġmusic": 7481,
      "patcher": 7482,
      "Ver": 7483,
      "Frame": 7484,
      "nconn": 7485,
      "pq": 7486,
      "Ġmanual": 7487,
      "pandas": 7488,
      "bdd": 7489,
      "fit": 7490,
      "erson": 7491,
      "Ġtraining": 7492,
      "nv": 7493,
      "shorts": 7494,
      "Ġattempting": 7495,
      "Ġwiring": 7496,
      "Ġessential": 7497,
      "ĠROAS": 7498,
      "Ġneighbor": 7499,
      "UB": 7500,
      "!=": 7501,
      "ĠLL": 7502,
      "Ġroute": 7503,
      "Ġmeet": 7504,
      "look": 7505,
      "Ġscrap": 7506,
      "Ġconsidered": 7507,
      "alling": 7508,
      "='#": 7509,
      "Overview": 7510,
      "Ùħ": 7511,
      "Ġrenders": 7512,
      "Ġcomposer": 7513,
      "upg": 7514,
      "237": 7515,
      "csproj": 7516,
      "Ġdummy": 7517,
      "Ġtestdb": 7518,
      "overview": 7519,
      "schemas": 7520,
      "ĠAppro": 7521,
      "116": 7522,
      "Ġpieces": 7523,
      "dl": 7524,
      "Ġcorrupted": 7525,
      "Ġpalind": 7526,
      "ĠMobile": 7527,
      "466": 7528,
      "Ġuint": 7529,
      "Ġquestions": 7530,
      "NGELOG": 7531,
      "resolved": 7532,
      "Ġgeneral": 7533,
      "463": 7534,
      "inventory": 7535,
      "Ġyears": 7536,
      "ison": 7537,
      "Ġretrie": 7538,
      "206": 7539,
      "Ġeditor": 7540,
      "Ġpivot": 7541,
      "Ġitertools": 7542,
      "inte": 7543,
      "dle": 7544,
      "197": 7545,
      "002": 7546,
      "166": 7547,
      "quit": 7548,
      "ZE": 7549,
      "Ġadjacency": 7550,
      "Rec": 7551,
      "usage": 7552,
      "SSING": 7553,
      "chine": 7554,
      "288": 7555,
      "Ġsubsequence": 7556,
      "ĠUsing": 7557,
      "Config": 7558,
      "End": 7559,
      "Ġment": 7560,
      "htags": 7561,
      "ĠLi": 7562,
      "elcome": 7563,
      "139": 7564,
      "Point": 7565,
      "scaffold": 7566,
      "Ġ'?": 7567,
      "collect": 7568,
      "zo": 7569,
      "ĠAir": 7570,
      "postgres": 7571,
      "Ġsupported": 7572,
      "adc": 7573,
      "144": 7574,
      "bec": 7575,
      "Ġconstructive": 7576,
      "year": 7577,
      "453": 7578,
      "uk": 7579,
      "827": 7580,
      "Ġes": 7581,
      "Ġclients": 7582,
      "uby": 7583,
      "Version": 7584,
      "202": 7585,
      "nmkdir": 7586,
      "Ġcancell": 7587,
      "147": 7588,
      "Ġmigration": 7589,
      "837": 7590,
      "scrap": 7591,
      ":%": 7592,
      "enco": 7593,
      "Ġasync": 7594,
      "Ġreading": 7595,
      "ĠManager": 7596,
      "bfb": 7597,
      ")->": 7598,
      "contract": 7599,
      "sdk": 7600,
      "Ġunix": 7601,
      "472": 7602,
      "Ġindependent": 7603,
      "adence": 7604,
      "Ġ69": 7605,
      "126": 7606,
      "''": 7607,
      "etds": 7608,
      "Ġagent": 7609,
      "Expected": 7610,
      "Ġassociated": 7611,
      "Ġdefine": 7612,
      "timestamp": 7613,
      "recurs": 7614,
      "130": 7615,
      "Nov": 7616,
      "aya": 7617,
      "properties": 7618,
      "Ġsudo": 7619,
      "459": 7620,
      "raf": 7621,
      "ĠSocial": 7622,
      "Ġwatch": 7623,
      "EMA": 7624,
      "span": 7625,
      "requests": 7626,
      "atically": 7627,
      "ferences": 7628,
      "iou": 7629,
      "ĠConfigure": 7630,
      "Ġreceive": 7631,
      "Ġroaming": 7632,
      "cm": 7633,
      "qt": 7634,
      "desktop": 7635,
      "ued": 7636,
      "Ġcombinations": 7637,
      "460": 7638,
      "8244353": 7639,
      "Ġher": 7640,
      "acb": 7641,
      "ecting": 7642,
      "Ġgraphics": 7643,
      "afa": 7644,
      "Ġdaily": 7645,
      "odd": 7646,
      "bm": 7647,
      "ribidi": 7648,
      "Ġbelie": 7649,
      "acks": 7650,
      "Ġsorting": 7651,
      "137": 7652,
      "Ġ~/.": 7653,
      "NUM": 7654,
      "\\\")\\\\": 7655,
      "efail": 7656,
      "rot": 7657,
      "this": 7658,
      "++;\\": 7659,
      "Ġlibapp": 7660,
      ")):\\": 7661,
      "Ġrout": 7662,
      "PROPOSAL": 7663,
      "cloud": 7664,
      "spotify": 7665,
      "Ġdecre": 7666,
      "ĠArchitecture": 7667,
      "\"],": 7668,
      "alary": 7669,
      "mazon": 7670,
      "Ġpipefail": 7671,
      "Ġliteral": 7672,
      "Ġlocations": 7673,
      "euo": 7674,
      "roublesho": 7675,
      "]){\\": 7676,
      "4567": 7677,
      "Sy": 7678,
      "Ġreadable": 7679,
      "Ġforms": 7680,
      "Doc": 7681,
      "Br": 7682,
      "cellent": 7683,
      "solute": 7684,
      "cases": 7685,
      "cut": 7686,
      "Ġstrong": 7687,
      "veloper": 7688,
      "Ġsupply": 7689,
      "NOT": 7690,
      "ĠMode": 7691,
      "474": 7692,
      "ĠSIM": 7693,
      "IL": 7694,
      "Ġceil": 7695,
      "dff": 7696,
      "allel": 7697,
      "inema": 7698,
      "ĠVisual": 7699,
      "/,": 7700,
      "IDE": 7701,
      "toc": 7702,
      "Summary": 7703,
      "vision": 7704,
      "inc": 7705,
      "Ġlibglx": 7706,
      "BER": 7707,
      "Ġbeh": 7708,
      "ilingual": 7709,
      "folders": 7710,
      "Ġczf": 7711,
      "Ġtechnical": 7712,
      "Ġquality": 7713,
      "Ġmoment": 7714,
      "matrix": 7715,
      "Ġlibrsvg": 7716,
      "enu": 7717,
      "ĠCASE": 7718,
      "Ġevalu": 7719,
      "167": 7720,
      "Ġdebian": 7721,
      "events": 7722,
      ">,": 7723,
      "Ġstartup": 7724,
      "cdd": 7725,
      "Ġdt": 7726,
      "Ġrelation": 7727,
      "Ġreset": 7728,
      "Ġ17200": 7729,
      "Ġdiscrep": 7730,
      ")*": 7731,
      "Ġmiddle": 7732,
      "Ġrectangle": 7733,
      "ĠOptim": 7734,
      "Ġ\\\"%": 7735,
      "unit": 7736,
      "Ġgoals": 7737,
      "ometry": 7738,
      "266": 7739,
      "PROJECT": 7740,
      "ĠAnalytics": 7741,
      "215": 7742,
      "489": 7743,
      "ARGET": 7744,
      "ĠAdditional": 7745,
      "Ġincrease": 7746,
      "||": 7747,
      "Ġreconstruct": 7748,
      "Ġwireframes": 7749,
      "Ġstakehold": 7750,
      "Ġ[\\": 7751,
      "pal": 7752,
      "Ġ\"#": 7753,
      "Ġ150": 7754,
      "aec": 7755,
      "rwxrwxr": 7756,
      "Ġpassen": 7757,
      "Ġhappen": 7758,
      "Ġqi": 7759,
      "ourse": 7760,
      "10101010": 7761,
      "vec": 7762,
      "wg": 7763,
      "plies": 7764,
      "uent": 7765,
      "aeiou": 7766,
      "Ġdegree": 7767,
      "Ġstructures": 7768,
      "ĠExit": 7769,
      "abilities": 7770,
      "Ġlayer": 7771,
      "Ġsupports": 7772,
      "Ġsafety": 7773,
      "she": 7774,
      "ĠSc": 7775,
      "ĠModel": 7776,
      "Gener": 7777,
      "iner": 7778,
      "others": 7779,
      "Ġconnections": 7780,
      "Ġrecursive": 7781,
      "ĠTikTok": 7782,
      "'>\\": 7783,
      "Ġsymbol": 7784,
      "cv": 7785,
      "Âł": 7786,
      "getElement": 7787,
      "sysv": 7788,
      "concepts": 7789,
      "Ġparticip": 7790,
      "Ġcalculate": 7791,
      "lat": 7792,
      "444": 7793,
      "deep": 7794,
      "Ġwalk": 7795,
      "Ġprobability": 7796,
      "getElementById": 7797,
      "reservation": 7798,
      "Ġasking": 7799,
      "cross": 7800,
      "Ġem": 7801,
      "ĠUNION": 7802,
      "482": 7803,
      "lank": 7804,
      "numpy": 7805,
      "ĠSk": 7806,
      "loss": 7807,
      "cairo": 7808,
      "124": 7809,
      "ĠItem": 7810,
      "vendor": 7811,
      "digits": 7812,
      "urchase": 7813,
      "148": 7814,
      "libkrb": 7815,
      "Ġenv": 7816,
      "extend": 7817,
      "Ġdelimited": 7818,
      "screen": 7819,
      "nDeliverables": 7820,
      "Ġcoords": 7821,
      "shape": 7822,
      "ĊĠĠĠĠĠĠĠĠĠĠĠĠĠĠĠĠ": 7823,
      "Ġcompliance": 7824,
      "ĠPremiere": 7825,
      ";'\\": 7826,
      "cff": 7827,
      "abd": 7828,
      "441": 7829,
      "iler": 7830,
      "Ġdeploy": 7831,
      "Ġ^=": 7832,
      "Ġmotion": 7833,
      "Adding": 7834,
      "Ġdivisible": 7835,
      "rav": 7836,
      "dea": 7837,
      "481": 7838,
      "Ġeffect": 7839,
      "Ġ\"*.": 7840,
      "Ġstress": 7841,
      "270": 7842,
      "cad": 7843,
      "Ġstage": 7844,
      "writing": 7845,
      "Ġheavy": 7846,
      "Ġ96": 7847,
      "edits": 7848,
      "comes": 7849,
      "Ġstrateg": 7850,
      "Out": 7851,
      "Ġparameter": 7852,
      "white": 7853,
      "Home": 7854,
      "Ġflat": 7855,
      "Ġdestination": 7856,
      "gt": 7857,
      "Ġkeeping": 7858,
      "road": 7859,
      "datetime": 7860,
      "483": 7861,
      "100000000": 7862,
      "Ġscale": 7863,
      "Ġfindings": 7864,
      "bff": 7865,
      "ĠMissing": 7866,
      "Ġexamine": 7867,
      "fcb": 7868,
      "afd": 7869,
      "Ġresponsive": 7870,
      "otel": 7871,
      "Ġmedi": 7872,
      "]),": 7873,
      "Ġbad": 7874,
      "Ġ998244353": 7875,
      "Ġcodebase": 7876,
      "FOUND": 7877,
      "QU": 7878,
      "center": 7879,
      "'):": 7880,
      "ĠTherefore": 7881,
      "Ġmonthly": 7882,
      "Ġaccur": 7883,
      "decor": 7884,
      "438": 7885,
      "+)": 7886,
      "104": 7887,
      "Ġcanonical": 7888,
      "ĠNotes": 7889,
      "ek": 7890,
      "native": 7891,
      "ohn": 7892,
      "ĠColor": 7893,
      "106": 7894,
      "creasing": 7895,
      "bba": 7896,
      "pk": 7897,
      "998": 7898,
      "Ġ\\\"*.": 7899,
      "ĠCloud": 7900,
      "805": 7901,
      "rwxrwxrwx": 7902,
      "ism": 7903,
      "ertain": 7904,
      "async": 7905,
      "ĠSH": 7906,
      "Ġexpression": 7907,
      "267": 7908,
      "ĠĠĠĠĠĠĠĠĠĠĠĠĠĠĠĠĠĠĠĠĠĠĠĠĠĠĠĠĠĠĠĠĠĠĠĠĠĠĠĠĠĠĠĠĠĠĠĠĠĠĠĠĠĠĠĠĠĠĠĠĠĠĠĠ": 7909,
      "COD": 7910,
      "ĠLo": 7911,
      "Ġoffer": 7912,
      "Ġapplying": 7913,
      "ĠInclude": 7914,
      "Controller": 7915,
      "vertical": 7916,
      "around": 7917,
      "checklist": 7918,
      "ickoff": 7919,
      "Ġreuse": 7920,
      "Ġlic": 7921,
      "Ġ51": 7922,
      "Ġminute": 7923,
      "BBBB": 7924,
      "Ġworst": 7925,
      "Ġinvest": 7926,
      "bases": 7927,
      "865": 7928,
      "Ġdecide": 7929,
      "828": 7930,
      "195": 7931,
      "Ġbelieve": 7932,
      "Ġplans": 7933,
      "fea": 7934,
      "Ġys": 7935,
      "clusion": 7936,
      "ĠConcept": 7937,
      "mov": 7938,
      "hemat": 7939,
      "From": 7940,
      "STA": 7941,
      "entries": 7942,
      "kB": 7943,
      "trading": 7944,
      "()){": 7945,
      "fde": 7946,
      "foo": 7947,
      "Ġfilled": 7948,
      "Each": 7949,
      "Ġresearch": 7950,
      "Ġseq": 7951,
      "MIN": 7952,
      "processing": 7953,
      "ĠVenmo": 7954,
      "nMD": 7955,
      "Ġmx": 7956,
      "Ġmismatch": 7957,
      "author": 7958,
      "Ġbus": 7959,
      "Ġfixes": 7960,
      "production": 7961,
      "bce": 7962,
      "667": 7963,
      "LETE": 7964,
      "libssh": 7965,
      "Gu": 7966,
      "Ġcalled": 7967,
      "products": 7968,
      "Ġdigital": 7969,
      "Ġ[\"": 7970,
      "office": 7971,
      "(['": 7972,
      "fec": 7973,
      "uri": 7974,
      "Child": 7975,
      "ĠTarget": 7976,
      "Ġ55": 7977,
      "negative": 7978,
      "swap": 7979,
      "Ġcoordinate": 7980,
      "Ġang": 7981,
      "ided": 7982,
      "ieve": 7983,
      "462": 7984,
      "leads": 7985,
      "Ġlibjson": 7986,
      "links": 7987,
      "Ġdriver": 7988,
      "sbin": 7989,
      "2002": 7990,
      "packaged": 7991,
      "Ġlibgtk": 7992,
      "fields": 7993,
      "Ġgen": 7994,
      "Ġchecksum": 7995,
      "Ġaccumulate": 7996,
      "gmail": 7997,
      "submit": 7998,
      "Ġ\\\\(": 7999
    },
    "merges": [
      [
        "Ġ",
        "Ġ"
      ],
      [
        "ĠĠ",
        "ĠĠ"
      ],
      [
        "i",
        "n"
      ],
      [
        "Ġ",
        "t"
      ],
      [
        "o",
        "n"
      ],
      [
        "Ġ",
        "a"
      ],
      [
        "r",
        "e"
      ],
      [
        "a",
        "t"
      ],
      [
        "s",
        "t"
      ],
      [
        "e",
        "r"
      ],
      [
        "Ġ",
        "c"
      ],
      [
        "r",
        "o"
      ],
      [
        "h",
        "e"
      ],
      [
        "Ġ",
        "\""
      ],
      [
        "Ġ",
        "s"
      ],
      [
        "l",
        "e"
      ],
      [
        "n",
        "d"
      ],
      [
        "o",
        "r"
      ],
      [
        "ĠĠ",
        "Ġ"
      ],
      [
        "Ġ",
        "p"
      ],
      [
        "i",
        "t"
      ],
      [
        "e",
        "s"
      ],
      [
        "a",
        "l"
      ],
      [
        "Ġ",
        "f"
      ],
      [
        "Ġt",
        "he"
      ],
      [
        "e",
        "n"
      ],
      [
        "i",
        "on"
      ],
      [
        "\"",
        ":"
      ],
      [
        "u",
        "t"
      ],
      [
        "ĠĠĠĠ",
        "ĠĠĠĠ"
      ],
      [
        "Ġ",
        "w"
      ],
      [
        "m",
        "a"
      ],
      [
        "o",
        "t"
      ],
      [
        "o",
        "m"
      ],
      [
        "e",
        "d"
      ],
      [
        "in",
        "g"
      ],
      [
        "u",
        "r"
      ],
      [
        "Ġ",
        "b"
      ],
      [
        "Ġ",
        "-"
      ],
      [
        "c",
        "t"
      ],
      [
        "Ġ",
        "d"
      ],
      [
        "Ġ",
        "i"
      ],
      [
        "a",
        "n"
      ],
      [
        "Ġ",
        "in"
      ],
      [
        "Ġ",
        "n"
      ],
      [
        "Ġt",
        "o"
      ],
      [
        "a",
        "s"
      ],
      [
        "Ġ",
        "="
      ],
      [
        "Ġ",
        "l"
      ],
      [
        "Ġ",
        "1"
      ],
      [
        "Ġ",
        "e"
      ],
      [
        "Ċ",
        "ĠĠĠ"
      ],
      [
        "ĠĠĠĠ",
        "Ġ"
      ],
      [
        "a",
        "r"
      ],
      [
        "at",
        "ion"
      ],
      [
        "Ċ",
        "ĠĠĠĠĠ"
      ],
      [
        "Ġ",
        "0"
      ],
      [
        "a",
        "p"
      ],
      [
        "Ġ",
        "("
      ],
      [
        "e",
        "t"
      ],
      [
        "a",
        "c"
      ],
      [
        "Ġa",
        "nd"
      ],
      [
        "Ġ",
        "re"
      ],
      [
        "Ġ",
        "o"
      ],
      [
        "k",
        "e"
      ],
      [
        "u",
        "n"
      ],
      [
        "en",
        "t"
      ],
      [
        "\"",
        ","
      ],
      [
        "d",
        "e"
      ],
      [
        "u",
        "s"
      ],
      [
        "ro",
        "ot"
      ],
      [
        "o",
        "l"
      ],
      [
        "Ġ",
        "{"
      ],
      [
        "Ġf",
        "or"
      ],
      [
        "Ġc",
        "om"
      ],
      [
        "a",
        "m"
      ],
      [
        "Ċ",
        "Ġ"
      ],
      [
        "Ġ",
        "2"
      ],
      [
        "i",
        "l"
      ],
      [
        "Ġ",
        "m"
      ],
      [
        "i",
        "s"
      ],
      [
        "ma",
        "nd"
      ],
      [
        "ap",
        "p"
      ],
      [
        "ke",
        "y"
      ],
      [
        "Ġ",
        "}"
      ],
      [
        "Ġ",
        "'"
      ],
      [
        "ur",
        "ation"
      ],
      [
        "i",
        "c"
      ],
      [
        "Ġ",
        "st"
      ],
      [
        "k",
        "es"
      ],
      [
        "st",
        "ro"
      ],
      [
        "key",
        "stro"
      ],
      [
        "keystro",
        "kes"
      ],
      [
        "i",
        "b"
      ],
      [
        "\\",
        "\\"
      ],
      [
        ".",
        "."
      ],
      [
        "at",
        "e"
      ],
      [
        "t",
        "e"
      ],
      [
        "p",
        "le"
      ],
      [
        "Ġ",
        "T"
      ],
      [
        "Ġ",
        "v"
      ],
      [
        "in",
        "t"
      ],
      [
        "x",
        "t"
      ],
      [
        "e",
        "c"
      ],
      [
        "it",
        "h"
      ],
      [
        "Ġc",
        "on"
      ],
      [
        "i",
        "d"
      ],
      [
        "u",
        "l"
      ],
      [
        "0",
        "0"
      ],
      [
        "d",
        "uration"
      ],
      [
        "p",
        "t"
      ],
      [
        "a",
        "d"
      ],
      [
        "c",
        "om"
      ],
      [
        "s",
        "e"
      ],
      [
        "p",
        "ut"
      ],
      [
        "t",
        "h"
      ],
      [
        "ĠĠĠĠ",
        "ĠĠĠ"
      ],
      [
        ":",
        "/"
      ],
      [
        "\\",
        "\""
      ],
      [
        "Ġw",
        "ith"
      ],
      [
        "e",
        "ct"
      ],
      [
        "Ġi",
        "f"
      ],
      [
        "Ġb",
        "e"
      ],
      [
        "Ġ",
        "/"
      ],
      [
        "Ġp",
        "ro"
      ],
      [
        "r",
        "i"
      ],
      [
        "Ġ",
        "g"
      ],
      [
        "v",
        "e"
      ],
      [
        "h",
        "o"
      ],
      [
        "b",
        "le"
      ],
      [
        "l",
        "o"
      ],
      [
        "Ġ",
        "<"
      ],
      [
        "Ġi",
        "s"
      ],
      [
        "Ġ",
        "C"
      ],
      [
        "g",
        "e"
      ],
      [
        "Ġcom",
        "mand"
      ],
      [
        "Ġe",
        "x"
      ],
      [
        "Ġ",
        "r"
      ],
      [
        "p",
        "l"
      ],
      [
        "Ġ",
        "I"
      ],
      [
        "Ġ",
        "y"
      ],
      [
        "i",
        "st"
      ],
      [
        "Ġo",
        "f"
      ],
      [
        "Ġ",
        "ma"
      ],
      [
        "u",
        "m"
      ],
      [
        "i",
        "le"
      ],
      [
        "i",
        "r"
      ],
      [
        "u",
        "b"
      ],
      [
        "Ġ",
        "["
      ],
      [
        "o",
        "u"
      ],
      [
        "Ġn",
        "e"
      ],
      [
        "Ġ",
        "h"
      ],
      [
        "Ġ",
        "P"
      ],
      [
        "Ġ}",
        ","
      ],
      [
        "q",
        "u"
      ],
      [
        "un",
        "t"
      ],
      [
        "Ġ",
        "N"
      ],
      [
        "l",
        "y"
      ],
      [
        "i",
        "m"
      ],
      [
        "Ġ",
        "O"
      ],
      [
        "Ġ",
        "root"
      ],
      [
        "v",
        "er"
      ],
      [
        "i",
        "g"
      ],
      [
        "ac",
        "k"
      ],
      [
        "Ġ",
        "3"
      ],
      [
        "p",
        "y"
      ],
      [
        "c",
        "e"
      ],
      [
        "in",
        "e"
      ],
      [
        "Ġ",
        "A"
      ],
      [
        "i",
        "f"
      ],
      [
        "u",
        "p"
      ],
      [
        "Ġ",
        "S"
      ],
      [
        ")",
        "\\"
      ],
      [
        "as",
        "k"
      ],
      [
        "c",
        "h"
      ],
      [
        "Ġ",
        ">"
      ],
      [
        "ut",
        "put"
      ],
      [
        "Ġt",
        "h"
      ],
      [
        "y",
        "s"
      ],
      [
        "e",
        "l"
      ],
      [
        "6",
        "4"
      ],
      [
        ":",
        "\\"
      ],
      [
        "or",
        "t"
      ],
      [
        "Ġl",
        "ib"
      ],
      [
        "e",
        "st"
      ],
      [
        "Ġa",
        "n"
      ],
      [
        "r",
        "a"
      ],
      [
        "Ġ",
        "+"
      ],
      [
        "th",
        "on"
      ],
      [
        "m",
        "ent"
      ],
      [
        "in",
        "al"
      ],
      [
        "er",
        "m"
      ],
      [
        "s",
        "s"
      ],
      [
        "a",
        "ble"
      ],
      [
        "Ġ",
        "on"
      ],
      [
        "Ġn",
        "ot"
      ],
      [
        "r",
        "int"
      ],
      [
        "u",
        "re"
      ],
      [
        "n",
        "t"
      ],
      [
        "il",
        "l"
      ],
      [
        "m",
        "d"
      ],
      [
        "ĠĠĠĠĠĠĠĠ",
        "ĠĠĠ"
      ],
      [
        "Ġ",
        "or"
      ],
      [
        "Ġ",
        "D"
      ],
      [
        "unt",
        "u"
      ],
      [
        "ple",
        "te"
      ],
      [
        ")",
        ";"
      ],
      [
        "j",
        "ect"
      ],
      [
        "Ġ",
        "us"
      ],
      [
        "ac",
        "e"
      ],
      [
        "on",
        "g"
      ],
      [
        "ub",
        "untu"
      ],
      [
        "o",
        "c"
      ],
      [
        "am",
        "e"
      ],
      [
        "u",
        "e"
      ],
      [
        "Ġin",
        "t"
      ],
      [
        "al",
        "l"
      ],
      [
        "p",
        "ro"
      ],
      [
        "v",
        "i"
      ],
      [
        "an",
        "t"
      ],
      [
        "p",
        "o"
      ],
      [
        "l",
        "l"
      ],
      [
        "i",
        "re"
      ],
      [
        "Ġ",
        "R"
      ],
      [
        "..",
        "."
      ],
      [
        "p",
        "ort"
      ],
      [
        "at",
        "a"
      ],
      [
        "ĠT",
        "he"
      ],
      [
        "x",
        "r"
      ],
      [
        "er",
        "s"
      ],
      [
        "(",
        ")"
      ],
      [
        "o",
        "ur"
      ],
      [
        "Ġ",
        "E"
      ],
      [
        "Ġcon",
        "t"
      ],
      [
        "y",
        "thon"
      ],
      [
        "Ġ",
        "4"
      ],
      [
        "Ġp",
        "re"
      ],
      [
        "Ġ",
        "M"
      ],
      [
        "Ġs",
        "ol"
      ],
      [
        "Ġa",
        "s"
      ],
      [
        "es",
        "s"
      ],
      [
        "Ġs",
        "e"
      ],
      [
        "Ġf",
        "ile"
      ],
      [
        "-",
        "-"
      ],
      [
        "Ġn",
        "o"
      ],
      [
        "e",
        "m"
      ],
      [
        ".",
        "\","
      ],
      [
        "Ġw",
        "ill"
      ],
      [
        "c",
        "ri"
      ],
      [
        "Ġ",
        "B"
      ],
      [
        "_",
        "_"
      ],
      [
        "cri",
        "pt"
      ],
      [
        "s",
        "p"
      ],
      [
        "Ġ<",
        "<"
      ],
      [
        "ul",
        "t"
      ],
      [
        "d",
        "s"
      ],
      [
        "Ġ",
        "F"
      ],
      [
        "erm",
        "inal"
      ],
      [
        "h",
        "t"
      ],
      [
        "Ġy",
        "ou"
      ],
      [
        "o",
        "re"
      ],
      [
        "i",
        "ve"
      ],
      [
        "Ġ",
        "W"
      ],
      [
        "as",
        "s"
      ],
      [
        "re",
        "nt"
      ],
      [
        "e",
        "p"
      ],
      [
        "Ġ",
        "..."
      ],
      [
        "Ġ",
        "k"
      ],
      [
        "a",
        "ge"
      ],
      [
        "t",
        "xt"
      ],
      [
        "e",
        "f"
      ],
      [
        "Ġ",
        "|"
      ],
      [
        "l",
        "a"
      ],
      [
        "Ġb",
        "y"
      ],
      [
        "ĠĠĠĠĠĠĠĠ",
        "ĠĠĠĠĠĠĠĠ"
      ],
      [
        ".",
        "\\"
      ],
      [
        "Ġcommand",
        "s"
      ],
      [
        "a",
        "in"
      ],
      [
        "a",
        "ct"
      ],
      [
        "Ġt",
        "est"
      ],
      [
        "Ġl",
        "ong"
      ],
      [
        "b",
        "as"
      ],
      [
        "]",
        ","
      ],
      [
        "ur",
        "n"
      ],
      [
        "Ġ",
        "5"
      ],
      [
        "com",
        "mand"
      ],
      [
        "r",
        "w"
      ],
      [
        "Ġ",
        "it"
      ],
      [
        "f",
        "f"
      ],
      [
        "2",
        "0"
      ],
      [
        "g",
        "et"
      ],
      [
        "a",
        "nd"
      ],
      [
        "ac",
        "h"
      ],
      [
        "Ġth",
        "at"
      ],
      [
        "Ġp",
        "rint"
      ],
      [
        "d",
        "d"
      ],
      [
        "am",
        "ple"
      ],
      [
        "t",
        "er"
      ],
      [
        "at",
        "ed"
      ],
      [
        "Ġre",
        "t"
      ],
      [
        "ma",
        "in"
      ],
      [
        "Ġp",
        "l"
      ],
      [
        "Ġ",
        "#"
      ],
      [
        "or",
        "k"
      ],
      [
        "o",
        "ut"
      ],
      [
        "1",
        "0"
      ],
      [
        "Ġ",
        "en"
      ],
      [
        "Ġ",
        "up"
      ],
      [
        "lo",
        "w"
      ],
      [
        "Ġ",
        "L"
      ],
      [
        "Ġ-",
        "-"
      ],
      [
        "i",
        "z"
      ],
      [
        "Ġr",
        "un"
      ],
      [
        "Ġ",
        "\\\""
      ],
      [
        "Ġret",
        "urn"
      ],
      [
        "O",
        "F"
      ],
      [
        "Ġo",
        "utput"
      ],
      [
        "c",
        "l"
      ],
      [
        "Ġt",
        "ask"
      ],
      [
        "Ġ",
        "*"
      ],
      [
        "m",
        "o"
      ],
      [
        "ur",
        "rent"
      ],
      [
        "e",
        "w"
      ],
      [
        "al",
        "ys"
      ],
      [
        "i",
        "al"
      ],
      [
        "alys",
        "is"
      ],
      [
        ";",
        "\\"
      ],
      [
        "Ġ",
        "un"
      ],
      [
        "p",
        "e"
      ],
      [
        "ol",
        "d"
      ],
      [
        "Ġ",
        "le"
      ],
      [
        "Ġs",
        "ho"
      ],
      [
        "Ġt",
        "r"
      ],
      [
        "ut",
        "ion"
      ],
      [
        "ro",
        "m"
      ],
      [
        "it",
        "e"
      ],
      [
        "Ġma",
        "in"
      ],
      [
        "q",
        "l"
      ],
      [
        "or",
        "y"
      ],
      [
        "Ġa",
        "re"
      ],
      [
        "Ġw",
        "h"
      ],
      [
        "pl",
        "an"
      ],
      [
        "com",
        "plete"
      ],
      [
        "t",
        "ask"
      ],
      [
        "ar",
        "t"
      ],
      [
        "Ġp",
        "o"
      ],
      [
        "c",
        "at"
      ],
      [
        "Ġi",
        "m"
      ],
      [
        "c",
        "c"
      ],
      [
        "Ġv",
        "al"
      ],
      [
        "Ġin",
        "st"
      ],
      [
        "Ġp",
        "ython"
      ],
      [
        "Ġc",
        "o"
      ],
      [
        "l",
        "ine"
      ],
      [
        "ĠĠĠĠĠĠĠĠ",
        "ĠĠĠĠ"
      ],
      [
        "Ġc",
        "an"
      ],
      [
        "ĠN",
        "o"
      ],
      [
        "Ġd",
        "ata"
      ],
      [
        "Ġ",
        "6"
      ],
      [
        "1",
        "2"
      ],
      [
        "l",
        "s"
      ],
      [
        "Ġa",
        "p"
      ],
      [
        "e",
        "xt"
      ],
      [
        "Ġst",
        "r"
      ],
      [
        "p",
        "er"
      ],
      [
        "Ġ=",
        "="
      ],
      [
        "c",
        "on"
      ],
      [
        "an",
        "alysis"
      ],
      [
        "a",
        "g"
      ],
      [
        "on",
        "e"
      ],
      [
        "il",
        "d"
      ],
      [
        "9",
        "9"
      ],
      [
        "al",
        "se"
      ],
      [
        "t",
        "t"
      ],
      [
        "Ġ",
        "he"
      ],
      [
        "ig",
        "n"
      ],
      [
        "command",
        "s"
      ],
      [
        "u",
        "ct"
      ],
      [
        "Ġne",
        "w"
      ],
      [
        "ec",
        "ut"
      ],
      [
        "Ġne",
        "xt"
      ],
      [
        "c",
        "k"
      ],
      [
        "e",
        "nd"
      ],
      [
        "ul",
        "d"
      ],
      [
        "'",
        ","
      ],
      [
        "Ġv",
        "er"
      ],
      [
        "i",
        "p"
      ],
      [
        "a",
        "b"
      ],
      [
        "po",
        "s"
      ],
      [
        "Ġ",
        "."
      ],
      [
        "as",
        "e"
      ],
      [
        "an",
        "ge"
      ],
      [
        "i",
        "v"
      ],
      [
        "ec",
        "on"
      ],
      [
        "Ġs",
        "et"
      ],
      [
        "Ġre",
        "s"
      ],
      [
        "us",
        "er"
      ],
      [
        "Ġ",
        "x"
      ],
      [
        "if",
        "y"
      ],
      [
        "'",
        "\\"
      ],
      [
        "ion",
        "s"
      ],
      [
        "ire",
        "ct"
      ],
      [
        "f",
        "or"
      ],
      [
        "h",
        "er"
      ],
      [
        "u",
        "st"
      ],
      [
        "Ġw",
        "e"
      ],
      [
        "O",
        "N"
      ],
      [
        "Ġsol",
        "ution"
      ],
      [
        "Ġl",
        "ine"
      ],
      [
        "it",
        "y"
      ],
      [
        "e",
        "x"
      ],
      [
        "c",
        "o"
      ],
      [
        "a",
        "y"
      ],
      [
        "u",
        "ild"
      ],
      [
        "ist",
        "ant"
      ],
      [
        ")",
        "."
      ],
      [
        "Ġ",
        "J"
      ],
      [
        "T",
        "he"
      ],
      [
        "c",
        "a"
      ],
      [
        "E",
        "OF"
      ],
      [
        "Ġcom",
        "plete"
      ],
      [
        "rw",
        "xr"
      ],
      [
        "Ġs",
        "p"
      ],
      [
        "Ġ",
        "Y"
      ],
      [
        "Ġf",
        "rom"
      ],
      [
        "Ġm",
        "o"
      ],
      [
        "Ġy",
        "our"
      ],
      [
        "ar",
        "ch"
      ],
      [
        ")",
        ","
      ],
      [
        "Ġ",
        "j"
      ],
      [
        "le",
        "ct"
      ],
      [
        "a",
        "il"
      ],
      [
        "Ġne",
        "ed"
      ],
      [
        "Ġc",
        "h"
      ],
      [
        "Ġcon",
        "f"
      ],
      [
        "(",
        "'"
      ],
      [
        "c",
        "ho"
      ],
      [
        "um",
        "b"
      ],
      [
        "in",
        "d"
      ],
      [
        "o",
        "us"
      ],
      [
        "d",
        "rwxr"
      ],
      [
        ":/",
        "/"
      ],
      [
        "bas",
        "h"
      ],
      [
        "Ġ",
        "],"
      ],
      [
        "Ġs",
        "cript"
      ],
      [
        "l",
        "ib"
      ],
      [
        "n",
        "ame"
      ],
      [
        "ap",
        "t"
      ],
      [
        "1",
        "1"
      ],
      [
        "n",
        "ing"
      ],
      [
        "ĠĠĠĠĠĠĠĠ",
        "ĠĠĠĠĠĠĠ"
      ],
      [
        "Ġa",
        "ll"
      ],
      [
        "Ġst",
        "ep"
      ],
      [
        "at",
        "h"
      ],
      [
        "a",
        "it"
      ],
      [
        "Ġs",
        "econ"
      ],
      [
        "Ġex",
        "ecut"
      ],
      [
        "t",
        "o"
      ],
      [
        "Ġc",
        "re"
      ],
      [
        "2",
        "5"
      ],
      [
        "Ġt",
        "erminal"
      ],
      [
        "$",
        "$"
      ],
      [
        "s",
        "h"
      ],
      [
        "Ġd",
        "irect"
      ],
      [
        "i",
        "es"
      ],
      [
        "Ġe",
        "cho"
      ],
      [
        "iz",
        "e"
      ],
      [
        "p",
        "ack"
      ],
      [
        "Ġsho",
        "uld"
      ],
      [
        "M",
        "E"
      ],
      [
        "Ġa",
        "t"
      ],
      [
        "â",
        "Ģ"
      ],
      [
        "ul",
        "l"
      ],
      [
        "Ġ1",
        "0"
      ],
      [
        "am",
        "d"
      ],
      [
        "i",
        "de"
      ],
      [
        "Ġc",
        "urrent"
      ],
      [
        "vi",
        "ous"
      ],
      [
        "ass",
        "istant"
      ],
      [
        "Ġr",
        "ange"
      ],
      [
        "Ġf",
        "alse"
      ],
      [
        "Ġe",
        "nd"
      ],
      [
        "Ġw",
        "he"
      ],
      [
        "Ġc",
        "or"
      ],
      [
        "t",
        "r"
      ],
      [
        "Ġa",
        "dd"
      ],
      [
        "Ġp",
        "ack"
      ],
      [
        "at",
        "es"
      ],
      [
        "E",
        "A"
      ],
      [
        "ĠT",
        "erminal"
      ],
      [
        "Ġ",
        "qu"
      ],
      [
        "tt",
        "p"
      ],
      [
        "p",
        "rint"
      ],
      [
        "ĠI",
        "f"
      ],
      [
        "f",
        "a"
      ],
      [
        ")",
        ")"
      ],
      [
        "Ġw",
        "ait"
      ],
      [
        "ou",
        "nd"
      ],
      [
        "Ġh",
        "ttp"
      ],
      [
        "Ġa",
        "l"
      ],
      [
        "o",
        "o"
      ],
      [
        "Ġe",
        "l"
      ],
      [
        "re",
        "ct"
      ],
      [
        "Ġf",
        "i"
      ],
      [
        "Ġin",
        "put"
      ],
      [
        "Ġa",
        "r"
      ],
      [
        "ot",
        "al"
      ],
      [
        ");",
        "\\"
      ],
      [
        "4",
        "3"
      ],
      [
        "o",
        "w"
      ],
      [
        "*",
        "*"
      ],
      [
        ")",
        ":"
      ],
      [
        "S",
        "ON"
      ],
      [
        "Ġ",
        "&"
      ],
      [
        "Ġa",
        "md"
      ],
      [
        "1",
        "7"
      ],
      [
        "Ġs",
        "ample"
      ],
      [
        "t",
        "ing"
      ],
      [
        "Ġ",
        "G"
      ],
      [
        "u",
        "d"
      ],
      [
        "g",
        "r"
      ],
      [
        "Ġpro",
        "ject"
      ],
      [
        "Ġ",
        "ro"
      ],
      [
        "ĠNo",
        "v"
      ],
      [
        "'",
        ":"
      ],
      [
        "^",
        "^"
      ],
      [
        "Ċ",
        "Ċ"
      ],
      [
        "s",
        "er"
      ],
      [
        "f",
        "ore"
      ],
      [
        "Ġsecon",
        "ds"
      ],
      [
        "m",
        "p"
      ],
      [
        "8",
        "0"
      ],
      [
        "4",
        "0"
      ],
      [
        "c",
        "he"
      ],
      [
        "+",
        "+"
      ],
      [
        "Ġb",
        "as"
      ],
      [
        "Ġcor",
        "rect"
      ],
      [
        "f",
        "e"
      ],
      [
        "E",
        "R"
      ],
      [
        "Ġe",
        "ach"
      ],
      [
        "d",
        "b"
      ],
      [
        "ĠO",
        "utput"
      ],
      [
        "ĠJ",
        "SON"
      ],
      [
        "pro",
        "ject"
      ],
      [
        "Ġthe",
        "n"
      ],
      [
        "st",
        "r"
      ],
      [
        "w",
        "o"
      ],
      [
        "Ġcont",
        "ain"
      ],
      [
        "Ġtr",
        "ue"
      ],
      [
        "or",
        "d"
      ],
      [
        "Ġbe",
        "fore"
      ],
      [
        "Ġm",
        "in"
      ],
      [
        "qu",
        "ire"
      ],
      [
        "w",
        "ork"
      ],
      [
        "Ġfile",
        "s"
      ],
      [
        "4",
        "5"
      ],
      [
        "vi",
        "de"
      ],
      [
        "u",
        "nd"
      ],
      [
        "umb",
        "er"
      ],
      [
        "Ġd",
        "uration"
      ],
      [
        "Ġsp",
        "ec"
      ],
      [
        "2",
        "3"
      ],
      [
        "r",
        "y"
      ],
      [
        "Ġ",
        "U"
      ],
      [
        "Ġd",
        "es"
      ],
      [
        "Ġstep",
        "s"
      ],
      [
        "Ġh",
        "as"
      ],
      [
        "I",
        "N"
      ],
      [
        "ol",
        "low"
      ],
      [
        "i",
        "ver"
      ],
      [
        "Ġi",
        "d"
      ],
      [
        "ĠI",
        "n"
      ],
      [
        "py",
        "thon"
      ],
      [
        "1",
        "5"
      ],
      [
        "re",
        "p"
      ],
      [
        "i",
        "ent"
      ],
      [
        "00",
        "00"
      ],
      [
        "Ġf",
        "ollow"
      ],
      [
        "L",
        "E"
      ],
      [
        "n",
        "g"
      ],
      [
        "Ġt",
        "wo"
      ],
      [
        "EA",
        "D"
      ],
      [
        "h",
        "old"
      ],
      [
        "m",
        "l"
      ],
      [
        "2",
        "4"
      ],
      [
        "ĠC",
        "om"
      ],
      [
        "Ġres",
        "ult"
      ],
      [
        "ig",
        "ht"
      ],
      [
        "j",
        "s"
      ],
      [
        "Ġel",
        "se"
      ],
      [
        "Ġinst",
        "all"
      ],
      [
        "v",
        "al"
      ],
      [
        "Ġma",
        "x"
      ],
      [
        "ir",
        "m"
      ],
      [
        ")",
        ":\\"
      ],
      [
        "Ġpre",
        "vious"
      ],
      [
        "1",
        "6"
      ],
      [
        "re",
        "ad"
      ],
      [
        "Ġd",
        "e"
      ],
      [
        "st",
        "d"
      ],
      [
        "1",
        "4"
      ],
      [
        "Ġc",
        "at"
      ],
      [
        "Ġdirect",
        "ory"
      ],
      [
        "f",
        "ter"
      ],
      [
        "a",
        "re"
      ],
      [
        "ace",
        "hold"
      ],
      [
        "ar",
        "d"
      ],
      [
        "P",
        "Y"
      ],
      [
        "m",
        "at"
      ],
      [
        "v",
        "id"
      ],
      [
        "ion",
        "al"
      ],
      [
        "v",
        "ir"
      ],
      [
        "Ġst",
        "ate"
      ],
      [
        "h",
        "at"
      ],
      [
        "b",
        "in"
      ],
      [
        "Ġg",
        "it"
      ],
      [
        "vir",
        "on"
      ],
      [
        ")",
        "{"
      ],
      [
        "d",
        "u"
      ],
      [
        ".",
        ","
      ],
      [
        "EAD",
        "ME"
      ],
      [
        "s",
        "ql"
      ],
      [
        "h",
        "is"
      ],
      [
        "#",
        "#"
      ],
      [
        "en",
        "c"
      ],
      [
        "de",
        "v"
      ],
      [
        "o",
        "g"
      ],
      [
        "'",
        "s"
      ],
      [
        "s",
        "v"
      ],
      [
        "Ġw",
        "ork"
      ],
      [
        "Ġth",
        "is"
      ],
      [
        "le",
        "s"
      ],
      [
        "Ġex",
        "ist"
      ],
      [
        "Ġ",
        "ed"
      ],
      [
        "ĠO",
        "ct"
      ],
      [
        "Ġpack",
        "age"
      ],
      [
        "]",
        "\\"
      ],
      [
        "Ġc",
        "ol"
      ],
      [
        "viron",
        "ment"
      ],
      [
        "im",
        "e"
      ],
      [
        "ĠP",
        "ython"
      ],
      [
        "c",
        "d"
      ],
      [
        "an",
        "g"
      ],
      [
        "Ġ",
        "V"
      ],
      [
        "is",
        "e"
      ],
      [
        "4",
        "8"
      ],
      [
        "Ġs",
        "ub"
      ],
      [
        "Ġ>",
        ">"
      ],
      [
        "1",
        "3"
      ],
      [
        "Ġpl",
        "an"
      ],
      [
        "Ġs",
        "u"
      ],
      [
        "m",
        "pt"
      ],
      [
        "p",
        "re"
      ],
      [
        "b",
        "uild"
      ],
      [
        "ir",
        "st"
      ],
      [
        "Ġ",
        "H"
      ],
      [
        "sp",
        "ace"
      ],
      [
        "Ġnew",
        "line"
      ],
      [
        "Ġre",
        "sp"
      ],
      [
        "4",
        "7"
      ],
      [
        "Ġs",
        "ys"
      ],
      [
        "th",
        "er"
      ],
      [
        "Ġ",
        "7"
      ],
      [
        "apt",
        "ure"
      ],
      [
        "Ġ/",
        "/"
      ],
      [
        "Ġno",
        "ble"
      ],
      [
        "he",
        "ck"
      ],
      [
        "1",
        "8"
      ],
      [
        "Ġus",
        "ing"
      ],
      [
        "ot",
        "her"
      ],
      [
        "uct",
        "ure"
      ],
      [
        "Ġver",
        "ify"
      ],
      [
        "ĠP",
        "ro"
      ],
      [
        "Ġex",
        "act"
      ],
      [
        "d",
        "ir"
      ],
      [
        "f",
        "ile"
      ],
      [
        "at",
        "us"
      ],
      [
        "4",
        "6"
      ],
      [
        "Ġ",
        "â"
      ],
      [
        "ib",
        "le"
      ],
      [
        "Ġd",
        "ef"
      ],
      [
        "]",
        "["
      ],
      [
        "4",
        "9"
      ],
      [
        "Ġ",
        "\\"
      ],
      [
        "ic",
        "e"
      ],
      [
        "in",
        "es"
      ],
      [
        "re",
        "e"
      ],
      [
        "1",
        "9"
      ],
      [
        "et",
        "s"
      ],
      [
        "Ġs",
        "um"
      ],
      [
        "lo",
        "g"
      ],
      [
        "e",
        "b"
      ],
      [
        "o",
        "utput"
      ],
      [
        "en",
        "er"
      ],
      [
        "ect",
        "or"
      ],
      [
        "le",
        "d"
      ],
      [
        "arch",
        "ive"
      ],
      [
        "u",
        "de"
      ],
      [
        "for",
        "m"
      ],
      [
        "R",
        "e"
      ],
      [
        "Ġen",
        "vironment"
      ],
      [
        "et",
        "ting"
      ],
      [
        "n",
        "o"
      ],
      [
        "Ġin",
        "te"
      ],
      [
        "Ġpro",
        "vid"
      ],
      [
        "Ġa",
        "ss"
      ],
      [
        "ple",
        "ment"
      ],
      [
        "Ġa",
        "g"
      ],
      [
        "Ġf",
        "ound"
      ],
      [
        "d",
        "ata"
      ],
      [
        "Ġconf",
        "irm"
      ],
      [
        "Ġstr",
        "ucture"
      ],
      [
        "ĠW",
        "hat"
      ],
      [
        "cl",
        "ude"
      ],
      [
        "a",
        "v"
      ],
      [
        "Ġan",
        "s"
      ],
      [
        "s",
        "ent"
      ],
      [
        "o",
        "b"
      ],
      [
        "a",
        "k"
      ],
      [
        "te",
        "st"
      ],
      [
        "n",
        "ull"
      ],
      [
        "f",
        "t"
      ],
      [
        "pos",
        "al"
      ],
      [
        "Ġex",
        "p"
      ],
      [
        "Ġan",
        "y"
      ],
      [
        "en",
        "v"
      ],
      [
        "ro",
        "r"
      ],
      [
        "Ġ",
        "keystrokes"
      ],
      [
        "b",
        "o"
      ],
      [
        "Ġwhe",
        "n"
      ],
      [
        "on",
        "t"
      ],
      [
        "y",
        "pe"
[...]
