{
  "version": "1.0",
  "truncation": null,
  "padding": null,
  "added_tokens": [
    {
      "id": 0,
      "content": "[PAD]",
      "single_word": false,
      "lstrip": false,
      "rstrip": false,
      "normalized": false,
      "special": true
    },
    {
      "id": 1,
      "content": "[UNK]",
      "single_word": false,
      "lstrip": false,
      "rstrip": false,
      "normalized": false,
      "special": true
    },
    {
      "id": 2,
      "content": "[CLS]",
      "single_word": false,
      "lstrip": false,
      "rstrip": false,
      "normalized": false,
      "special": true
    },
    {
      "id": 3,
      "content": "[MASK]",
      "single_word": false,
      "lstrip": false,
      "rstrip": false,
      "normalized": false,
      "special": true
    }
  ],
  "normalizer": null,
  "pre_tokenizer": {
    "type": "ByteLevel",
    "add_prefix_space": false,
    "trim_offsets": true,
    "use_regex": true
  },
  "post_processor": null,
  "decoder": {
    "type": "ByteLevel",
    "add_prefix_space": true,
    "trim_offsets": true,
    "use_regex": true
  },
  "model": {
    "type": "BPE",
    "dropout": null,
    "unk_token": "[UNK]",
    "continuing_subword_prefix": null,
    "end_of_word_suffix": null,
    "fuse_unk": false,
    "byte_fallback": false,
    "ignore_merges": false,
    "vocab": {
      "[PAD]": 0,
      "[UNK]": 1,
      "[CLS]": 2,
      "[MASK]": 3,
      "!": 4,
      "\"": 5,
      "#": 6,
      "$": 7,
      "%": 8,
      "&": 9,
      "'": 10,
      "(": 11,
      ")": 12,
      "*": 13,
      "+": 14,
      ",": 15,
      "-": 16,
      ".": 17,
      "/": 18,
      "0": 19,
      "1": 20,
      "2": 21,
      "3": 22,
      "4": 23,
      "5": 24,
      "6": 25,
      "7": 26,
      "8": 27,
      "9": 28,
      ":": 29,
      ";": 30,
      "<": 31,
      "=": 32,
      ">": 33,
      "?": 34,
      "@": 35,
      "A": 36,
      "B": 37,
      "C": 38,
      "D": 39,
      "E": 40,
      "F": 41,
      "G": 42,
      "H": 43,
      "I": 44,
      "J": 45,
      "K": 46,
      "L": 47,
      "M": 48,
      "N": 49,
      "O": 50,
      "P": 51,
      "Q": 52,
      "R": 53,
      "S": 54,
      "T": 55,
      "U": 56,
      "V": 57,
      "W": 58,
      "X": 59,
      "Y": 60,
      "Z": 61,
      "[": 62,
      "\\": 63,
      "]": 64,
      "^": 65,
      "_": 66,
      "`": 67,
      "a": 68,
      "b": 69,
      "c": 70,
      "d": 71,
      "e": 72,
      "f": 73,
      "g": 74,
      "h": 75,
      "i": 76,
      "j": 77,
      "k": 78,
      "l": 79,
      "m": 80,
      "n": 81,
      "o": 82,
      "p": 83,
      "q": 84,
      "r": 85,
      "s": 86,
      "t": 87,
      "u": 88,
      "v": 89,
      "w": 90,
      "x": 91,
      "y": 92,
      "z": 93,
      "{": 94,
      "|": 95,
      "}": 96,
      "~": 97,
      "¡": 98,
      "¢": 99,
      "£": 100,
      "¤": 101,
      "¥": 102,
      "¦": 103,
      "§": 104,
      "¨": 105,
      "©": 106,
      "ª": 107,
      "«": 108,
      "¬": 109,
      "®": 110,
      "¯": 111,
      "°": 112,
      "±": 113,
      "²": 114,
      "³": 115,
      "´": 116,
      "µ": 117,
      "¶": 118,
      "·": 119,
      "¸": 120,
      "¹": 121,
      "º": 122,
      "»": 123,
      "¼": 124,
      "½": 125,
      "¾": 126,
      "¿": 127,
      "Â": 128,
      "Ã": 129,
      "Ä": 130,
      "Å": 131,
      "È": 132,
      "Ê": 133,
      "Î": 134,
      "Ï": 135,
      "Ø": 136,
      "Ù": 137,
      "à": 138,
      "á": 139,
      "â": 140,
      "ã": 141,
      "ä": 142,
      "å": 143,
      "æ": 144,
      "ç": 145,
      "è": 146,
      "é": 147,
      "ê": 148,
      "ë": 149,
      "ì": 150,
      "í": 151,
      "ï": 152,
      "ð": 153,
      "ĉ": 154,
      "Ċ": 155,
      "č": 156,
      "Ġ": 157,
      "Ģ": 158,
      "ģ": 159,
      "Ĥ": 160,
      "ĥ": 161,
      "Ħ": 162,
      "ħ": 163,
      "Ĩ": 164,
      "ĩ": 165,
      "Ī": 166,
      "ī": 167,
      "Ĭ": 168,
      "ĭ": 169,
      "Į": 170,
      "į": 171,
      "İ": 172,
      "ı": 173,
      "Ĳ": 174,
      "ĳ": 175,
      "Ĵ": 176,
      "ĵ": 177,
      "Ķ": 178,
      "ķ": 179,
      "ĸ": 180,
      "Ĺ": 181,
      "ĺ": 182,
      "Ļ": 183,
      "ļ": 184,
      "Ľ": 185,
      "ľ": 186,
      "Ŀ": 187,
      "ŀ": 188,
      "Ł": 189,
      "ł": 190,
      "Ń": 191,
      "ĠĠ": 192,
      "in": 193,
      "Ġt": 194,
      "re": 195,
      "on": 196,
      "en": 197,
      "Ġa": 198,
      "er": 199,
      "Ġs": 200,
      "he": 201,
      "or": 202,
      "es": 203,
      "at": 204,
      "ar": 205,
      "ed": 206,
      "ĠĠĠĠ": 207,
      "al": 208,
      "is": 209,
      "an": 210,
      "Ġf": 211,
      "Ġthe": 212,
      "Ġc": 213,
      "it": 214,
      "Ġp": 215,
      "et": 216,
      "__": 217,
      "ou": 218,
      "Ġm": 219,
      "as": 220,
      "Ġ\"": 221,
      "ch": 222,
      "le": 223,
      "Ġw": 224,
      "Ġ'": 225,
      "ti": 226,
      "Ġb": 227,
      "\\\"": 228,
      "ing": 229,
      "ĠĠĠ": 230,
      "Ġin": 231,
      "om": 232,
      "Ġd": 233,
      "Ġto": 234,
      ")\\": 235,
      "ent": 236,
      "ol": 237,
      "ow": 238,
      "ear": 239,
      "to": 240,
      "Ġn": 241,
      "ac": 242,
      "':": 243,
      "Ġre": 244,
      "est": 245,
      "qu": 246,
      "mo": 247,
      "nd": 248,
      "el": 249,
      "all": 250,
      "earch": 251,
      "st": 252,
      "il": 253,
      "th": 254,
      "ay": 255,
      "20": 256,
      "Ġl": 257,
      "Ġ-": 258,
      "\\\\": 259,
      "ion": 260,
      "if": 261,
      "pr": 262,
      "Ġ(": 263,
      "am": 264,
      "ot": 265,
      "enmo": 266,
      "\",": 267,
      "ic": 268,
      "ment": 269,
      "od": 270,
      "\\'": 271,
      "int": 272,
      "Ġ{": 273,
      "ex": 274,
      "Ġo": 275,
      "id": 276,
      "im": 277,
      "sh": 278,
      "Ġv": 279,
      "us": 280,
      "ĠI": 281,
      "Ġand": 282,
      "Ġ=": 283,
      "ul": 284,
      "Ġ1": 285,
      "ts": 286,
      "Ġfor": 287,
      "tool": 288,
      "call": 289,
      "tion": 290,
      "ĠT": 291,
      "Ġ{'": 292,
      "ec": 293,
      "\":": 294,
      "ĠĠĠĠĠĠĠ": 295,
      "ad": 296,
      "Ġsearch": 297,
      "show": 298,
      "nt": 299,
      "Ġis": 300,
      "ation": 301,
      "ess": 302,
      "ri": 303,
      "Ġth": 304,
      "ate": 305,
      "one": 306,
      "oc": 307,
      "em": 308,
      "Ġ20": 309,
      "Ġh": 310,
      "ĠS": 311,
      "ce": 312,
      "ir": 313,
      "Ġg": 314,
      "ist": 315,
      "gh": 316,
      "ith": 317,
      "res": 318,
      "',": 319,
      "'}": 320,
      "and": 321,
      "Ġof": 322,
      "Let": 323,
      ":\\": 324,
      "ery": 325,
      "ag": 326,
      "pl": 327,
      "ve": 328,
      "print": 329,
      "Ġme": 330,
      "Ġwith": 331,
      "end": 332,
      "ur": 333,
      "up": 334,
      "ile": 335,
      "ut": 336,
      "tif": 337,
      "query": 338,
      "py": 339,
      "po": 340,
      "ght": 341,
      "ail": 342,
      "ass": 343,
      "ont": 344,
      "ong": 345,
      "un": 346,
      "Ġne": 347,
      "ame": 348,
      "test": 349,
      "ĠC": 350,
      "com": 351,
      "ode": 352,
      "ĠA": 353,
      "ers": 354,
      "ct": 355,
      "nprint": 356,
      "rom": 357,
      "Ġvenmo": 358,
      "ey": 359,
      "ro": 360,
      ".\\": 361,
      "se": 362,
      "ll": 363,
      "tify": 364,
      "ash": 365,
      "tr": 366,
      "imp": 367,
      "ĠM": 368,
      "out": 369,
      "ap": 370,
      "iO": 371,
      "ue": 372,
      "ount": 373,
      "ang": 374,
      "search": 375,
      "Ġneed": 376,
      "acc": 377,
      "ord": 378,
      "ĠN": 379,
      "code": 380,
      "**": 381,
      "ab": 382,
      "ayment": 383,
      "um": 384,
      "Ġbe": 385,
      "potify": 386,
      "ly": 387,
      "'s": 388,
      "Ġ19": 389,
      "ĠP": 390,
      "ter": 391,
      "og": 392,
      "hone": 393,
      "Ġnot": 394,
      "ig": 395,
      "ken": 396,
      "Ġan": 397,
      "ĠĠĠĠĠĠĠĠ": 398,
      "quest": 399,
      "iJ": 400,
      "eyJ": 401,
      "iOiJ": 402,
      "ĠB": 403,
      "ck": 404,
      "bed": 405,
      "thou": 406,
      "thought": 407,
      "ĠLet": 408,
      "Ġex": 409,
      "ind": 410,
      "venmo": 411,
      "Ġwh": 412,
      ".\",": 413,
      "ore": 414,
      "age": 415,
      "ort": 416,
      "testbed": 417,
      "ry": 418,
      "iv": 419,
      "Ġ/": 420,
      "ans": 421,
      "Ġas": 422,
      "ĠThe": 423,
      "oo": 424,
      "ub": 425,
      "Ġif": 426,
      "ĠF": 427,
      "Ġus": 428,
      "Ġst": 429,
      "pec": 430,
      "ld": 431,
      "token": 432,
      "ĠW": 433,
      "Ġthat": 434,
      "\"}": 435,
      "Ġ`": 436,
      "ults": 437,
      "heck": 438,
      "Ġfrom": 439,
      "ath": 440,
      "('": 441,
      "cc": 442,
      "mand": 443,
      "Ġon": 444,
      "Ġy": 445,
      "not": 446,
      "ĊĠĠĠ": 447,
      "Ġby": 448,
      "li": 449,
      "payment": 450,
      "erv": 451,
      "00": 452,
      "23": 453,
      "for": 454,
      "ango": 455,
      "jango": 456,
      "ire": 457,
      "ext": 458,
      "file": 459,
      "Ġsh": 460,
      "Ġpr": 461,
      "ard": 462,
      "pro": 463,
      "ls": 464,
      "Ġat": 465,
      "Is": 466,
      "Ġcom": 467,
      "ĠD": 468,
      "ef": 469,
      "Ġcont": 470,
      "Ġr": 471,
      "pt": 472,
      "ound": 473,
      "Ġwe": 474,
      "CI": 475,
      "Ġphone": 476,
      "CJ": 477,
      "{\"": 478,
      "Ġor": 479,
      "doc": 480,
      "ould": 481,
      "\":\"": 482,
      "Ġar": 483,
      "cCI": 484,
      "IsI": 485,
      "command": 486,
      "Ġ\\\"": 487,
      "\\\\\\\"": 488,
      "ant": 489,
      "ĊĠ": 490,
      "name": 491,
      "access": 492,
      "The": 493,
      "ook": 494,
      "ĠH": 495,
      "ated": 496,
      "bG": 497,
      "Ġ2": 498,
      "isor": 499,
      "Ġit": 500,
      "uperv": 501,
      "Ġcon": 502,
      "upervisor": 503,
      "del": 504,
      "ĠĠĠĠĠĠĠĠĠĠĠ": 505,
      "import": 506,
      "Ġwas": 507,
      "Ġget": 508,
      "riend": 509,
      "Ġ201": 510,
      "art": 511,
      "cont": 512,
      "ĠR": 513,
      "ific": 514,
      "ĠE": 515,
      "iel": 516,
      "results": 517,
      "word": 518,
      "(\\\"": 519,
      "request": 520,
      "Ġ&": 521,
      "ĠL": 522,
      "song": 523,
      "ield": 524,
      "ĠV": 525,
      "Ġap": 526,
      "Ġ[": 527,
      "get": 528,
      "ure": 529,
      "cl": 530,
      "ine": 531,
      "assword": 532,
      ").": 533,
      "tions": 534,
      "Ġe": 535,
      "bash": 536,
      "ak": 537,
      "\\\")\\": 538,
      "Ġacc": 539,
      "Ġsong": 540,
      "Ġ&&": 541,
      "ain": 542,
      "ally": 543,
      "ver": 544,
      "cre": 545,
      "Ġspec": 546,
      "form": 547,
      "act": 548,
      "ument": 549,
      "rent": 550,
      "Ġse": 551,
      "cd": 552,
      "Ġare": 553,
      "Ġfile": 554,
      "Ġha": 555,
      "sy": 556,
      "ity": 557,
      "irst": 558,
      "WI": 559,
      "ip": 560,
      "nR": 561,
      "Ġbash": 562,
      "kp": 563,
      "stem": 564,
      "zd": 565,
      "zI": 566,
      "Ġspotify": 567,
      "ansac": 568,
      "env": 569,
      "own": 570,
      "IU": 571,
      "Ġrele": 572,
      "XV": 573,
      "ĠG": 574,
      "Ni": 575,
      "hbG": 576,
      "Ġsupervisor": 577,
      "Ġcheck": 578,
      "Ikp": 579,
      "ciOiJ": 580,
      "eyJhbG": 581,
      "IsInR": 582,
      "IUzI": 583,
      "XVCJ": 584,
      "NiIsInR": 585,
      "IkpXVCJ": 586,
      "ciOiJIUzI": 587,
      "eyJhbGciOiJIUzI": 588,
      "eyJzd": 589,
      "WIiOiJ": 590,
      "eyJzdWIiOiJ": 591,
      "ult": 592,
      "lo": 593,
      "imple": 594,
      "email": 595,
      "Ġ3": 596,
      "Ġall": 597,
      "Ġab": 598,
      "Ġhave": 599,
      "))\\": 600,
      "op": 601,
      "thon": 602,
      "Ġch": 603,
      "fe": 604,
      "Ġlist": 605,
      "log": 606,
      "ary": 607,
      "Ġspecific": 608,
      "Ġprint": 609,
      "atch": 610,
      "ik": 611,
      "ance": 612,
      "Ġtry": 613,
      "Ġ\\'": 614,
      "elf": 615,
      "ĠU": 616,
      "ask": 617,
      "ory": 618,
      "Ġpl": 619,
      ")\"}": 620,
      "ia": 621,
      "ĠJ": 622,
      "iron": 623,
      "Ġhe": 624,
      "environ": 625,
      "ify": 626,
      "irect": 627,
      "ish": 628,
      "rit": 629,
      "Ġcre": 630,
      "ack": 631,
      "urn": 632,
      "ies": 633,
      "Ġpro": 634,
      "environment": 635,
      "Ġabout": 636,
      "account": 637,
      "ill": 638,
      "ction": 639,
      "Ġal": 640,
      "Ġbut": 641,
      "cp": 642,
      "Ġ**": 643,
      "19": 644,
      "aW": 645,
      "Ġtool": 646,
      "be": 647,
      "),": 648,
      "ase": 649,
      "Ġfound": 650,
      "Ġqu": 651,
      "ther": 652,
      "system": 653,
      "Ġres": 654,
      "ete": 655,
      "our": 656,
      "ach": 657,
      "uth": 658,
      "mail": 659,
      "Ġfind": 660,
      "able": 661,
      "spotify": 662,
      "Ġthis": 663,
      "ich": 664,
      "'ll": 665,
      "='": 666,
      "str": 667,
      "Ġrequest": 668,
      "date": 669,
      "note": 670,
      "yp": 671,
      "from": 672,
      "Ġrelev": 673,
      "ew": 674,
      "riends": 675,
      "ayl": 676,
      "ix": 677,
      "ĠO": 678,
      "ud": 679,
      "ror": 680,
      "Ġret": 681,
      "Ġmcp": 682,
      "ations": 683,
      "ND": 684,
      "ress": 685,
      "ĠVenmo": 686,
      "ign": 687,
      "Ġtr": 688,
      "21": 689,
      "model": 690,
      "ĠTh": 691,
      "ight": 692,
      "db": 693,
      "Ġfil": 694,
      "Ġmore": 695,
      "aybe": 696,
      "Ġcan": 697,
      "Ġfirst": 698,
      "transac": 699,
      "Ġtest": 700,
      "gmail": 701,
      "by": 702,
      "Ġlik": 703,
      "password": 704,
      "Ġdif": 705,
      "cri": 706,
      "Ġ#": 707,
      "ists": 708,
      "Ġrelevant": 709,
      "ber": 710,
      "che": 711,
      "Ġ2023": 712,
      "10": 713,
      "Ġshould": 714,
      "Ġimport": 715,
      "os": 716,
      "=\\\"": 717,
      "con": 718,
      "Ġtask": 719,
      "create": 720,
      ")\\\\": 721,
      "Ġwho": 722,
      "Ġdoc": 723,
      "Ġad": 724,
      "Ġ$": 725,
      "MT": 726,
      "ep": 727,
      "phone": 728,
      "Ġdjango": 729,
      "):\\": 730,
      "nLet": 731,
      "ork": 732,
      "Ġpar": 733,
      "Ġk": 734,
      "ast": 735,
      "add": 736,
      "no": 737,
      "ust": 738,
      "Ġcl": 739,
      "wer": 740,
      "app": 741,
      "tic": 742,
      "vi": 743,
      "Ġun": 744,
      "path": 745,
      "ren": 746,
      "orn": 747,
      "ates": 748,
      ")\"": 749,
      "acts": 750,
      "lso": 751,
      "90": 752,
      "Ġpy": 753,
      "\\',": 754,
      "ise": 755,
      "Ġyear": 756,
      "odu": 757,
      "we": 758,
      "rou": 759,
      "val": 760,
      "ost": 761,
      "Ġreturn": 762,
      "Ġstr": 763,
      "erify": 764,
      "arg": 765,
      "ens": 766,
      "Ġpayment": 767,
      "Ġsub": 768,
      "alse": 769,
      "django": 770,
      "ib": 771,
      "red": 772,
      "eg": 773,
      "ype": 774,
      "Ġ6": 775,
      "')\\": 776,
      "ĠWe": 777,
      "als": 778,
      "ting": 779,
      "Ġlook": 780,
      "ĠĠĠĠĠĠĠĠĠĠĠĠĠĠĠ": 781,
      ".\",\"": 782,
      "Ġsongs": 783,
      "Ġ|": 784,
      "Ġfin": 785,
      "Ġname": 786,
      "login": 787,
      "22": 788,
      "Ġhas": 789,
      "atus": 790,
      "old": 791,
      "Ġsee": 792,
      "ect": 793,
      "Ġwhich": 794,
      "bum": 795,
      "Ġdirect": 796,
      "Ġaccess": 797,
      "Ġ'\"": 798,
      "Ġval": 799,
      "Ġtim": 800,
      "jo": 801,
      "ition": 802,
      "models": 803,
      "Ġlog": 804,
      "ild": 805,
      "ied": 806,
      "ser": 807,
      "ax": 808,
      "ely": 809,
      "iden": 810,
      "Ġtools": 811,
      "per": 812,
      "ived": 813,
      "Ġverify": 814,
      "inn": 815,
      "Ġ5": 816,
      "Ġpage": 817,
      "ĠK": 818,
      "read": 819,
      "\",\\": 820,
      "\\\",": 821,
      "ption": 822,
      "Ġadd": 823,
      "fter": 824,
      "Ġcomp": 825,
      "Ġout": 826,
      "imit": 827,
      "Ġdet": 828,
      "(\\'": 829,
      "Ġdef": 830,
      "odel": 831,
      "set": 832,
      "plit": 833,
      "ive": 834,
      "uthor": 835,
      "]\\": 836,
      "ome": 837,
      "aylist": 838,
      "Ġ+": 839,
      "document": 840,
      "load": 841,
      "ues": 842,
      "Ġpass": 843,
      "ased": 844,
      "Ġpython": 845,
      "OD": 846,
      "ually": 847,
      "Ġalso": 848,
      "text": 849,
      "Ġ4": 850,
      "self": 851,
      "Ġdiffe": 852,
      "den": 853,
      "lik": 854,
      "update": 855,
      "Ġ200": 856,
      "YW": 857,
      "ZW": 858,
      "bW": 859,
      "Ġno": 860,
      "transaction": 861,
      "Ġuser": 862,
      "field": 863,
      "ivers": 864,
      "Ġapp": 865,
      "bj": 866,
      "que": 867,
      "nfrom": 868,
      "'t": 869,
      "ide": 870,
      ":\\\\": 871,
      "abel": 872,
      "Ġsimple": 873,
      "13": 874,
      "..": 875,
      "Ġfriends": 876,
      "--": 877,
      "Ġthere": 878,
      "formation": 879,
      "delete": 880,
      "Ġcall": 881,
      "ace": 882,
      "day": 883,
      "Ġdifferent": 884,
      "sub": 885,
      "ownload": 886,
      "ship": 887,
      "Ġrequests": 888,
      "Ġcount": 889,
      "Ġset": 890,
      "Ġcontent": 891,
      "Th": 892,
      "rib": 893,
      "class": 894,
      "hed": 895,
      "profile": 896,
      "put": 897,
      "error": 898,
      "Ġ\\": 899,
      "card": 900,
      "Ġmight": 901,
      "ial": 902,
      "bS": 903,
      "mit": 904,
      "()": 905,
      "sue": 906,
      "Ġusing": 907,
      "eth": 908,
      "Ġnew": 909,
      "å©": 910,
      "ºĨ": 911,
      "åºĨ": 912,
      "ļåºĨ": 913,
      "å©ļåºĨ": 914,
      "Now": 915,
      "èĽ": 916,
      "ĭå©ļåºĨ": 917,
      "èĽĭå©ļåºĨ": 918,
      "èĽĭå©ļåºĨèĽĭå©ļåºĨ": 919,
      "Ġdetail": 920,
      "29": 921,
      "check": 922,
      "urrent": 923,
      "user": 924,
      "30": 925,
      "Ġinformation": 926,
      "any": 927,
      "par": 928,
      "ceived": 929,
      "Ġone": 930,
      "15": 931,
      "rep": 932,
      "()\\": 933,
      "ĠCh": 934,
      "low": 935,
      "alance": 936,
      "ug": 937,
      "27": 938,
      "limit": 939,
      "roup": 940,
      "16": 941,
      "Ġappro": 942,
      "ines": 943,
      "escri": 944,
      "arm": 945,
      "ous": 946,
      "Ġstart": 947,
      "Ġshow": 948,
      "clud": 949,
      "ween": 950,
      "['": 951,
      "etween": 952,
      "press": 953,
      "Ġafter": 954,
      "rue": 955,
      "Ġmaybe": 956,
      "are": 957,
      "18": 958,
      "orre": 959,
      "Ġwork": 960,
      "Ġuse": 961,
      "Ġsy": 962,
      "omm": 963,
      "mp": 964,
      "anc": 965,
      "pen": 966,
      "dt": 967,
      "Ġborn": 968,
      "Ġself": 969,
      "Ġart": 970,
      "ĠNone": 971,
      "ays": 972,
      "Ġthen": 973,
      "Ġag": 974,
      "br": 975,
      "Ġrel": 976,
      "ocess": 977,
      "pect": 978,
      "Ġauthor": 979,
      "Ġform": 980,
      "Ġro": 981,
      "wise": 982,
      "Ġwill": 983,
      "iversity": 984,
      "Ġ197": 985,
      "Ġ0": 986,
      "Ġconf": 987,
      "Ġj": 988,
      "docid": 989,
      "content": 990,
      "2023": 991,
      "ince": 992,
      "ian": 993,
      "me": 994,
      "Ġpassword": 995,
      "ph": 996,
      "Ġdo": 997,
      "ctually": 998,
      "page": 999,
      "co": 1000,
      "tby": 1001,
      "ages": 1002,
      "orrect": 1003,
      "Ġle": 1004,
      "05": 1005,
      "jb": 1006,
      "ock": 1007,
      "'\\": 1008,
      "ZX": 1009,
      "Ġhead": 1010,
      "requests": 1011,
      "wo": 1012,
      "ubl": 1013,
      "Ġdetails": 1014,
      "Ġany": 1015,
      "ĠSt": 1016,
      "ata": 1017,
      "fore": 1018,
      "ward": 1019,
      "Nj": 1020,
      "Ġresults": 1021,
      "nA": 1022,
      "mess": 1023,
      "Ġmatch": 1024,
      "ql": 1025,
      "plitwise": 1026,
      "Nv": 1027,
      "Ġ198": 1028,
      "For": 1029,
      "pb": 1030,
      "Ġ<": 1031,
      "iz": 1032,
      ":',": 1033,
      "swer": 1034,
      "amet": 1035,
      "Ġfix": 1036,
      "ond": 1037,
      "Ġdocument": 1038,
      "nimport": 1039,
      "unction": 1040,
      "']": 1041,
      "Ġanswer": 1042,
      "attr": 1043,
      "mV": 1044,
      "bWF": 1045,
      "Ġbetween": 1046,
      "\\\\\\\\": 1047,
      "Ġother": 1048,
      "arr": 1049,
      "Ġper": 1050,
      "ĠNot": 1051,
      "HA": 1052,
      "12": 1053,
      "pression": 1054,
      "Ġcompl": 1055,
      "Ġmin": 1056,
      "tific": 1057,
      "passwords": 1058,
      "use": 1059,
      "')": 1060,
      "ful": 1061,
      "eyJzdWIiOiJz": 1062,
      "ĠBut": 1063,
      "def": 1064,
      "ange": 1065,
      "Ġemail": 1066,
      "ches": 1067,
      "jE": 1068,
      "ra": 1069,
      "index": 1070,
      "Ġnote": 1071,
      "estion": 1072,
      "Ġerror": 1073,
      "itle": 1074,
      "und": 1075,
      ",\\": 1076,
      "\\\"\\\"": 1077,
      "Lm": 1078,
      "ss": 1079,
      "Qx": 1080,
      "\"\\": 1081,
      "Ġbefore": 1082,
      "Ġmen": 1083,
      "conf": 1084,
      "else": 1085,
      "Ġde": 1086,
      "Bn": 1087,
      "iL": 1088,
      "empt": 1089,
      "pbC": 1090,
      "bWFpbC": 1091,
      "Ġrun": 1092,
      "Ġfinish": 1093,
      "ĠUn": 1094,
      "Ġlet": 1095,
      "iOjE": 1096,
      "HAiOjE": 1097,
      "leHAiOjE": 1098,
      "CJleHAiOjE": 1099,
      "iLCJleHAiOjE": 1100,
      "BnbWFpbC": 1101,
      "Ġaccount": 1102,
      "``": 1103,
      "ired": 1104,
      "Ġquestion": 1105,
      "args": 1106,
      "wi": 1107,
      "move": 1108,
      "PY": 1109,
      "].": 1110,
      "result": 1111,
      "ĠFalse": 1112,
      "11": 1113,
      "riter": 1114,
      "python": 1115,
      "son": 1116,
      "Ġmodel": 1117,
      "QG": 1118,
      "Ġ30": 1119,
      "25": 1120,
      "hw": 1121,
      "ished": 1122,
      "ending": 1123,
      "Ġneeded": 1124,
      "usic": 1125,
      "ake": 1126,
      "irm": 1127,
      "MTY": 1128,
      "IsImV": 1129,
      "bSIsImV": 1130,
      "NvbSIsImV": 1131,
      "LmNvbSIsImV": 1132,
      "YWls": 1133,
      "dtYWls": 1134,
      "QGdtYWls": 1135,
      "QGdtYWlsLmNvbSIsImV": 1136,
      "Ġinclud": 1137,
      "Ġcorrect": 1138,
      "Ġyears": 1139,
      "fQ": 1140,
      "EO": 1141,
      "Njg": 1142,
      "ready": 1143,
      "fil": 1144,
      "Ġtheir": 1145,
      "contacts": 1146,
      "ute": 1147,
      "iwi": 1148,
      "ODQ": 1149,
      "iwiZX": 1150,
      "Ijo": 1151,
      "xNjg": 1152,
      "hwIjo": 1153,
      "iwiZXhwIjo": 1154,
      "iwiZXhwIjoxNjg": 1155,
      "Ġfounded": 1156,
      "Mj": 1157,
      "its": 1158,
      "Ġcol": 1159,
      "Ġind": 1160,
      "Ġâ": 1161,
      "nThe": 1162,
      "Ġquery": 1163,
      "inned": 1164,
      "ree": 1165,
      "with": 1166,
      "Er": 1167,
      "Ġtests": 1168,
      "min": 1169,
      "ull": 1170,
      "14": 1171,
      "ccess": 1172,
      "Ġ18": 1173,
      "az": 1174,
      "ticle": 1175,
      "Ġissue": 1176,
      "ge": 1177,
      "Ġgen": 1178,
      "Ġ7": 1179,
      "Ġiden": 1180,
      "17": 1181,
      "here": 1182,
      "produ": 1183,
      "Ġfiles": 1184,
      "60": 1185,
      "IiwiZXhwIjoxNjg": 1186,
      "Ġ8": 1187,
      "ick": 1188,
      "Ġalbum": 1189,
      "ĠY": 1190,
      "Ġparamet": 1191,
      "\")\\": 1192,
      "Ġwhen": 1193,
      "order": 1194,
      "Ġfield": 1195,
      "ames": 1196,
      "Ġeach": 1197,
      "type": 1198,
      "core": 1199,
      "Ġroomm": 1200,
      "Ġ\\\\\\\"": 1201,
      "Ġlike": 1202,
      "aint": 1203,
      "Ġstatus": 1204,
      "Ġhis": 1205,
      "ings": 1206,
      "rel": 1207,
      "Ġline": 1208,
      "ff": 1209,
      "friends": 1210,
      "back": 1211,
      "av": 1212,
      "\\')\\": 1213,
      "sed": 1214,
      "ink": 1215,
      "Ġfunction": 1216,
      "tern": 1217,
      "eed": 1218,
      "Ġdate": 1219,
      "Error": 1220,
      "direct": 1221,
      "tbyt": 1222,
      "Ġcode": 1223,
      "ĠThis": 1224,
      "Ġonly": 1225,
      "Ġte": 1226,
      "ator": 1227,
      "rite": 1228,
      "Ġso": 1229,
      "ollow": 1230,
      "eries": 1231,
      "tive": 1232,
      "Ġact": 1233,
      "Ġup": 1234,
      "download": 1235,
      "Ġmo": 1236,
      "Field": 1237,
      "Ġtime": 1238,
      "Ġatt": 1239,
      "Ġmy": 1240,
      "Ġcontacts": 1241,
      "escription": 1242,
      "uccess": 1243,
      "\\\"\\": 1244,
      "ict": 1245,
      "ever": 1246,
      "Ġdis": 1247,
      "Ġgit": 1248,
      "ĠIn": 1249,
      "edit": 1250,
      "Ġ<<": 1251,
      "empty": 1252,
      "Ey": 1253,
      "Ġthem": 1254,
      "man": 1255,
      "te": 1256,
      "ark": 1257,
      "Ġpubl": 1258,
      "nW": 1259,
      "erson": 1260,
      "None": 1261,
      "cho": 1262,
      "Ġco": 1263,
      "tials": 1264,
      "ite": 1265,
      "ZS": 1266,
      "Ġclass": 1267,
      "Ġbook": 1268,
      "Ġ199": 1269,
      "ice": 1270,
      "50": 1271,
      "nS": 1272,
      "NDEy": 1273,
      "rap": 1274,
      "send": 1275,
      "process": 1276,
      "Ġsame": 1277,
      "Ġpre": 1278,
      "eted": 1279,
      "ved": 1280,
      "ple": 1281,
      "Ġtransac": 1282,
      "balance": 1283,
      "Ġpo": 1284,
      "friend": 1285,
      "Ġins": 1286,
      "dentials": 1287,
      "the": 1288,
      "ĠNow": 1289,
      "oun": 1290,
      "lean": 1291,
      "ationship": 1292,
      "notific": 1293,
      "24": 1294,
      "Ġcredentials": 1295,
      "Ġconfirm": 1296,
      "notes": 1297,
      "tings": 1298,
      "Ġen": 1299,
      "'))\\": 1300,
      "sql": 1301,
      "answer": 1302,
      "plic": 1303,
      "playlist": 1304,
      "._": 1305,
      "Ġcountry": 1306,
      "Ġarticle": 1307,
      "status": 1308,
      "uY": 1309,
      "ique": 1310,
      "Ġthey": 1311,
      "users": 1312,
      "MTI": 1313,
      "Ġtwo": 1314,
      "ember": 1315,
      "Ġelse": 1316,
      "ulti": 1317,
      "fin": 1318,
      "sign": 1319,
      "Ġav": 1320,
      "Ġnum": 1321,
      "NDQx": 1322,
      "Ġprov": 1323,
      "received": 1324,
      "ault": 1325,
      "message": 1326,
      "NDQxMj": 1327,
      "OH": 1328,
      "Ġplay": 1329,
      "straint": 1330,
      "reak": 1331,
      "Ġcard": 1332,
      "Ġ2022": 1333,
      "True": 1334,
      "Ġtext": 1335,
      "Ġ10": 1336,
      "orld": 1337,
      "ethod": 1338,
      "ection": 1339,
      "cript": 1340,
      "Form": 1341,
      "Ġtoken": 1342,
      "cept": 1343,
      "ual": 1344,
      "Ġ--": 1345,
      "aylists": 1346,
      "view": 1347,
      "Ġrequ": 1348,
      "au": 1349,
      "Ġagain": 1350,
      "init": 1351,
      "Ġmat": 1352,
      "Ġpa": 1353,
      "cm": 1354,
      "Ġchar": 1355,
      "place": 1356,
      "transactions": 1357,
      "Ġresult": 1358,
      "MD": 1359,
      "Ġcreate": 1360,
      "ĠAP": 1361,
      "fully": 1362,
      "haW": 1363,
      "(\\": 1364,
      "ell": 1365,
      "do": 1366,
      "(\"": 1367,
      "Ġarg": 1368,
      "run": 1369,
      "stance": 1370,
      "ĠSpotify": 1371,
      "vel": 1372,
      "line": 1373,
      "Ġcould": 1374,
      "Ġmost": 1375,
      "lear": 1376,
      "ie": 1377,
      "directory": 1378,
      "Ġyour": 1379,
      "igr": 1380,
      "ĠEx": 1381,
      "Ġchild": 1382,
      "ood": 1383,
      "Ġstep": 1384,
      "Ġstring": 1385,
      "iss": 1386,
      "Ġartist": 1387,
      "Ġdoes": 1388,
      "ather": 1389,
      "wuY": 1390,
      "Ġlooking": 1391,
      "songs": 1392,
      "EOF": 1393,
      "Ex": 1394,
      "io": 1395,
      "Ġspecifically": 1396,
      "Ġsubmit": 1397,
      "ait": 1398,
      "Ġalready": 1399,
      "Ġ*": 1400,
      "ical": 1401,
      "ĠĠĠĠĠĠĠĠĠĠĠĠĠĠĠĠĠĠĠ": 1402,
      "feren": 1403,
      "Ġam": 1404,
      "Ġwhat": 1405,
      "sert": 1406,
      "like": 1407,
      "label": 1408,
      "26": 1409,
      "ems": 1410,
      "Ġev": 1411,
      "fix": 1412,
      "Ġcurrent": 1413,
      "Ġidentify": 1414,
      "Ġ>": 1415,
      "owever": 1416,
      "ests": 1417,
      "ime": 1418,
      "Ġobj": 1419,
      "Ġnotes": 1420,
      "username": 1421,
      "Ġbec": 1422,
      "Ġsays": 1423,
      "Ġdiff": 1424,
      "Ġliked": 1425,
      "Ġear": 1426,
      "Ġapproach": 1427,
      "pinned": 1428,
      "Ġvalid": 1429,
      "ient": 1430,
      "sent": 1431,
      "AZ": 1432,
      "Ġpath": 1433,
      "\\\")\"}": 1434,
      "False": 1435,
      "Ġâľ": 1436,
      "Ġwhere": 1437,
      "ret": 1438,
      "ES": 1439,
      "Ġher": 1440,
      "group": 1441,
      "ancy": 1442,
      "NDQxMjA": 1443,
      "tIiwiZXhwIjoxNjg": 1444,
      "Ġrec": 1445,
      "haWwuY": 1446,
      "Ġac": 1447,
      "obj": 1448,
      "Ġjust": 1449,
      "Ġmess": 1450,
      "nif": 1451,
      "supervisor": 1452,
      "ade": 1453,
      "Ġroommates": 1454,
      "ater": 1455,
      "under": 1456,
      "acter": 1457,
      "èĽĭå©ļåºĨèĽĭå©ļåºĨèĽĭå©ļåºĨèĽĭå©ļåºĨ": 1458,
      "play": 1459,
      "cat": 1460,
      "bin": 1461,
      "count": 1462,
      "Ġinto": 1463,
      "fo": 1464,
      "created": 1465,
      "uct": 1466,
      "Ġcent": 1467,
      "01": 1468,
      "idence": 1469,
      "ces": 1470,
      "Ġdirector": 1471,
      "new": 1472,
      "Ġseries": 1473,
      "Ġempty": 1474,
      "cG": 1475,
      "ose": 1476,
      "tal": 1477,
      "les": 1478,
      "pos": 1479,
      "ating": 1480,
      "28": 1481,
      "Ġsearching": 1482,
      "album": 1483,
      "ote": 1484,
      "Ġ==": 1485,
      "time": 1486,
      "ury": 1487,
      "bGV": 1488,
      "\\\"))\\": 1489,
      "\"'}": 1490,
      "amed": 1491,
      "ON": 1492,
      "Ġexact": 1493,
      "sis": 1494,
      "Ġbreak": 1495,
      "contact": 1496,
      "Ġtitle": 1497,
      "eta": 1498,
      "ident": 1499,
      "Ġwithout": 1500,
      "ends": 1501,
      "Ġits": 1502,
      "Ġ_": 1503,
      "ĠID": 1504,
      "col": 1505,
      "bm": 1506,
      "tests": 1507,
      "Ġexp": 1508,
      "AT": 1509,
      "ĠThat": 1510,
      "lines": 1511,
      "raph": 1512,
      "ĠAPI": 1513,
      "Ġinter": 1514,
      "ĠTo": 1515,
      "Ġtransactions": 1516,
      "Ġfilter": 1517,
      "Ġ2020": 1518,
      "Ġunder": 1519,
      "nI": 1520,
      "Ġbro": 1521,
      "igh": 1522,
      "Ġband": 1523,
      "Ġ15": 1524,
      "queue": 1525,
      "Ġlabel": 1526,
      "MDk": 1527,
      "Ġnext": 1528,
      "Ġcompany": 1529,
      "ns": 1530,
      "ative": 1531,
      "grep": 1532,
      "wO": 1533,
      "inal": 1534,
      "Ġsp": 1535,
      "nActually": 1536,
      "==": 1537,
      "Ġsome": 1538,
      "appro": 1539,
      "ier": 1540,
      "work": 1541,
      "finish": 1542,
      "NDEyMDk": 1543,
      "instance": 1544,
      "eyJzdWIiOiJzcG": 1545,
      "ational": 1546,
      "Ġcons": 1547,
      "Ġwere": 1548,
      "riteria": 1549,
      "Ġthese": 1550,
      "ĠSo": 1551,
      "ause": 1552,
      "Ġmethod": 1553,
      "Ġinst": 1554,
      "Search": 1555,
      "Ġkn": 1556,
      "40": 1557,
      "editor": 1558,
      "Ġâľĵ": 1559,
      "lib": 1560,
      "Ġbu": 1561,
      "append": 1562,
      "Ġmax": 1563,
      "Ġhad": 1564,
      "Ġmon": 1565,
      "imal": 1566,
      "Ġsign": 1567,
      "notifications": 1568,
      "ĠUniversity": 1569,
      "Ġra": 1570,
      "Ġ2019": 1571,
      "econd": 1572,
      "ĠAr": 1573,
      "Ġsed": 1574,
      "Ġmusic": 1575,
      "inx": 1576,
      "nB": 1577,
      "ins": 1578,
      "ek": 1579,
      "Ġcriteria": 1580,
      "Ġexist": 1581,
      "...": 1582,
      "):": 1583,
      "simple": 1584,
      "ply": 1585,
      "Nz": 1586,
      "plan": 1587,
      "alarm": 1588,
      "value": 1589,
      "=\\'": 1590,
      "Ġpos": 1591,
      "contrib": 1592,
      "ence": 1593,
      "\\'\\": 1594,
      "Ġlikely": 1595,
      "MTIwO": 1596,
      "MTIwOTh": 1597,
      "libr": 1598,
      "ĠRe": 1599,
      "lect": 1600,
      "Ġprodu": 1601,
      "library": 1602,
      "ze": 1603,
      "erm": 1604,
      "Ġopen": 1605,
      "ĠHe": 1606,
      "Ch": 1607,
      "Ġcare": 1608,
      "other": 1609,
      "arri": 1610,
      "ĠIf": 1611,
      "Ġlogin": 1612,
      "Ġused": 1613,
      "Ġcreated": 1614,
      ".__": 1615,
      "active": 1616,
      "Ġloc": 1617,
      "tmp": 1618,
      "Ġplaylist": 1619,
      "output": 1620,
      "Ġbo": 1621,
      "aw": 1622,
      "Ġmatches": 1623,
      "mpy": 1624,
      "ailable": 1625,
      "rec": 1626,
      "Ġgroup": 1627,
      "chool": 1628,
      "ric": 1629,
      "expression": 1630,
      "Ġcharacter": 1631,
      "Ġover": 1632,
      "45": 1633,
      "planation": 1634,
      "ĠMay": 1635,
      "Ġseems": 1636,
      "logout": 1637,
      "ald": 1638,
      "ily": 1639,
      "aWZ": 1640,
      "rad": 1641,
      "Ġaward": 1642,
      "ors": 1643,
      "Ġparameters": 1644,
      "nfor": 1645,
      "port": 1646,
      "ĠHowever": 1647,
      "current": 1648,
      "rie": 1649,
      "enti": 1650,
      "Ġfollow": 1651,
      "Ġnow": 1652,
      "ty": 1653,
      "cards": 1654,
      "ester": 1655,
      "Ġpri": 1656,
      "EBnbWFpbC": 1657,
      "\\':": 1658,
      "Ġwould": 1659,
      "igure": 1660,
      "phinx": 1661,
      "du": 1662,
      "Ġthan": 1663,
      "ble": 1664,
      "de": 1665,
      "Ġpublished": 1666,
      "77": 1667,
      "Ġbir": 1668,
      "Ġ9": 1669,
      "Ġ{}": 1670,
      "Ġsuccess": 1671,
      "ects": 1672,
      "agement": 1673,
      "cap": 1674,
      "Ġdied": 1675,
      "Ġreceived": 1676,
      "Ġplaylists": 1677,
      "loat": 1678,
      "Ġshe": 1679,
      "Ġsim": 1680,
      "ording": 1681,
      "ipt": 1682,
      "Ġavailable": 1683,
      "'.": 1684,
      "Ġsent": 1685,
      "Ġbeen": 1686,
      "Ġyou": 1687,
      "sl": 1688,
      "Ġ2021": 1689,
      "Ġsplitwise": 1690,
      "Ġfriend": 1691,
      "ceipt": 1692,
      "write": 1693,
      "Ġorig": 1694,
      "list": 1695,
      "lock": 1696,
      "produce": 1697,
      "Ġcentury": 1698,
      "approve": 1699,
      "Ġsk": 1700,
      "Ġtop": 1701,
      "ĠAn": 1702,
      "**:": 1703,
      "Ġdoesn": 1704,
      "Ġfam": 1705,
      "bu": 1706,
      "Ġmulti": 1707,
      "activeForm": 1708,
      "np": 1709,
      "max": 1710,
      "Ġfail": 1711,
      "Ġint": 1712,
      "Ġgo": 1713,
      "ounts": 1714,
      "exact": 1715,
      "\\',\\": 1716,
      "ne": 1717,
      "Ġsing": 1718,
      "ments": 1719,
      "],": 1720,
      "amp": 1721,
      "Ġlen": 1722,
      "Ġpoint": 1723,
      "aps": 1724,
      "lp": 1725,
      "ert": 1726,
      "200": 1727,
      "fields": 1728,
      "ribute": 1729,
      "unc": 1730,
      "rough": 1731,
      "arget": 1732,
      "ĠWorld": 1733,
      "ideo": 1734,
      "led": 1735,
      "Ġmention": 1736,
      "AS": 1737,
      "Ġmodels": 1738,
      "Ġkey": 1739,
      "Ġcomplete": 1740,
      "Ġinv": 1741,
      "ries": 1742,
      "Ġconn": 1743,
      "Ġmentions": 1744,
      ").\\": 1745,
      "len": 1746,
      "num": 1747,
      "ced": 1748,
      "Ġdescription": 1749,
      "ĠTest": 1750,
      "Ġold": 1751,
      "ĠSimple": 1752,
      "âĢ": 1753,
      "Ġreg": 1754,
      "atic": 1755,
      "ĠFor": 1756,
      "Ġmonth": 1757,
      "Ġdata": 1758,
      "amount": 1759,
      "ĠIt": 1760,
      "Ġgrep": 1761,
      "stand": 1762,
      "Ġman": 1763,
      "array": 1764,
      "fer": 1765,
      "Test": 1766,
      "Ġthink": 1767,
      "Ġreleased": 1768,
      "ma": 1769,
      "ĠSh": 1770,
      "abit": 1771,
      "vers": 1772,
      "auth": 1773,
      "remove": 1774,
      "Ġwon": 1775,
      "ĠCre": 1776,
      "aper": 1777,
      "found": 1778,
      "Ġdec": 1779,
      "Ġlast": 1780,
      "ĠWh": 1781,
      "etch": 1782,
      "Ġformat": 1783,
      "Ġisinstance": 1784,
      "oney": 1785,
      "compl": 1786,
      "rand": 1787,
      "sib": 1788,
      "ĠQ": 1789,
      "ĠGet": 1790,
      "esterday": 1791,
      "ids": 1792,
      "Ġtrans": 1793,
      "reg": 1794,
      "ari": 1795,
      "Ġfilm": 1796,
      "liked": 1797,
      "uc": 1798,
      "Ġcontain": 1799,
      "ĠNancy": 1800,
      "backends": 1801,
      "Ġdon": 1802,
      "une": 1803,
      "Ġ2000": 1804,
      "[:": 1805,
      "pd": 1806,
      "',\\": 1807,
      "Ġvia": 1808,
      "ĠTrue": 1809,
      "ibr": 1810,
      "Ġsince": 1811,
      "ĠNo": 1812,
      "Ġperson": 1813,
      "rem": 1814,
      "ah": 1815,
      "Ġ\\\\": 1816,
      "Ġsettings": 1817,
      "ok": 1818,
      "Ġrelated": 1819,
      "dis": 1820,
      "gan": 1821,
      "acy": 1822,
      "ving": 1823,
      "ank": 1824,
      "ĠMaybe": 1825,
      "ams": 1826,
      "ject": 1827,
      "nPY": 1828,
      "----": 1829,
      "Ġdownload": 1830,
      "Ġbalance": 1831,
      "ope": 1832,
      "YX": 1833,
      "wa": 1834,
      "bGVf": 1835,
      "wbGVf": 1836,
      "ĠĠĠĠĠĠĠĠĠĠĠĠĠĠĠĠ": 1837,
      "eyJzdWIiOiJzaW": 1838,
      "wbGVfbm": 1839,
      "haps": 1840,
      "istory": 1841,
      "Ġsc": 1842,
      "ital": 1843,
      "Ġhand": 1844,
      "Ġcap": 1845,
      "Ġdirectly": 1846,
      "])\\": 1847,
      "ture": 1848,
      "urch": 1849,
      ".\"": 1850,
      "Ġens": 1851,
      "aWx": 1852,
      "till": 1853,
      "nSo": 1854,
      "artist": 1855,
      "Ġpassed": 1856,
      "vie": 1857,
      "Ġvalue": 1858,
      "pected": 1859,
      "Ġinfo": 1860,
      "indow": 1861,
      "Ġcommand": 1862,
      "Ġunderstand": 1863,
      "my": 1864,
      "post": 1865,
      "NT": 1866,
      "Ġpres": 1867,
      "Ġpop": 1868,
      "ĠThen": 1869,
      "Ġuniversity": 1870,
      "Ġ__": 1871,
      "Ġdel": 1872,
      "Ġ2010": 1873,
      "Ġthose": 1874,
      "Ġnamed": 1875,
      "Ġback": 1876,
      "ĠUse": 1877,
      "):\\\\": 1878,
      "Ġsure": 1879,
      "uring": 1880,
      "Ġtype": 1881,
      "home": 1882,
      "nBut": 1883,
      "iter": 1884,
      "tools": 1885,
      "documents": 1886,
      "ead": 1887,
      "`\\": 1888,
      "patch": 1889,
      "pending": 1890,
      "100": 1891,
      "files": 1892,
      "wh": 1893,
      "Ġprovid": 1894,
      "ason": 1895,
      "Ġmod": 1896,
      "\\\")": 1897,
      "sk": 1898,
      "Ġmoney": 1899,
      "Ġtotal": 1900,
      "Ġthree": 1901,
      "Ġhelp": 1902,
      "nTh": 1903,
      "Ġproper": 1904,
      "Ġclues": 1905,
      "por": 1906,
      "Ġ196": 1907,
      "Ġi": 1908,
      "ĠAl": 1909,
      "ature": 1910,
      "Ġmake": 1911,
      "Model": 1912,
      "Ġfinal": 1913,
      "ven": 1914,
      "but": 1915,
      "ched": 1916,
      "ina": 1917,
      "Ġthesis": 1918,
      "Ġbeing": 1919,
      "ĠSearch": 1920,
      "Ġretrie": 1921,
      "Ġph": 1922,
      "lex": 1923,
      "Ġ2014": 1924,
      "80": 1925,
      "dition": 1926,
      "ng": 1927,
      "Ġgenre": 1928,
      "ationships": 1929,
      "base": 1930,
      "Ġx": 1931,
      "format": 1932,
      "bo": 1933,
      "Ġmust": 1934,
      "enses": 1935,
      "70": 1936,
      "find": 1937,
      "esti": 1938,
      "Ġtrack": 1939,
      "Ġent": 1940,
      "Ġreferen": 1941,
      "script": 1942,
      "Ġalarm": 1943,
      "Ġfull": 1944,
      "Ġlines": 1945,
      "reset": 1946,
      "ĠCheck": 1947,
      "doist": 1948,
      "ME": 1949,
      "Ġthrough": 1950,
      "Ġbirth": 1951,
      "Ġquot": 1952,
      "ource": 1953,
      "OT": 1954,
      "Ġass": 1955,
      "Ġbased": 1956,
      "Con": 1957,
      "Ġsear": 1958,
      "ĠPh": 1959,
      "etc": 1960,
      "ĠDec": 1961,
      "Ġcase": 1962,
      "St": 1963,
      "ling": 1964,
      "Ġanother": 1965,
      "of": 1966,
      "Ġdid": 1967,
      "Ġ2017": 1968,
      "rip": 1969,
      "ted": 1970,
      "Ġdownloaded": 1971,
      "attern": 1972,
      "Ġoutput": 1973,
      "Ġ13": 1974,
      "ics": 1975,
      "ification": 1976,
      "OR": 1977,
      "default": 1978,
      "All": 1979,
      "main": 1980,
      "urope": 1981,
      "06": 1982,
      "Ġmed": 1983,
      "nclass": 1984,
      "Ġsort": 1985,
      "Ġ16": 1986,
      "Ġyesterday": 1987,
      "pense": 1988,
      "Ġcontext": 1989,
      "Ġsn": 1990,
      "ouse": 1991,
      "ĠCom": 1992,
      "att": 1993,
      "LE": 1994,
      "oice": 1995,
      "lier": 1996,
      "illi": 1997,
      "Ġpopul": 1998,
      "nWe": 1999,
      "Ġsecond": 2000,
      "Ġpaper": 2001,
      "Ġ2015": 2002,
      "ugg": 2003,
      "ize": 2004,
      "AL": 2005,
      "Ġstud": 2006,
      "ru": 2007,
      "Ġnames": 2008,
      "cod": 2009,
      "iven": 2010,
      "ooking": 2011,
      "Ġrequired": 2012,
      "ague": 2013,
      "Ġetc": 2014,
      "ĠLe": 2015,
      "Ġpatch": 2016,
      "Ġinclude": 2017,
      "issue": 2018,
      "Ġaround": 2019,
      "learn": 2020,
      "No": 2021,
      "uti": 2022,
      "olog": 2023,
      "Ġtasks": 2024,
      "Ġhow": 2025,
      "migr": 2026,
      "ĠMar": 2027,
      "ipp": 2028,
      "vious": 2029,
      "eger": 2030,
      "Ġmade": 2031,
      "Ġgame": 2032,
      "Ġest": 2033,
      "ution": 2034,
      "Ġlater": 2035,
      "Ġpart": 2036,
      "reat": 2037,
      "replace": 2038,
      "Ġvery": 2039,
      "Ġrange": 2040,
      "receipt": 2041,
      "abl": 2042,
      "submit": 2043,
      "reorder": 2044,
      "Ġnp": 2045,
      "inner": 2046,
      "ĠCol": 2047,
      "Ġpasswords": 2048,
      "Ġstill": 2049,
      "ases": 2050,
      "Ġappear": 2051,
      "Ġactor": 2052,
      "ml": 2053,
      "utes": 2054,
      "Ġcolle": 2055,
      "Ġeditor": 2056,
      "Ġyes": 2057,
      "ision": 2058,
      "Ġ17": 2059,
      "Ġgetting": 2060,
      "Ġboth": 2061,
      "Ġsearches": 2062,
      "Ġchang": 2063,
      "aster": 2064,
      "ropy": 2065,
      "title": 2066,
      "Ġnumber": 2067,
      "dir": 2068,
      "Ġque": 2069,
      "Ġschool": 2070,
      "Ġsuccessfully": 2071,
      "Ġ'/": 2072,
      "Ġ1990": 2073,
      "Ġmessages": 2074,
      "bs": 2075,
      "uary": 2076,
      "ison": 2077,
      "Ġensure": 2078,
      "lient": 2079,
      "gy": 2080,
      "'},": 2081,
      "Ġparameter": 2082,
      "=[": 2083,
      "ER": 2084,
      "useum": 2085,
      "mer": 2086,
      "Ġask": 2087,
      "forms": 2088,
      "Ġsympy": 2089,
      "ĠInd": 2090,
      "Ġoriginal": 2091,
      "ities": 2092,
      "ado": 2093,
      "000": 2094,
      "Ġ1970": 2095,
      "Ġsom": 2096,
      "ĠZ": 2097,
      "Ġworks": 2098,
      "`,": 2099,
      "irection": 2100,
      "ham": 2101,
      "ograph": 2102,
      "ĠAf": 2103,
      "arried": 2104,
      "ibrary": 2105,
      "ĠFirst": 2106,
      "ĠTV": 2107,
      "Ġreturns": 2108,
      "Ġoff": 2109,
      "Ġtit": 2110,
      "~/": 2111,
      "***": 2112,
      "lX": 2113,
      "Ġchildren": 2114,
      "Ġbecause": 2115,
      "ĠSong": 2116,
      "Ġgot": 2117,
      "Ġvalues": 2118,
      "Ġsystem": 2119,
      "Ġinterview": 2120,
      "nF": 2121,
      "Rl": 2122,
      "maWx": 2123,
      "ended": 2124,
      "eyJzdWIiOiJmaWx": 2125,
      "RlbS": 2126,
      "eyJzdWIiOiJmaWxlX": 2127,
      "ba": 2128,
      "oolean": 2129,
      "Ġdefault": 2130,
      "Ġpriv": 2131,
      "ht": 2132,
      "Ġ%": 2133,
      "ern": 2134,
      "Ġdist": 2135,
      "In": 2136,
      "Ġâľĵ\\": 2137,
      "implement": 2138,
      ":\\\",": 2139,
      "Ġoper": 2140,
      "={": 2141,
      "Ġbroad": 2142,
      "completed": 2143,
      "umn": 2144,
      "YS": 2145,
      "ST": 2146,
      "la": 2147,
      "dd": 2148,
      "messages": 2149,
      "data": 2150,
      "ram": 2151,
      "Ġfetch": 2152,
      "Ġ1980": 2153,
      "lement": 2154,
      "ures": 2155,
      "}\\": 2156,
      "oci": 2157,
      "ucture": 2158,
      "nEOF": 2159,
      "Ġfather": 2160,
      "nM": 2161,
      "ĠSe": 2162,
      "ha": 2163,
      "Ġdescri": 2164,
      "Ġstory": 2165,
      "ception": 2166,
      "pdf": 2167,
      "Ġnon": 2168,
      "eff": 2169,
      "\".": 2170,
      "Ġcar": 2171,
      "Ġchange": 2172,
      "eop": 2173,
      "Ġ<<'": 2174,
      "Ġqueue": 2175,
      "Ġos": 2176,
      "downloads": 2177,
      "uff": 2178,
      "eople": 2179,
      "Ġcomm": 2180,
      "ross": 2181,
      "Ġtransl": 2182,
      "nex": 2183,
      "ache": 2184,
      "trans": 2185,
      "ife": 2186,
      "ider": 2187,
      "nWait": 2188,
      "join": 2189,
      "subprocess": 2190,
      "mark": 2191,
      "Ġtarget": 2192,
      "ann": 2193,
      "ides": 2194,
      "Ġ.": 2195,
      "key": 2196,
      "rc": 2197,
      "ough": 2198,
      "Ġprovide": 2199,
      "description": 2200,
      "nT": 2201,
      "lev": 2202,
      "born": 2203,
      "Ġdue": 2204,
      "Ġcorrectly": 2205,
      "ĠShe": 2206,
      "Ġmultiple": 2207,
      "03": 2208,
      "64": 2209,
      "Ġimplement": 2210,
      "Ġprocess": 2211,
      "agaz": 2212,
      "settings": 2213,
      ".,": 2214,
      "alue": 2215,
      "Ġdown": 2216,
      "Ġestabl": 2217,
      ");": 2218,
      "ĠPath": 2219,
      "èĽĭå©ļåºĨèĽĭå©ļåºĨèĽĭå©ļåºĨèĽĭå©ļåºĨèĽĭå©ļåºĨèĽĭå©ļåºĨèĽĭå©ļåºĨèĽĭå©ļåºĨ": 2220,
      "\\\\\"": 2221,
      "Ġinit": 2222,
      "99": 2223,
      "etime": 2224,
      "Ar": 2225,
      "IN": 2226,
      "ĠActually": 2227,
      "ants": 2228,
      "='',": 2229,
      "nP": 2230,
      "comm": 2231,
      "ys": 2232,
      "Ġstructure": 2233,
      "/_": 2234,
      "task": 2235,
      "fess": 2236,
      "Ġdat": 2237,
      "Ġ2013": 2238,
      "ĠEurope": 2239,
      "roy": 2240,
      "Ġfields": 2241,
      "ission": 2242,
      "Ġbuild": 2243,
      "ĠCreate": 2244,
      "plicit": 2245,
      "Ġoption": 2246,
      "ourn": 2247,
      "Ġsugg": 2248,
      "annot": 2249,
      "Ġcompleted": 2250,
      "ryn": 2251,
      "athryn": 2252,
      "Ġexisting": 2253,
      "Ġserv": 2254,
      "ivid": 2255,
      "nwith": 2256,
      "splitwise": 2257,
      "relationships": 2258,
      "Ġprovided": 2259,
      "Ġcity": 2260,
      "ĠNote": 2261,
      "Ġraise": 2262,
      "gth": 2263,
      "44": 2264,
      "ister": 2265,
      "meet": 2266,
      "Ġconstraint": 2267,
      "Ġinstead": 2268,
      ".\\\\": 2269,
      "units": 2270,
      "ĠPer": 2271,
      "Ġscript": 2272,
      "Ġcontin": 2273,
      "Ġmovie": 2274,
      "agazine": 2275,
      "Ġ25": 2276,
      "cmd": 2277,
      "explanation": 2278,
      "Ġ2018": 2279,
      "return": 2280,
      "Ġfe": 2281,
      "Ġread": 2282,
      "Ġmentioned": 2283,
      "Ġsur": 2284,
      "verify": 2285,
      "Ġplayer": 2286,
      "follow": 2287,
      "artists": 2288,
      "ZSt": 2289,
      "Ġinspect": 2290,
      "Ġ14": 2291,
      "bers": 2292,
      "Ġ50": 2293,
      "Ġamount": 2294,
      "comp": 2295,
      "Ġfamily": 2296,
      "Ġsingle": 2297,
      "first": 2298,
      "band": 2299,
      "ĠOr": 2300,
      "Ġim": 2301,
      "Ġbi": 2302,
      "ird": 2303,
      "ĠCould": 2304,
      "ee": 2305,
      "Ġapply": 2306,
      "Ġpoints": 2307,
      "Ġexam": 2308,
      ">&": 2309,
      "gres": 2310,
      "__.": 2311,
      "chema": 2312,
      "ale": 2313,
      "ypes": 2314,
      "())\\": 2315,
      "Ġwr": 2316,
      "Ġless": 2317,
      "Ġknown": 2318,
      "iness": 2319,
      "Ġlibrary": 2320,
      "expressions": 2321,
      "illiam": 2322,
      "Ġsend": 2323,
      "onado": 2324,
      "Ġwithin": 2325,
      "aldonado": 2326,
      "ĠDjango": 2327,
      "Ġ2016": 2328,
      "idget": 2329,
      "func": 2330,
      "Ġorder": 2331,
      "Un": 2332,
      "35": 2333,
      "','": 2334,
      "Ġexpression": 2335,
      "ĠJan": 2336,
      "Ġshows": 2337,
      "land": 2338,
      "ters": 2339,
      "Ġreproduce": 2340,
      "ĠCar": 2341,
      "Ġteam": 2342,
      "eep": 2343,
      "nNow": 2344,
      "Ġri": 2345,
      "usiness": 2346,
      "ĠCup": 2347,
      "Ġones": 2348,
      "pg": 2349,
      "ĠAfric": 2350,
      "Ġ195": 2351,
      "Ġdirectory": 2352,
      "Ġpol": 2353,
      "Ġdes": 2354,
      "auto": 2355,
      "spec": 2356,
      "Ġterm": 2357,
      "Ġsa": 2358,
      "Ġmay": 2359,
      "Ġop": 2360,
      "37": 2361,
      "ĠX": 2362,
      "Ġauth": 2363,
      "ĠPos": 2364,
      "Ġindivid": 2365,
      "Ġcarefully": 2366,
      "ĠJune": 2367,
      "(\\\\": 2368,
      "pre": 2369,
      "ten": 2370,
      "ĠNeed": 2371,
      "ited": 2372,
      "Ġcontact": 2373,
      "Ġartists": 2374,
      "Ġearly": 2375,
      "Ġearlier": 2376,
      "Ġcannot": 2377,
      "confidence": 2378,
      "lc": 2379,
      "Ġsto": 2380,
      "Ġast": 2381,
      "Ġmany": 2382,
      "Ġcondition": 2383,
      "Ġtiming": 2384,
      "raw": 2385,
      "plot": 2386,
      "Ġstate": 2387,
      "music": 2388,
      "ĠLog": 2389,
      "ray": 2390,
      "GG": 2391,
      "float": 2392,
      "priv": 2393,
      "lass": 2394,
      "ocial": 2395,
      "''": 2396,
      "nsearch": 2397,
      "Ġ28": 2398,
      "}\")\\": 2399,
      "aly": 2400,
      "management": 2401,
      "Ġrelationship": 2402,
      "\\')": 2403,
      "meetings": 2404,
      "hest": 2405,
      "Ġgu": 2406,
      "umm": 2407,
      "setup": 2408,
      "nO": 2409,
      "Ġhistory": 2410,
      "ighest": 2411,
      "Ġmessage": 2412,
      "FI": 2413,
      "ires": 2414,
      "pk": 2415,
      "aul": 2416,
      "ves": 2417,
      "exp": 2418,
      "eyJzdWIiOiJwa": 2419,
      "eyJzdWIiOiJwaG": 2420,
      "ags": 2421,
      "mall": 2422,
      "Ġ]": 2423,
      "hY": 2424,
      "Ġmedal": 2425,
      "uZS": 2426,
      "Ġid": 2427,
      "Ġbase": 2428,
      "mb": 2429,
      "Ġ)\\": 2430,
      "related": 2431,
      "ĠReg": 2432,
      "Ġparent": 2433,
      "([": 2434,
      "Ġpeople": 2435,
      "ĠAlso": 2436,
      "Ġexplicit": 2437,
      "Ġ\"#": 2438,
      "loc": 2439,
      "Ġunique": 2440,
      "rents": 2441,
      "Ġknow": 2442,
      "Ġposition": 2443,
      "Ġenvironment": 2444,
      "Ġmagazine": 2445,
      "RlbSt": 2446,
      "Ġoptional": 2447,
      "\\\",\\": 2448,
      "Ġinsp": 2449,
      "number": 2450,
      "aEBnbWFpbC": 2451,
      "Ġ2005": 2452,
      "ĠUS": 2453,
      "cer": 2454,
      "ĠĠĠĠĠĠĠĠĠĠĠĠĠĠĠĠĠĠĠĠĠĠĠ": 2455,
      "apper": 2456,
      "ething": 2457,
      "Ġauthors": 2458,
      "sing": 2459,
      "Ġremain": 2460,
      "\\')\\\\": 2461,
      "ĠChr": 2462,
      "Ġprevious": 2463,
      "Ġpost": 2464,
      "ĠSince": 2465,
      "Ġprivate": 2466,
      "ume": 2467,
      "coord": 2468,
      "\\\\.": 2469,
      "filter": 2470,
      ",\\\\": 2471,
      "bt": 2472,
      "ified": 2473,
      "Ġdebut": 2474,
      "`.": 2475,
      "Ġerrors": 2476,
      "ared": 2477,
      "Ġcombin": 2478,
      "95": 2479,
      "ered": 2480,
      "ampion": 2481,
      "Ġtracking": 2482,
      "67": 2483,
      "94": 2484,
      "etter": 2485,
      "Ġtodoist": 2486,
      "otenti": 2487,
      "pe": 2488,
      "rase": 2489,
      "=\"": 2490,
      "erate": 2491,
      "Ġtoday": 2492,
      "ĠMo": 2493,
      "Ġextr": 2494,
      "ner": 2495,
      "ĠTod": 2496,
      "Ġ12": 2497,
      "urs": 2498,
      "Ġwrit": 2499,
      "idd": 2500,
      "postgres": 2501,
      "83": 2502,
      "NA": 2503,
      "Ġvari": 2504,
      "likely": 2505,
      "Ġalbums": 2506,
      "ippet": 2507,
      "().": 2508,
      "PG": 2509,
      "organ": 2510,
      "ton": 2511,
      "ĠPl": 2512,
      "'])\\": 2513,
      "WF": 2514,
      "dont": 2515,
      "pass": 2516,
      "wargs": 2517,
      "pects": 2518,
      "arrison": 2519,
      "65": 2520,
      "}\\\")\\": 2521,
      "requ": 2522,
      "Ġdict": 2523,
      "Ġ2011": 2524,
      "blem": 2525,
      "Ġexpenses": 2526,
      "radu": 2527,
      "/__": 2528,
      "inc": 2529,
      "Ġduring": 2530,
      "Ġcalled": 2531,
      "Ġsup": 2532,
      "start": 2533,
      "pytest": 2534,
      "Ġclue": 2535,
      "Ġboolean": 2536,
      "Ġpytest": 2537,
      "Ġgetattr": 2538,
      "Ġsys": 2539,
      "ĠSy": 2540,
      "mat": 2541,
      "Ġend": 2542,
      "oid": 2543,
      "comment": 2544,
      "Ġ+=": 2545,
      "MS": 2546,
      "uk": 2547,
      "Ġmarried": 2548,
      "SV": 2549,
      "ning": 2550,
      "voice": 2551,
      "Ġupdate": 2552,
      "since": 2553,
      "Ġlogg": 2554,
      "Ġwant": 2555,
      "SON": 2556,
      "Ġdays": 2557,
      "Ġattribute": 2558,
      "Ġargument": 2559,
      "BC": 2560,
      "display": 2561,
      "Ġcat": 2562,
      "string": 2563,
      "ography": 2564,
      "yd": 2565,
      "Ġref": 2566,
      "ĠPro": 2567,
      "abase": 2568,
      "Ġexists": 2569,
      "Ġblock": 2570,
      "nexcept": 2571,
      "NAME": 2572,
      "ookup": 2573,
      "41": 2574,
      "Ġow": 2575,
      "Ġtem": 2576,
      "using": 2577,
      "lob": 2578,
      "Ġobject": 2579,
      "pts": 2580,
      "lish": 2581,
      "nglish": 2582,
      "']\\": 2583,
      "signup": 2584,
      "Sh": 2585,
      "ĠĠĠĠĠĠĠĠĠĠĠĠ": 2586,
      "configure": 2587,
      "Ġconnection": 2588,
      "Ġvideo": 2589,
      "IT": 2590,
      "Ġ->": 2591,
      "ĠPar": 2592,
      "Ġaccounts": 2593,
      "DM": 2594,
      "ball": 2595,
      "ology": 2596,
      "ĠEuropean": 2597,
      "Ġparents": 2598,
      "')\\\\": 2599,
      "meta": 2600,
      "npath": 2601,
      "oy": 2602,
      "Ġmark": 2603,
      "Ġestablished": 2604,
      "Ġsuggests": 2605,
      "CH": 2606,
      "ntests": 2607,
      "Ġaddress": 2608,
      "98": 2609,
      "Ġprofile": 2610,
      "dated": 2611,
      "Ġbr": 2612,
      "admin": 2613,
      "Ġown": 2614,
      "Ġargs": 2615,
      ".\"\\": 2616,
      ":**": 2617,
      "ĠInt": 2618,
      "istic": 2619,
      "Ġwants": 2620,
      "iver": 2621,
      "ization": 2622,
      "ĠException": 2623,
      "93": 2624,
      "Ġvalidation": 2625,
      "Ġpages": 2626,
      "Ġpending": 2627,
      "Ġperform": 2628,
      "Ġtable": 2629,
      "clus": 2630,
      "qs": 2631,
      "oot": 2632,
      "head": 2633,
      "dule": 2634,
      "ilar": 2635,
      "Ġiss": 2636,
      "Ġhabit": 2637,
      "====": 2638,
      "cs": 2639,
      "Ġsphinx": 2640,
      "='\\\"": 2641,
      "Ġdone": 2642,
      "Ġgr": 2643,
      "html": 2644,
      "32": 2645,
      "orm": 2646,
      "Ġreplace": 2647,
      "uration": 2648,
      "Ġreturned": 2649,
      "Ġpotenti": 2650,
      "Ġliter": 2651,
      "ights": 2652,
      "Ġbuilding": 2653,
      "aged": 2654,
      "Ġexcept": 2655,
      "Ġexpects": 2656,
      "aking": 2657,
      "valid": 2658,
      "]\\\\": 2659,
      "chol": 2660,
      "conn": 2661,
      "Ġminutes": 2662,
      "Ġchanges": 2663,
      "Ġissues": 2664,
      "ium": 2665,
      "deny": 2666,
      "Constraint": 2667,
      "sa": 2668,
      "plication": 2669,
      "cul": 2670,
      "\"\"": 2671,
      "Com": 2672,
      "dat": 2673,
      "pis": 2674,
      "rame": 2675,
      "ĠPr": 2676,
      "ove": 2677,
      "olve": 2678,
      "thers": 2679,
      "ZG": 2680,
      "draw": 2681,
      "\\\"))\"": 2682,
      "Ġdidn": 2683,
      "46": 2684,
      "Ġincluding": 2685,
      "aught": 2686,
      "Ġpossib": 2687,
      "private": 2688,
      "leg": 2689,
      "sting": 2690,
      "expense": 2691,
      "Ġnovel": 2692,
      "posit": 2693,
      "ana": 2694,
      "Ġsomething": 2695,
      "json": 2696,
      "oop": 2697,
      "illion": 2698,
      "**,": 2699,
      "Ġpublic": 2700,
      "PP": 2701,
      "mar": 2702,
      "Ġpattern": 2703,
      "ĠCon": 2704,
      "Ġ1960": 2705,
      "Ġdeath": 2706,
      "Ġ60": 2707,
      "parser": 2708,
      "Ġincludes": 2709,
      "Ġeven": 2710,
      "Ġexactly": 2711,
      "pository": 2712,
      "kY": 2713,
      "outh": 2714,
      "thing": 2715,
      "Ġsimpl": 2716,
      "NG": 2717,
      "Ġrg": 2718,
      "Ġdelete": 2719,
      "Ġdesign": 2720,
      "Ġ[]\\": 2721,
      "Ġseason": 2722,
      "Ġpartic": 2723,
      "?\\": 2724,
      "sphinx": 2725,
      "playlists": 2726,
      "ette": 2727,
      "autodoc": 2728,
      "Ġgener": 2729,
      "Ġpopulation": 2730,
      "nMaybe": 2731,
      "Ġage": 2732,
      "[\\'": 2733,
      "kn": 2734,
      "iger": 2735,
      "Ġcompile": 2736,
      "issing": 2737,
      "Ġroommate": 2738,
      "ĠIDs": 2739,
      "Ġsomeone": 2740,
      "gen": 2741,
      "uZSs": 2742,
      "Ġresearch": 2743,
      "greg": 2744,
      "pu": 2745,
      "ised": 2746,
      "coding": 2747,
      "ali": 2748,
      "Ġlead": 2749,
      "nThis": 2750,
      "We": 2751,
      "tiv": 2752,
      "Ġblog": 2753,
      "48": 2754,
      "cast": 2755,
      "Ġinstr": 2756,
      "ĠPatch": 2757,
      "'))\"}": 2758,
      "dest": 2759,
      "Ġscore": 2760,
      "ility": 2761,
      "Ġ2002": 2762,
      "ATCH": 2763,
      "))": 2764,
      "@@": 2765,
      "bl": 2766,
      "Ġsubprocess": 2767,
      "iew": 2768,
      "ta": 2769,
      "'ve": 2770,
      "hat": 2771,
      "parse": 2772,
      "Ġpathlib": 2773,
      "Ġ1930": 2774,
      "Ġdocid": 2775,
      "Ġtitles": 2776,
      "EL": 2777,
      "only": 2778,
      "edia": 2779,
      "cls": 2780,
      "Ġ'~/": 2781,
      "Ġlisted": 2782,
      "ML": 2783,
      "ular": 2784,
      "ĠSplitwise": 2785,
      "Ġbrand": 2786,
      "Ġappears": 2787,
      "55": 2788,
      "ination": 2789,
      "ĠFr": 2790,
      "Ġdefin": 2791,
      "Ġfour": 2792,
      "ĠBl": 2793,
      "Ġwhose": 2794,
      "Ġrequires": 2795,
      "Ġretrieve": 2796,
      "mbol": 2797,
      "cent": 2798,
      "escap": 2799,
      "Ġfoc": 2800,
      "Ġpinned": 2801,
      "Ġ27": 2802,
      "na": 2803,
      "omet": 2804,
      "odes": 2805,
      "cons": 2806,
      "Ġformed": 2807,
      "lookup": 2808,
      "Ġed": 2809,
      "Ġquotes": 2810,
      "ĠPerhaps": 2811,
      "May": 2812,
      "just": 2813,
      "ilt": 2814,
      "Ġallow": 2815,
      "ft": 2816,
      "pa": 2817,
      "entic": 2818,
      "ob": 2819,
      "tc": 2820,
      "Ġfits": 2821,
      "sertation": 2822,
      "build": 2823,
      "year": 2824,
      "Ġlimit": 2825,
      "andid": 2826,
      "jpg": 2827,
      "ety": 2828,
      "Ġyet": 2829,
      "checks": 2830,
      "ĠHar": 2831,
      "Ġprofess": 2832,
      "Res": 2833,
      "ĠJSON": 2834,
      "```": 2835,
      "length": 2836,
      "specific": 2837,
      "RE": 2838,
      "non": 2839,
      "Ġassign": 2840,
      "ci": 2841,
      "her": 2842,
      "ython": 2843,
      "Ġarch": 2844,
      "notification": 2845,
      "Ġavoid": 2846,
      "ats": 2847,
      "Ġlarg": 2848,
      "postgresql": 2849,
      "'?": 2850,
      "Ġbusiness": 2851,
      "Ġrepository": 2852,
      "Ġadded": 2853,
      "Ġ1975": 2854,
      "ament": 2855,
      "Ġexplanation": 2856,
      "ĠValue": 2857,
      "Ġepis": 2858,
      "apr": 2859,
      "fl": 2860,
      "ances": 2861,
      "Ġsimilar": 2862,
      "Ġwrite": 2863,
      "ĠMight": 2864,
      "Ġz": 2865,
      "Based": 2866,
      "Can": 2867,
      "med": 2868,
      "window": 2869,
      "Ġclean": 2870,
      "char": 2871,
      "CQ": 2872,
      "hs": 2873,
      "success": 2874,
      "alf": 2875,
      "ummary": 2876,
      "uch": 2877,
      "istent": 2878,
      "resp": 2879,
      "ĠNew": 2880,
      "Ġdocuments": 2881,
      "meric": 2882,
      "Ġremaining": 2883,
      "97": 2884,
      "onald": 2885,
      "cy": 2886,
      "tt": 2887,
      "Ġexec": 2888,
      "Pr": 2889,
      "sup": 2890,
      "uYW": 2891,
      "Ġcor": 2892,
      "ĠMan": 2893,
      "Mz": 2894,
      "less": 2895,
      "Ġtri": 2896,
      "Ġland": 2897,
      "ĠAll": 2898,
      "box": 2899,
      "clusive": 2900,
      ",\"": 2901,
      "Ġdeg": 2902,
      "ĠMeta": 2903,
      "'\\\\": 2904,
      "ndef": 2905,
      "ension": 2906,
      "ASS": 2907,
      "ĠPhD": 2908,
      "det": 2909,
      "now": 2910,
      "unique": 2911,
      "()`": 2912,
      "Ġsklearn": 2913,
      "--------": 2914,
      "47": 2915,
      "split": 2916,
      "Ġdates": 2917,
      "\\\\(": 2918,
      "Ġcapital": 2919,
      "utils": 2920,
      "ious": 2921,
      "nnew": 2922,
      "over": 2923,
      "\\']": 2924,
      ":\\',": 2925,
      "der": 2926,
      "link": 2927,
      "Ġsib": 2928,
      "Ġfoot": 2929,
      "exists": 2930,
      "Ġconfidence": 2931,
      "Ġasks": 2932,
      "68": 2933,
      "ĠDecember": 2934,
      "Ġastropy": 2935,
      "bab": 2936,
      "alk": 2937,
      "stit": 2938,
      "ĠCEO": 2939,
      "ape": 2940,
      "Ġcards": 2941,
      "Re": 2942,
      "publ": 2943,
      "ustr": 2944,
      "ntry": 2945,
      "'.\",": 2946,
      "ized": 2947,
      "Ġrecord": 2948,
      "Ġcal": 2949,
      "Ġ\"\\": 2950,
      "ordan": 2951,
      "Ġchecking": 2952,
      "ims": 2953,
      "point": 2954,
      "cholar": 2955,
      "ĠWhen": 2956,
      "car": 2957,
      "Ġweek": 2958,
      "IG": 2959,
      "Ġsection": 2960,
      "Ġworking": 2961,
      "runtests": 2962,
      "sp": 2963,
      "Ġprom": 2964,
      "ĠFind": 2965,
      "constraint": 2966,
      "classes": 2967,
      "iH": 2968,
      "Ġactually": 2969,
      "toon": 2970,
      "objects": 2971,
      "Ġentry": 2972,
      "LED": 2973,
      "has": 2974,
      "ately": 2975,
      "Ġcomplet": 2976,
      "53": 2977,
      "QxfQ": 2978,
      "hell": 2979,
      "kwargs": 2980,
      "Ġannot": 2981,
      "Ġanaly": 2982,
      "bWl": 2983,
      "zbWl": 2984,
      "Ġsmall": 2985,
      "\\\")\\\\": 2986,
      "paths": 2987,
      "Ġmodify": 2988,
      "ny": 2989,
      "sn": 2990,
      "ĠAward": 2991,
      "Ġproject": 2992,
      "which": 2993,
      "iddle": 2994,
      "gr": 2995,
      "Ġbecame": 2996,
      "founder": 2997,
      "yQGdtYWlsLmNvbSIsImV": 2998,
      "*.": 2999,
      "utf": 3000,
      "Ġdatetime": 3001,
      "ppt": 3002,
      "ĠPython": 3003,
      "Ġactress": 3004,
      "Ġcollection": 3005,
      "required": 3006,
      "@@\\": 3007,
      "mem": 3008,
      "recording": 3009,
      "Ġkeep": 3010,
      "Ġphrase": 3011,
      "Ġinitial": 3012,
      "nL": 3013,
      "Ġdirection": 3014,
      "ecess": 3015,
      "ipedia": 3016,
      "video": 3017,
      "ĠCo": 3018,
      "verification": 3019,
      "Ġcls": 3020,
      "itect": 3021,
      "(\\\\\"": 3022,
      "Ġdescribed": 3023,
      "Ġcontinue": 3024,
      "Ġexplicitly": 3025,
      "pred": 3026,
      "state": 3027,
      "Ġtimed": 3028,
      "cpu": 3029,
      "YXJ": 3030,
      "Ġhandle": 3031,
      "fs": 3032,
      "social": 3033,
      "Ġmeans": 3034,
      "Ġ22": 3035,
      "Ġapprove": 3036,
      "ternative": 3037,
      "maybe": 3038,
      "rew": 3039,
      "__(": 3040,
      "amb": 3041,
      "qual": 3042,
      "icket": 3043,
      "dict": 3044,
      "Ġson": 3045,
      "Ġwriter": 3046,
      "avid": 3047,
      "oung": 3048,
      "SL": 3049,
      "author": 3050,
      "Ġclear": 3051,
      "ĠNiger": 3052,
      "ĠWilliam": 3053,
      "ichard": 3054,
      "ĠSystem": 3055,
      "04": 3056,
      "oint": 3057,
      "zb": 3058,
      "Ġcast": 3059,
      "Ġworld": 3060,
      "Ġtoo": 3061,
      "lege": 3062,
      "ĠTe": 3063,
      "ler": 3064,
      "efore": 3065,
      "ikipedia": 3066,
      "sqlite": 3067,
      "client": 3068,
      "Ġuses": 3069,
      "ĠUp": 3070,
      "ustom": 3071,
      "config": 3072,
      "ĠIndia": 3073,
      "tasks": 3074,
      "Ġlong": 3075,
      "ĠBr": 3076,
      "Ġtransaction": 3077,
      "Great": 3078,
      "Rv": 3079,
      "nelse": 3080,
      "ama": 3081,
      "ĠOR": 3082,
      "following": 3083,
      "ĠJanuary": 3084,
      "QL": 3085,
      "ness": 3086,
      "rey": 3087,
      "inspect": 3088,
      "Ġreferences": 3089,
      "').": 3090,
      "Note": 3091,
      "book": 3092,
      "Ġu": 3093,
      "Ġsource": 3094,
      "getattr": 3095,
      "73": 3096,
      "ave": 3097,
      "Ġgradu": 3098,
      "angu": 3099,
      "Ġ``": 3100,
      "Ġstarted": 3101,
      "Ġproblem": 3102,
      "values": 3103,
      "copy": 3104,
      "Par": 3105,
      "table": 3106,
      "Ġlocate": 3107,
      "ampionship": 3108,
      "Jl": 3109,
      "pres": 3110,
      "orage": 3111,
      "Ġ11": 3112,
      "ĠFin": 3113,
      "commands": 3114,
      "attrs": 3115,
      "ociety": 3116,
      "Ġfailed": 3117,
      "sers": 3118,
      "Ġrock": 3119,
      "Ġconstraints": 3120,
      ".\\\",": 3121,
      "Ġremove": 3122,
      "assert": 3123,
      "ĠThere": 3124,
      "artment": 3125,
      "Ġindividual": 3126,
      "bank": 3127,
      "Ġq": 3128,
      "Ġpassing": 3129,
      "chn": 3130,
      "aj": 3131,
      "next": 3132,
      "Ġmatching": 3133,
      "iction": 3134,
      "Ġhighest": 3135,
      "Ġexpected": 3136,
      "Ġidentif": 3137,
      "Ġ1999": 3138,
      "ĠSouth": 3139,
      "downloaded": 3140,
      "slides": 3141,
      "{'": 3142,
      "=\\\"\\\\\\\"": 3143,
      "dec": 3144,
      "rm": 3145,
      "This": 3146,
      "\\\"\\\"\\\"\\": 3147,
      "oh": 3148,
      "ita": 3149,
      "impson": 3150,
      "Ġplace": 3151,
      "havi": 3152,
      "Ġ23": 3153,
      "iles": 3154,
      "pril": 3155,
      "ubWF": 3156,
      "dtype": 3157,
      "Ġfounder": 3158,
      "Ġruns": 3159,
      "Ġdissertation": 3160,
      "Ġpoet": 3161,
      "ators": 3162,
      "Ġcontains": 3163,
      "remind": 3164,
      "Ġserved": 3165,
      "DF": 3166,
      "FA": 3167,
      "cto": 3168,
      "Ġnecess": 3169,
      "Find": 3170,
      "Ġdep": 3171,
      "Ġloop": 3172,
      "Ġusers": 3173,
      "âĢĻ": 3174,
      "ĠQu": 3175,
      "ctober": 3176,
      "To": 3177,
      "way": 3178,
      "Ġdiv": 3179,
      "2022": 3180,
      "match": 3181,
      "Ġreport": 3182,
      "apan": 3183,
      "Ġchecks": 3184,
      "NDEyNz": 3185,
      "havior": 3186,
      "Ġhere": 3187,
      "Ġmillion": 3188,
      "pp": 3189,
      "person": 3190,
      "pret": 3191,
      "},": 3192,
      "85": 3193,
      "widget": 3194,
      "orth": 3195,
      "Ġmove": 3196,
      "Ġattr": 3197,
      "Ġinspired": 3198,
      "Ġgmail": 3199,
      "ĠYes": 3200,
      "ĠLogin": 3201,
      "antity": 3202,
      "ondon": 3203,
      "Ġsnippet": 3204,
      "uto": 3205,
      "options": 3206,
      "Ġcompileall": 3207,
      "'),": 3208,
      "DI": 3209,
      "bul": 3210,
      "null": 3211,
      "\\\".": 3212,
      "eline": 3213,
      "Ġver": 3214,
      "ĠPaul": 3215,
      "Ġ21": 3216,
      "ĠLooking": 3217,
      "NDF": 3218,
      "migrations": 3219,
      "transfer": 3220,
      "olas": 3221,
      "url": 3222,
      "Ġworked": 3223,
      "Array": 3224,
      "\\\\\\\"\\\\\\\"": 3225,
      "Ġcalls": 3226,
      "Ġleast": 3227,
      "elling": 3228,
      "Ġhim": 3229,
      "Ġmeet": 3230,
      "Ġshort": 3231,
      "ID": 3232,
      "cr": 3233,
      "vard": 3234,
      "2000": 3235,
      "ĠTr": 3236,
      "96": 3237,
      "Ġcr": 3238,
      "Ġremo": 3239,
      "Ġhigh": 3240,
      "roomm": 3241,
      "Ġcontents": 3242,
      "Ġperhaps": 3243,
      "ptember": 3244,
      "Ġtimeout": 3245,
      "Ġkm": 3246,
      "inning": 3247,
      "'],": 3248,
      "position": 3249,
      "nH": 3250,
      "Ġfund": 3251,
      "til": 3252,
      "static": 3253,
      "ĠAdd": 3254,
      "Ġ24": 3255,
      "igrations": 3256,
      "ference": 3257,
      "tem": 3258,
      "Ġadjust": 3259,
      "Ġparser": 3260,
      "Ġfamous": 3261,
      "'m": 3262,
      "Sub": 3263,
      "fect": 3264,
      "Ġreward": 3265,
      "Ġ\\\"\\\"\\\"": 3266,
      "Ġteach": 3267,
      "ĠCollege": 3268,
      "Ġimplementation": 3269,
      "():\\": 3270,
      "alth": 3271,
      "ising": 3272,
      "Ġgold": 3273,
      "tbytq": 3274,
      "31": 3275,
      "npython": 3276,
      "ĠIN": 3277,
      "Ġann": 3278,
      "sympy": 3279,
      "plotlib": 3280,
      "arField": 3281,
      "Given": 3282,
      "Int": 3283,
      "hen": 3284,
      "ĠNOT": 3285,
      "Ġ[\\": 3286,
      "ĠUnited": 3287,
      "ĠLeague": 3288,
      "filterable": 3289,
      "Ġrecip": 3290,
      "cing": 3291,
      "go": 3292,
      "md": 3293,
      "ĠJordan": 3294,
      "Ġ2009": 3295,
      "function": 3296,
      "source": 3297,
      "urton": 3298,
      "Ġminimal": 3299,
      "merican": 3300,
      "vent": 3301,
      "Ġinsert": 3302,
      "ae": 3303,
      "Ġmuseum": 3304,
      "Ġ{\\": 3305,
      "feed": 3306,
      "Ġhasattr": 3307,
      "Ġgenres": 3308,
      "Ġsimpler": 3309,
      "66": 3310,
      "PASS": 3311,
      "ï½": 3312,
      "Ġcolumn": 3313,
      "lected": 3314,
      "tx": 3315,
      "tra": 3316,
      "Exit": 3317,
      "Ġgoal": 3318,
      ")`": 3319,
      "Ã©": 3320,
      "already": 3321,
      "Ġfew": 3322,
      "leon": 3323,
      "(\\\"\\\\\\\"": 3324,
      "Ġevent": 3325,
      "My": 3326,
      "reet": 3327,
      "Ġca": 3328,
      "lymp": 3329,
      "ooze": 3330,
      "Ġmanagement": 3331,
      "Ġparse": 3332,
      "ĠStacy": 3333,
      "founded": 3334,
      "ournament": 3335,
      "Ġextract": 3336,
      "AB": 3337,
      "Ġway": 3338,
      "Ġprog": 3339,
      "Fix": 3340,
      "ices": 3341,
      "ains": 3342,
      "uly": 3343,
      "ĠAs": 3344,
      "ĠRo": 3345,
      "Ġpaths": 3346,
      "ucted": 3347,
      "Ġinteger": 3348,
      ".'": 3349,
      "part": 3350,
      "uction": 3351,
      "},\\": 3352,
      "ĠBurch": 3353,
      "erg": 3354,
      "Ġdest": 3355,
      "iller": 3356,
      "ached": 3357,
      "Ġext": 3358,
      "ĠWikipedia": 3359,
      "ĠLa": 3360,
      "Ġ[\"": 3361,
      "Ġ2003": 3362,
      "33": 3363,
      "zname": 3364,
      "Ġom": 3365,
      "includ": 3366,
      "ality": 3367,
      "Ġpick": 3368,
      "cket": 3369,
      "actory": 3370,
      "Ġproperly": 3371,
      "dit": 3372,
      "gold": 3373,
      "src": 3374,
      "plied": 3375,
      "Ġspouse": 3376,
      "Ġauthentic": 3377,
      "xv": 3378,
      "Ġcandid": 3379,
      "ĠSal": 3380,
      "75": 3381,
      "Imp": 3382,
      "xk": 3383,
      "ĠOctober": 3384,
      "ĠKathryn": 3385,
      "ĠUpdate": 3386,
      "NDEyNzQxfQ": 3387,
      "Class": 3388,
      "Ġhalf": 3389,
      "ĠAcc": 3390,
      "Ġrate": 3391,
      "Ġattempt": 3392,
      "radient": 3393,
      "Ġpresident": 3394,
      "Ġtail": 3395,
      "plate": 3396,
      "oosting": 3397,
      "iqueConstraint": 3398,
      "cml": 3399,
      "ï½ľ": 3400,
      "git": 3401,
      "Ġ($": 3402,
      "Ġbehavior": 3403,
      "Ġapplication": 3404,
      "params": 3405,
      "estim": 3406,
      "Ġoffic": 3407,
      "sw": 3408,
      "Ġfloat": 3409,
      "Ġgiven": 3410,
      "ĠHarrison": 3411,
      "Ġ610": 3412,
      "production": 3413,
      "An": 3414,
      "UY": 3415,
      "da": 3416,
      "Ġlost": 3417,
      "Ġperl": 3418,
      "APP": 3419,
      "indent": 3420,
      "Ġrequested": 3421,
      "Co": 3422,
      "ky": 3423,
      "mith": 3424,
      "rol": 3425,
      "reproduce": 3426,
      "Ġcash": 3427,
      "ece": 3428,
      "Ġyield": 3429,
      "ĠRonald": 3430,
      "èĽĭå©ļåºĨèĽĭå©ļåºĨèĽĭå©ļåºĨèĽĭå©ļåºĨèĽĭå©ļåºĨèĽĭå©ļåºĨèĽĭå©ļåºĨèĽĭå©ļåºĨèĽĭå©ļåºĨèĽĭå©ļåºĨèĽĭå©ļåºĨèĽĭå©ļåºĨèĽĭå©ļåºĨèĽĭå©ļåºĨèĽĭå©ļåºĨèĽĭå©ļåºĨ": 3431,
      "Ġuntil": 3432,
      "Ġsignature": 3433,
      "78": 3434,
      "ategy": 3435,
      "Ġreview": 3436,
      "ALLED": 3437,
      "STALLED": 3438,
      "commend": 3439,
      "APPS": 3440,
      "</": 3441,
      "Ġfit": 3442,
      "Ġelement": 3443,
      "VD": 3444,
      "method": 3445,
      "```\\": 3446,
      "Ġconsistent": 3447,
      "Ġterms": 3448,
      "ĠPosition": 3449,
      "34": 3450,
      "clean": 3451,
      "ints": 3452,
      "ermine": 3453,
      "cel": 3454,
      "lin": 3455,
      "}:": 3456,
      "Ġtournament": 3457,
      "Ġothers": 3458,
      "umns": 3459,
      "ĠFe": 3460,
      "Ġunit": 3461,
      "Ġpresent": 3462,
      "INE": 3463,
      "nowled": 3464,
      "maldonado": 3465,
      "Ġmet": 3466,
      "strip": 3467,
      "istan": 3468,
      "EC": 3469,
      "{\\": 3470,
      "Ġaction": 3471,
      "hes": 3472,
      "\\\\\\": 3473,
      "axi": 3474,
      "Log": 3475,
      "Ġmissing": 3476,
      "ĠEnglish": 3477,
      "raham": 3478,
      "sklearn": 3479,
      "()\\\\": 3480,
      "ĠTroy": 3481,
      "linkcheck": 3482,
      "MX": 3483,
      "mm": 3484,
      "atures": 3485,
      "198": 3486,
      "Ġtargeted": 3487,
      "Ġnecessary": 3488,
      "lY": 3489,
      "Ġwindow": 3490,
      "ĠApril": 3491,
      "ĠNov": 3492,
      "local": 3493,
      "ĠAlex": 3494,
      "ives": 3495,
      "Ġprior": 3496,
      "Bl": 3497,
      "2020": 3498,
      "ĠBen": 3499,
      "Ġclub": 3500,
      "'))\"": 3501,
      "Ġcartoon": 3502,
      "Ġmedalist": 3503,
      "Jj": 3504,
      "two": 3505,
      "Ġnet": 3506,
      "Ġresp": 3507,
      "odule": 3508,
      "Ġ40": 3509,
      "Ġjson": 3510,
      "Ġenum": 3511,
      "Ġinvol": 3512,
      "burch": 3513,
      "astropy": 3514,
      "ATAB": 3515,
      "ATABAS": 3516,
      "annotation": 3517,
      "lint": 3518,
      "writer": 3519,
      "insert": 3520,
      "ckBnbWFpbC": 3521,
      "Ġquote": 3522,
      "Ġproduct": 3523,
      "ĠBook": 3524,
      "Ġpaid": 3525,
      "aker": 3526,
      "2713": 3527,
      "Ġdegree": 3528,
      "inter": 3529,
      "ĠJapan": 3530,
      "Ġ1998": 3531,
      "ĠTodo": 3532,
      "gregate": 3533,
      "(\\\\\\\"": 3534,
      "CC": 3535,
      "US": 3536,
      "]}": 3537,
      "direction": 3538,
      "thl": 3539,
      "ĠLondon": 3540,
      "util": 3541,
      "KE": 3542,
      "correct": 3543,
      "Ġmean": 3544,
      "Ġnotific": 3545,
      "days": 3546,
      "][": 3547,
      "Ġhost": 3548,
      "ander": 3549,
      "albums": 3550,
      "istics": 3551,
      "Ġfootball": 3552,
      "EG": 3553,
      "tor": 3554,
      "Ġtypes": 3555,
      "Ġlate": 3556,
      "rench": 3557,
      "velop": 3558,
      "ATABASES": 3559,
      "Ġ@": 3560,
      "Ġlangu": 3561,
      "apply": 3562,
      "Ġonce": 3563,
      "akistan": 3564,
      "ugust": 3565,
      "dims": 3566,
      "ndjango": 3567,
      "record": 3568,
      "Ġsnooze": 3569,
      "nLooking": 3570,
      "arch": 3571,
      "module": 3572,
      "ody": 3573,
      "expr": 3574,
      "Ġ['": 3575,
      "Ġrelig": 3576,
      "Ġskip": 3577,
      "compile": 3578,
      "02": 3579,
      "38": 3580,
      "ese": 3581,
      "ĠCat": 3582,
      "ja": 3583,
      "nold": 3584,
      "Ġarea": 3585,
      "Ġ2008": 3586,
      "Ġfollowed": 3587,
      "Ġtags": 3588,
      "Ġrece": 3589,
      "context": 3590,
      "Ġoptions": 3591,
      "Ġintern": 3592,
      "actor": 3593,
      "ĠAfrican": 3594,
      ".',": 3595,
      "uck": 3596,
      "ĠEnd": 3597,
      "Ġapps": 3598,
      "Ġraised": 3599,
      "ev": 3600,
      "used": 3601,
      "types": 3602,
      "Ġschema": 3603,
      "Ġ100": 3604,
      "ained": 3605,
      "peri": 3606,
      "Ġ2004": 3607,
      "groups": 3608,
      "ĠCommand": 3609,
      "ĠSystemExit": 3610,
      "review": 3611,
      "Ġpi": 3612,
      "sea": 3613,
      "Ġneeds": 3614,
      "Ġprot": 3615,
      "dentify": 3616,
      "La": 3617,
      "Ġathl": 3618,
      "change": 3619,
      "2019": 3620,
      "ĠCount": 3621,
      "sys": 3622,
      "fixture": 3623,
      "Ġinstit": 3624,
      "AC": 3625,
      "olk": 3626,
      "parsers": 3627,
      "Ġnumpy": 3628,
      "Ġdirectories": 3629,
      "verse": 3630,
      "54": 3631,
      "harr": 3632,
      "utions": 3633,
      "resident": 3634,
      "train": 3635,
      "Ġlaw": 3636,
      "ĠSchool": 3637,
      "ega": 3638,
      "Many": 3639,
      "QR": 3640,
      "dates": 3641,
      "han": 3642,
      "tY": 3643,
      "Ġclo": 3644,
      "lection": 3645,
      "ENG": 3646,
      "after": 3647,
      "ago": 3648,
      "acters": 3649,
      "Ġrelease": 3650,
      "ĠâĢ": 3651,
      "ĠSeptember": 3652,
      "ENGINE": 3653,
      "NV": 3654,
      "Ġformer": 3655,
      "Ġaccept": 3656,
      "otal": 3657,
      "agon": 3658,
      "fr": 3659,
      "ĠEn": 3660,
      "present": 3661,
      "roommate": 3662,
      "Ġedit": 3663,
      "Ġren": 3664,
      "ntext": 3665,
      "ĠMy": 3666,
      "ĠOne": 3667,
      "Ġsubmitted": 3668,
      "ernational": 3669,
      "off": 3670,
      "Ġconsider": 3671,
      "consider": 3672,
      "June": 3673,
      "XA": 3674,
      "history": 3675,
      "ley": 3676,
      "eart": 3677,
      "ĠSimpson": 3678,
      "')\"": 3679,
      "ltc": 3680,
      "Ġfunc": 3681,
      "ĠSimpleNote": 3682,
      "Ġbiography": 3683,
      "ELD": 3684,
      "cert": 3685,
      "Ġcountries": 3686,
      "estival": 3687,
      "RI": 3688,
      "gu": 3689,
      "hints": 3690,
      "Ġill": 3691,
      "Ġlevel": 3692,
      "Ġenough": 3693,
      "object": 3694,
      "Ġregion": 3695,
      "Ġexamine": 3696,
      "FIELD": 3697,
      "58": 3698,
      "ĠMarch": 3699,
      "nf": 3700,
      "sol": 3701,
      "ane": 3702,
      "todoist": 3703,
      "ored": 3704,
      "Ġpotentially": 3705,
      "memory": 3706,
      "mi": 3707,
      "oceed": 3708,
      "Ġ`_": 3709,
      "nFirst": 3710,
      "Check": 3711,
      "Ġel": 3712,
      "errors": 3713,
      "Ġ\\\\\"": 3714,
      "Ġwait": 3715,
      "ĠGraham": 3716,
      "initial": 3717,
      "figure": 3718,
      "omon": 3719,
      "icient": 3720,
      "ĠAfrica": 3721,
      "Ġidentified": 3722,
      "Kw": 3723,
      "Qu": 3724,
      "between": 3725,
      "multi": 3726,
      "Ġreconsider": 3727,
      "Ġtimes": 3728,
      ")}": 3729,
      "File": 3730,
      "{}": 3731,
      "omin": 3732,
      "Ġwhile": 3733,
      "Ġconver": 3734,
      "Ġlooks": 3735,
      "Ġactual": 3736,
      "Ġcommon": 3737,
      "rapper": 3738,
      "Ġturn": 3739,
      "repr": 3740,
      "Ġmem": 3741,
      "staged": 3742,
      "istor": 3743,
      "ĠArt": 3744,
      "CharField": 3745,
      "Ġarchitect": 3746,
      "Ġtw": 3747,
      "root": 3748,
      "Ġaddition": 3749,
      "paramet": 3750,
      "kA": 3751,
      "uation": 3752,
      "callback": 3753,
      "Ġqueries": 3754,
      "ewhat": 3755,
      "Ġapproved": 3756,
      "Ro": 3757,
      "Se": 3758,
      "oN": 3759,
      "Ġnumbers": 3760,
      "Ġ\\\\\\": 3761,
      "star": 3762,
      "Ġlookup": 3763,
      "Ġcareer": 3764,
      "Ġarguments": 3765,
      "Ġgrow": 3766,
      "Ly": 3767,
      "Sy": 3768,
      "SSL": 3769,
      "bk": 3770,
      "Ġaud": 3771,
      "Ġdevelop": 3772,
      "OW": 3773,
      "Ġnull": 3774,
      "ĠMal": 3775,
      "Ġexpense": 3776,
      "Ġquick": 3777,
      "Ġparsing": 3778,
      "porary": 3779,
      "Ġreference": 3780,
      "Ġcalcul": 3781,
      "anch": 3782,
      "thbm": 3783,
      "Ġ1950": 3784,
      "Ġconstr": 3785,
      "Ġspecies": 3786,
      "Ġbuilt": 3787,
      "07": 3788,
      "host": 3789,
      "jects": 3790,
      "need": 3791,
      "ĠOlymp": 3792,
      "Ġrole": 3793,
      "public": 3794,
      "before": 3795,
      "rT": 3796,
      "schema": 3797,
      "xy": 3798,
      "ĠCSV": 3799,
      "ĠMaldonado": 3800,
      "ively": 3801,
      "Ġstates": 3802,
      "YXR": 3803,
      ")/": 3804,
      "aun": 3805,
      "aults": 3806,
      "Ġpay": 3807,
      "Ġ29": 3808,
      "oss": 3809,
      "dev": 3810,
      "Eg": 3811,
      "Ph": 3812,
      "YY": 3813,
      "apo": 3814,
      "ifier": 3815,
      "emon": 3816,
      "inds": 3817,
      "),\\": 3818,
      "idden": 3819,
      "ural": 3820,
      "ZWZ": 3821,
      "GGGG": 3822,
      "Ġdefinition": 3823,
      "49": 3824,
      "BS": 3825,
      "MOD": 3826,
      "pol": 3827,
      "qZWZ": 3828,
      "Ġsw": 3829,
      "Ġthough": 3830,
      "ĠMuseum": 3831,
      "ĠPresident": 3832,
      "qZWZzbWl": 3833,
      "ĠHall": 3834,
      "Ġcomplex": 3835,
      "sc": 3836,
      "Ġweights": 3837,
      "ĠRichard": 3838,
      "thern": 3839,
      "withdraw": 3840,
      "Ġwife": 3841,
      "ĠJames": 3842,
      "Ġstrings": 3843,
      "ĠShow": 3844,
      "Add": 3845,
      "If": 3846,
      "XJj": 3847,
      "ouble": 3848,
      "Ġbest": 3849,
      "idXJj": 3850,
      "Ġparticip": 3851,
      "08": 3852,
      "aX": 3853,
      "\\\"'))\\": 3854,
      "most": 3855,
      "Ġlogic": 3856,
      "param": 3857,
      "Ġ1974": 3858,
      "Ġevidence": 3859,
      "sibly": 3860,
      "+\\": 3861,
      "bia": 3862,
      "sv": 3863,
      "onse": 3864,
      "Ġfall": 3865,
      "Ġthird": 3866,
      "Ġgood": 3867,
      "**.": 3868,
      "Ġdocids": 3869,
      "igration": 3870,
      "alarms": 3871,
      "Path": 3872,
      "proper": 3873,
      "ĠHeart": 3874,
      "Ġorigin": 3875,
      "ysics": 3876,
      "Ġwritten": 3877,
      "nHowever": 3878,
      "39": 3879,
      "42": 3880,
      "Not": 3881,
      "ris": 3882,
      "Ġincre": 3883,
      "imary": 3884,
      "ĠWith": 3885,
      "ĠJuly": 3886,
      "RS": 3887,
      "fit": 3888,
      "Ġmodule": 3889,
      "ĠAugust": 3890,
      "ĠBrit": 3891,
      "ĠHer": 3892,
      "Ġbooks": 3893,
      "ĠBlack": 3894,
      "Ġanim": 3895,
      "Ġcalling": 3896,
      "Ġgoals": 3897,
      "ĠPossibly": 3898,
      "!=": 3899,
      "Ic": 3900,
      "ense": 3901,
      "ources": 3902,
      "ĠChina": 3903,
      "Ġmusician": 3904,
      "ohn": 3905,
      "\"\"\\": 3906,
      "Pl": 3907,
      "gian": 3908,
      "tock": 3909,
      "ĠAnd": 3910,
      "ump": 3911,
      "Ġtitled": 3912,
      "ĠParis": 3913,
      "known": 3914,
      "NAZ": 3915,
      "zD": 3916,
      "ĠPerson": 3917,
      "ĠVerify": 3918,
      "Ġupdated": 3919,
      "Ġlogged": 3920,
      "tice": 3921,
      "aces": 3922,
      "plies": 3923,
      "roph": 3924,
      "Ġplot": 3925,
      "Ġ70": 3926,
      "ground": 3927,
      "Nh": 3928,
      "rating": 3929,
      "Ġfood": 3930,
      "ĠFile": 3931,
      "User": 3932,
      "nl": 3933,
      "ĠAmerican": 3934,
      "ĠEDM": 3935,
      "ential": 3936,
      "Ġoperations": 3937,
      "ĠINSTALLED": 3938,
      "It": 3939,
      "rs": 3940,
      "wrap": 3941,
      "Ġ'-": 3942,
      "ceed": 3943,
      "777": 3944,
      "ION": 3945,
      "UL": 3946,
      "mor": 3947,
      "nGiven": 3948,
      "Ġreceipt": 3949,
      "uted": 3950,
      "akes": 3951,
      "Ġactiv": 3952,
      "0777": 3953,
      "36": 3954,
      "74": 3955,
      "IL": 3956,
      "ZU": 3957,
      "nresult": 3958,
      "onic": 3959,
      "Ġsl": 3960,
      "ower": 3961,
      "ĠLik": 3962,
      "Ġconfirmed": 3963,
      "nJ": 3964,
      "nsettings": 3965,
      "uri": 3966,
      "info": 3967,
      "istant": 3968,
      "Ġprinc": 3969,
      "acking": 3970,
      "Ap": 3971,
      "BU": 3972,
      "ellow": 3973,
      "ples": 3974,
      "iving": 3975,
      "ĠDATABASES": 3976,
      "ours": 3977,
      "ĠKore": 3978,
      "Ġcharacters": 3979,
      "Ġlargest": 3980,
      "af": 3981,
      "might": 3982,
      "some": 3983,
      "Ġmock": 3984,
      "mod": 3985,
      "cknowled": 3986,
      "Ġapplied": 3987,
      "Ġdistrib": 3988,
      "ĠChris": 3989,
      "Result": 3990,
      "RO": 3991,
      "clear": 3992,
      "david": 3993,
      "nresults": 3994,
      "ables": 3995,
      "ĠBorn": 3996,
      "Ġadv": 3997,
      "Ġ1995": 3998,
      "ilson": 3999,
      "Ġaccident": 4000,
      "coordin": 4001,
      "Ġathlete": 4002,
      "59": 4003,
      "rU": 4004,
      "vol": 4005,
      "Ġcases": 4006,
      "Ġaccording": 4007,
      "Ġevery": 4008,
      "ttribute": 4009,
      "Ġ\"\"\"": 4010,
      "ĠPakistan": 4011,
      "Ġexpl": 4012,
      "oduct": 4013,
      "Good": 4014,
      "`.\\": 4015,
      "eval": 4016,
      "Ġem": 4017,
      "âĢĵ": 4018,
      "Ġlogging": 4019,
      "bkBnbWFpbC": 4020,
      "recommend": 4021,
      "ocument": 4022,
      "ĠWy": 4023,
      "Ġshare": 4024,
      "))\\\\": 4025,
      "ĠWeber": 4026,
      "Ġdisplay": 4027,
      "ĠNovember": 4028,
      "gw": 4029,
      "Ġmain": 4030,
      "Ġ2012": 4031,
      "lsea": 4032,
      "encoding": 4033,
      "ĠOn": 4034,
      "ector": 4035,
      "typehints": 4036,
      "Ġplayers": 4037,
      "Ġrequire": 4038,
      "Ġpossible": 4039,
      "predict": 4040,
      "Make": 4041,
      "].\\": 4042,
      "atabase": 4043,
      "Ġwake": 4044,
      "\\\".\",": 4045,
      "Ġview": 4046,
      "Ġsepar": 4047,
      "ritt": 4048,
      "apping": 4049,
      "Ġstrong": 4050,
      "Ġali": 4051,
      "\\'\\'": 4052,
      "Ġvs": 4053,
      "Ġcreating": 4054,
      "Ġdirected": 4055,
      "Ġ55": 4056,
      "coef": 4057,
      "ĠDecimal": 4058,
      "joined": 4059,
      "IC": 4060,
      "ĊĠĠ": 4061,
      "ales": 4062,
      "Ġword": 4063,
      "ĠThey": 4064,
      "project": 4065,
      "ĠLove": 4066,
      "redient": 4067,
      "nAlso": 4068,
      "bulk": 4069,
      "\"]": 4070,
      ">/": 4071,
      "Ek": 4072,
      "Set": 4073,
      "Ym": 4074,
      "storage": 4075,
      "prog": 4076,
      "Ġproceed": 4077,
      "ĠGe": 4078,
      "Expression": 4079,
      "Ġstudent": 4080,
      "boosting": 4081,
      "habit": 4082,
      "zX": 4083,
      "ections": 4084,
      "iley": 4085,
      "Ġconvers": 4086,
      "Ġ1989": 4087,
      "nSince": 4088,
      "Ġsibling": 4089,
      "gs": 4090,
      "pattern": 4091,
      "Ġstat": 4092,
      "Ġorgan": 4093,
      "Ġ[{'": 4094,
      "Ġassume": 4095,
      "Ġcompletion": 4096,
      "ĠSalette": 4097,
      "ttributeError": 4098,
      "DS": 4099,
      "ians": 4100,
      "Ġwell": 4101,
      "Ġincorrect": 4102,
      "action": 4103,
      "utal": 4104,
      "Ġgroups": 4105,
      "Ġbroadcast": 4106,
      "Ġexpressions": 4107,
      "Ġnotifications": 4108,
      "89": 4109,
      "EE": 4110,
      "where": 4111,
      "Ġenv": 4112,
      "icholas": 4113,
      "pher": 4114,
      "effrey": 4115,
      "Ġcombined": 4116,
      "Car": 4117,
      "graph": 4118,
      "atched": 4119,
      "ars": 4120,
      "itar": 4121,
      "istry": 4122,
      "uty": 4123,
      "tbytt": 4124,
      "indsey": 4125,
      "Tr": 4126,
      "ĠAd": 4127,
      "Ġleague": 4128,
      "Ġindic": 4129,
      "<<": 4130,
      "Base": 4131,
      "Ġreproduction": 4132,
      "Ġpopular": 4133,
      "ares": 4134,
      "ger": 4135,
      "ko": 4136,
      "pv": 4137,
      "zens": 4138,
      "2010": 4139,
      "ghts": 4140,
      "('/": 4141,
      "\\\\\\\",": 4142,
      "Ġlocal": 4143,
      "PGSSL": 4144,
      "cholarship": 4145,
      "Ġtrip": 4146,
      "Ġsplit": 4147,
      "Ġpag": 4148,
      "Ġmember": 4149,
      "child": 4150,
      "ĠSing": 4151,
      "Ġprocessed": 4152,
      "ster": 4153,
      "ica": 4154,
      "trYXR": 4155,
      "Ġindent": 4156,
      "Ġcandidate": 4157,
      "Dec": 4158,
      "due": 4159,
      "tes": 4160,
      "repro": 4161,
      "ism": 4162,
      "ĠIs": 4163,
      "unlike": 4164,
      "ĠPDF": 4165,
      "extend": 4166,
      "Ġprevent": 4167,
      "Ġobjects": 4168,
      "120": 4169,
      "Date": 4170,
      "cise": 4171,
      "ĠIv": 4172,
      "ĠSp": 4173,
      "older": 4174,
      "wood": 4175,
      "nFrom": 4176,
      "Ġfeature": 4177,
      "Col": 4178,
      "RM": 4179,
      "fill": 4180,
      "pi": 4181,
      "Ġitem": 4182,
      "ible": 4183,
      "Ġsaid": 4184,
      "ĠAccording": 4185,
      "84": 4186,
      "RL": 4187,
      "fcml": 4188,
      "gradient": 4189,
      "Ġacknowled": 4190,
      "Ġsum": 4191,
      "mode": 4192,
      "Ġemails": 4193,
      "signal": 4194,
      "Ġchanged": 4195,
      "expenses": 4196,
      "iate": 4197,
      "Ġocc": 4198,
      "ĠCent": 4199,
      "anga": 4200,
      "ĠHis": 4201,
      "emails": 4202,
      "contenttypes": 4203,
      "tbytuYW": 4204,
      "datetime": 4205,
      "Ġenumerate": 4206,
      "ĠJapanese": 4207,
      "TES": 4208,
      "dEBnbWFpbC": 4209,
      "Ġ]\\": 4210,
      "ĠSol": 4211,
      "Ġ\\'/": 4212,
      "Ġcopy": 4213,
      "Ġacross": 4214,
      "nassert": 4215,
      "ush": 4216,
      "adem": 4217,
      "Ġhaving": 4218,
      "Ġdetermine": 4219,
      "(\\'/": 4220,
      "Ġcorrected": 4221,
      "Ġproduction": 4222,
      "egerField": 4223,
      "rophies": 4224,
      "Identify": 4225,
      "mission": 4226,
      "Ġfive": 4227,
      "Ġcross": 4228,
      "Ġrefer": 4229,
      "ĠGu": 4230,
      "Ġplus": 4231,
      "bruary": 4232,
      "Ġ1982": 4233,
      "Ġinside": 4234,
      "Ġwrote": 4235,
      "Pro": 4236,
      "ds": 4237,
      "Ġdouble": 4238,
      "ipal": 4239,
      "Ġretrieved": 4240,
      "coded": 4241,
      "ĠSan": 4242,
      "ĠRet": 4243,
      "egin": 4244,
      "Ġmother": 4245,
      "apore": 4246,
      "mon": 4247,
      "Ġ}\\": 4248,
      "Ġ!=": 4249,
      "ories": 4250,
      "itive": 4251,
      "__`": 4252,
      "Ġvoice": 4253,
      "ĠFound": 4254,
      "option": 4255,
      "ignore": 4256,
      "argument": 4257,
      "labels": 4258,
      "porcel": 4259,
      "transl": 4260,
      "Ġanalyze": 4261,
      "ĠNigeria": 4262,
      "porcelain": 4263,
      "BY": 4264,
      "Value": 4265,
      "vb": 4266,
      "Ġtzname": 4267,
      "ott": 4268,
      "ĠDr": 4269,
      "NDU": 4270,
      "ancer": 4271,
      "Ġsci": 4272,
      "respond": 4273,
      "dos": 4274,
      "oto": 4275,
      "pI": 4276,
      "Ġbul": 4277,
      "capture": 4278,
      "locked": 4279,
      "Ġsinger": 4280,
      "personal": 4281,
      "]:\\": 4282,
      "iS": 4283,
      "hether": 4284,
      "Ġdu": 4285,
      "ager": 4286,
      "ĠMIT": 4287,
      "ĠWilson": 4288,
      "('\\\"": 4289,
      "Ġprofessor": 4290,
      "last": 4291,
      "Ġsq": 4292,
      "Ġdont": 4293,
      "Ġdig": 4294,
      "Ġyoung": 4295,
      "Ġplayed": 4296,
      "ORD": 4297,
      "Ġowes": 4298,
      "detail": 4299,
      "En": 4300,
      "Ġending": 4301,
      "orts": 4302,
      "Ġden": 4303,
      "quot": 4304,
      "ample": 4305,
      "icy": 4306,
      "Ġ31": 4307,
      "NDQ": 4308,
      "---": 4309,
      "\\\"))\"}": 4310,
      "Bw": 4311,
      "Write": 4312,
      "foo": 4313,
      "Ġ,\"": 4314,
      "Ġfl": 4315,
      "ĠBegin": 4316,
      "proba": 4317,
      "open": 4318,
      "Ġ1983": 4319,
      "69": 4320,
      "PATCH": 4321,
      "RN": 4322,
      "yG": 4323,
      "todos": 4324,
      "tswith": 4325,
      "Ġisn": 4326,
      "Ġ613": 4327,
      "ĠUniqueConstraint": 4328,
      "Ġexample": 4329,
      "ĠChrist": 4330,
      "aughter": 4331,
      "startswith": 4332,
      "ai": 4333,
      "second": 4334,
      "ylog": 4335,
      "alid": 4336,
      "Ġmiles": 4337,
      "usband": 4338,
      "rix": 4339,
      "Ġhon": 4340,
      "Ġhaven": 4341,
      "ssl": 4342,
      "product": 4343,
      "Ġsupport": 4344,
      "ĠTodoWrite": 4345,
      "sum": 4346,
      "Ġescap": 4347,
      "expected": 4348,
      "ession": 4349,
      "Ġ`__": 4350,
      "Ġamounts": 4351,
      "Ġlabels": 4352,
      "Ġlocation": 4353,
      "ĠBrown": 4354,
      "TU": 4355,
      "Ġfigure": 4356,
      "Ġcustom": 4357,
      "item": 4358,
      "outhern": 4359,
      "Ġrepresent": 4360,
      "stat": 4361,
      "ĠChampionship": 4362,
      "Ġactors": 4363,
      "ĠAPIs": 4364,
      "uctions": 4365,
      "Ġsurve": 4366,
      "Ġcorrespond": 4367,
      "ðŁ": 4368,
      "Ġlo": 4369,
      "ional": 4370,
      "updated": 4371,
      "Ġawards": 4372,
      "safe": 4373,
      "Ġevening": 4374,
      "bably": 4375,
      "idXJjaEBnbWFpbC": 4376,
      "block": 4377,
      "lings": 4378,
      "Ġ...": 4379,
      "leased": 4380,
      "ingredient": 4381,
      "idx": 4382,
      "ĠChe": 4383,
      "Ġmeeting": 4384,
      "air": 4385,
      "wd": 4386,
      "Ġinstance": 4387,
      "ĠDel": 4388,
      "Ġ45": 4389,
      "Ret": 4390,
      "Vk": 4391,
      "Ġimp": 4392,
      "Ġtaxi": 4393,
      "abr": 4394,
      "ĠPoint": 4395,
      "Ġdefinit": 4396,
      "Ġepisode": 4397,
      "Ġepisodes": 4398,
      "ĊĠĠĠĠ": 4399,
      "ering": 4400,
      "Ġsrc": 4401,
      "actions": 4402,
      "resolve": 4403,
      "ĠAp": 4404,
      "ĠRes": 4405,
      "apps": 4406,
      "ufficient": 4407,
      "nPATCH": 4408,
      "Classifier": 4409,
      "First": 4410,
      "dT": 4411,
      "serv": 4412,
      "zz": 4413,
      "ref": 4414,
      "Ġbetter": 4415,
      "\\\"\\\\": 4416,
      "Ġnarr": 4417,
      "quantity": 4418,
      "Ġarmor": 4419,
      "cols": 4420,
      "Ġsignal": 4421,
      "dirs": 4422,
      "Ġvariable": 4423,
      "matplotlib": 4424,
      "staticfiles": 4425,
      "Submit": 4426,
      "auty": 4427,
      "men": 4428,
      "xhY": 4429,
      "ĠMel": 4430,
      "astor": 4431,
      "Ġmonths": 4432,
      "connection": 4433,
      "Command": 4434,
      "txt": 4435,
      "aunched": 4436,
      "(['": 4437,
      "onze": 4438,
      "outs": 4439,
      "acqu": 4440,
      "ung": 4441,
      "========": 4442,
      "Ad": 4443,
      "Al": 4444,
      "Client": 4445,
      "Sp": 4446,
      "nan": 4447,
      "2018": 4448,
      "emigrations": 4449,
      "ĠMiller": 4450,
      "akemigrations": 4451,
      "resses": 4452,
      "Ġsubstit": 4453,
      "ĠInternational": 4454,
      "ormal": 4455,
      "OO": 4456,
      "ises": 4457,
      "combin": 4458,
      "Ġ1920": 4459,
      "ĠBurton": 4460,
      "Ġrefers": 4461,
      "Ġreligious": 4462,
      "volume": 4463,
      "'\\\"": 4464,
      "FzX": 4465,
      "cus": 4466,
      "eal": 4467,
      "Ġtrophies": 4468,
      "Ġlists": 4469,
      "ĠMa": 4470,
      "ĠFrom": 4471,
      "epend": 4472,
      "Ġpayments": 4473,
      "egal": 4474,
      "Ġopened": 4475,
      "Ġcontaining": 4476,
      "JlQGdtYWlsLmNvbSIsImV": 4477,
      "Dis": 4478,
      "wC": 4479,
      "Ġingredient": 4480,
      "ĠMin": 4481,
      "Ġele": 4482,
      "Ġteams": 4483,
      "Ġsurvey": 4484,
      "mE": 4485,
      "names": 4486,
      "Ġdb": 4487,
      "vered": 4488,
      "ĠFrench": 4489,
      "condition": 4490,
      "ected": 4491,
      "teen": 4492,
      "final": 4493,
      "Ġdistance": 4494,
      "Ġconsistently": 4495,
      "oth": 4496,
      "2015": 4497,
      "Ġhome": 4498,
      "docs": 4499,
      "iversities": 4500,
      "filters": 4501,
      "identity": 4502,
      "Ġcommands": 4503,
      "puts": 4504,
      "ĠHarvard": 4505,
      "?)\\": 4506,
      "wil": 4507,
      "Ġhapp": 4508,
      "Ġspecial": 4509,
      "\\\\\\\\\\\\\\\"": 4510,
      "sletter": 4511,
      "Ġkeyword": 4512,
      "Mh": 4513,
      "Open": 4514,
      "three": 4515,
      "ĠCan": 4516,
      "angers": 4517,
      "0000": 4518,
      "Ġdebt": 4519,
      "Ġcollect": 4520,
      "Ġencoding": 4521,
      "ertain": 4522,
      "royed": 4523,
      "ĠValueError": 4524,
      "abrina": 4525,
      "ms": 4526,
      "ptions": 4527,
      "(\\\"\\\"\\\"": 4528,
      "Ġentries": 4529,
      "University": 4530,
      "Ġtemporary": 4531,
      "csv": 4532,
      "Ġverification": 4533,
      "progress": 4534,
      "Use": 4535,
      "WORD": 4536,
      "tain": 4537,
      "Ġour": 4538,
      "Ġtyp": 4539,
      "oreign": 4540,
      "ĠDen": 4541,
      "addresses": 4542,
      "nAll": 4543,
      "Ġqueryset": 4544,
      "PASSWORD": 4545,
      "recommendations": 4546,
      "Qg": 4547,
      "ges": 4548,
      "kathryn": 4549,
      "rece": 4550,
      "Ġincluded": 4551,
      "Ġshell": 4552,
      "Ġbackground": 4553,
      "specifically": 4554,
      "Ġannotation": 4555,
      "Ġteacher": 4556,
      "ĊĠĠĠĠĊĠĠĠ": 4557,
      "NL": 4558,
      "Per": 4559,
      "WB": 4560,
      "ka": 4561,
      "Ġmode": 4562,
      "top": 4563,
      "iler": 4564,
      "Ġgames": 4565,
      "Ġassert": 4566,
      "dbname": 4567,
      "Ġdifferently": 4568,
      "azon": 4569,
      "Ġproducer": 4570,
      "Ġliteracy": 4571,
      "56": 4572,
      "FOR": 4573,
      "neg": 4574,
      "Ġsummary": 4575,
      "ĠBall": 4576,
      "ĠDef": 4577,
      "egr": 4578,
      "Ġleft": 4579,
      "AD": 4580,
      "Need": 4581,
      "TH": 4582,
      "dom": 4583,
      "father": 4584,
      "Ġday": 4585,
      "Ġrow": 4586,
      "veral": 4587,
      "Ġadding": 4588,
      "Ġcollege": 4589,
      "oYXJ": 4590,
      "qJ": 4591,
      "Ġsources": 4592,
      "ĠPol": 4593,
      "âĢĿ": 4594,
      "remier": 4595,
      "Ġrights": 4596,
      "aliases": 4597,
      "template": 4598,
      "oYXJyQGdtYWlsLmNvbSIsImV": 4599,
      "ke": 4600,
      "floatformat": 4601,
      "57": 4602,
      "Lt": 4603,
      "lB": 4604,
      "ero": 4605,
      "printing": 4606,
      "ordered": 4607,
      "ĠPG": 4608,
      "though": 4609,
      "rence": 4610,
      "Ġoffset": 4611,
      "levant": 4612,
      "giani": 4613,
      "hand": 4614,
      "lor": 4615,
      "mas": 4616,
      "nax": 4617,
      "opt": 4618,
      "rY": 4619,
      "site": 4620,
      "Ġ'',": 4621,
      "Ġnone": 4622,
      "ĠTime": 4623,
      "ĠGen": 4624,
      "ĠJohn": 4625,
      "Ġcreator": 4626,
      "ypeError": 4627,
      "Ġquoting": 4628,
      "levision": 4629,
      "IP": 4630,
      "Ġ~": 4631,
      "hem": 4632,
      "ara": 4633,
      "lease": 4634,
      "shop": 4635,
      "umbia": 4636,
      "Ġcontrol": 4637,
      ")\"'}": 4638,
      "lectric": 4639,
      "Child": 4640,
      "buff": 4641,
      "estig": 4642,
      "constraints": 4643,
      "Ġclearly": 4644,
      "ĠFebruary": 4645,
      "Mo": 4646,
      "Qk": 4647,
      "UU": 4648,
      "YubWF": 4649,
      "burn": 4650,
      "hash": 4651,
      "kYX": 4652,
      "}\\')\\": 4653,
      "tbytrYXR": 4654,
      "Ġfiltering": 4655,
      "ydEBnbWFpbC": 4656,
      "Ġparticular": 4657,
      "Ġeduc": 4658,
      "ĠCatastor": 4659,
      "receiver": 4660,
      "YubWFydEBnbWFpbC": 4661,
      "kYXYubWFydEBnbWFpbC": 4662,
      "EI": 4663,
      "Ġreq": 4664,
      "ested": 4665,
      "Ġlife": 4666,
      "ĠAfter": 4667,
      "apers": 4668,
      "Ġ26": 4669,
      "ĠLuc": 4670,
      "urer": 4671,
      "Ġseveral": 4672,
      "Ġhealth": 4673,
      "ensor": 4674,
      "ariable": 4675,
      "nThen": 4676,
      "functions": 4677,
      "MSv": 4678,
      "Mw": 4679,
      "cache": 4680,
      "ele": 4681,
      "za": 4682,
      "Ġmission": 4683,
      "Ġbug": 4684,
      "nother": 4685,
      "contents": 4686,
      "Ġ80": 4687,
      "Ġpotential": 4688,
      "parent": 4689,
      "Ġdivision": 4690,
      "Ġomit": 4691,
      "43": 4692,
      "Ins": 4693,
      "harrison": 4694,
      "jeffrey": 4695,
      "rR": 4696,
      "zB": 4697,
      "reverse": 4698,
      "ĠCS": 4699,
      "ĠEd": 4700,
      "ĠList": 4701,
      "Ġconfirms": 4702,
      "Ġproperty": 4703,
      "oes": 4704,
      "arning": 4705,
      "Ġpain": 4706,
      "cher": 4707,
      "'}]}": 4708,
      "cripts": 4709,
      "Ġusername": 4710,
      "azz": 4711,
      "cell": 4712,
      "same": 4713,
      "zl": 4714,
      "Ġmid": 4715,
      "2021": 4716,
      "ĠItal": 4717,
      "ĠPark": 4718,
      "='-": 4719,
      "uffle": 4720,
      "ometry": 4721,
      "Data": 4722,
      "Le": 4723,
      "dG": 4724,
      "gv": 4725,
      "uals": 4726,
      "ĠModel": 4727,
      "Ġtrue": 4728,
      "Ġtrace": 4729,
      "rences": 4730,
      "Ġ616": 4731,
      "Ġ1988": 4732,
      "Ġsurname": 4733,
      "Ġprincipal": 4734,
      "ially": 4735,
      "rist": 4736,
      "shell": 4737,
      "tp": 4738,
      "eric": 4739,
      "Ġpack": 4740,
      "allow": 4741,
      "ither": 4742,
      "ĠDe": 4743,
      "Ġrelevance": 4744,
      "Ġmethods": 4745,
      "uYWRv": 4746,
      "ceeded": 4747,
      "atabaseClient": 4748,
      "uYWRvQGdtYWlsLmNvbSIsImV": 4749,
      "William": 4750,
      "score": 4751,
      "sZG": 4752,
      "summary": 4753,
      "won": 4754,
      "chang": 4755,
      "Ġdim": 4756,
      "Ġrent": 4757,
      "ĠCal": 4758,
      "ĠMart": 4759,
      "Ġsteps": 4760,
      "Ġbroken": 4761,
      "ZStq": 4762,
      "Ġpolicy": 4763,
      "Ġfocus": 4764,
      "dif": 4765,
      "uf": 4766,
      "uy": 4767,
      "ename": 4768,
      "Ġsche": 4769,
      "aset": 4770,
      "aced": 4771,
      "Ġfounding": 4772,
      "Ġaggregate": 4773,
      "okemon": 4774,
      "Ġhandling": 4775,
      "Ġxarray": 4776,
      "Ġinstructions": 4777,
      "----------------": 4778,
      ".\\\"": 4779,
      "Time": 4780,
      "Ġuniversities": 4781,
      "NDQxMjc": 4782,
      "RlbStqZWZzbWl": 4783,
      "lookups": 4784,
      "VI": 4785,
      "bro": 4786,
      "Ġrest": 4787,
      "this": 4788,
      "comments": 4789,
      "ĠBro": 4790,
      "ishing": 4791,
      "Ġhashed": 4792,
      "ugu": 4793,
      "ssm": 4794,
      "Ġrunning": 4795,
      "NzU": 4796,
      "ĠReggiani": 4797,
      "52": 4798,
      "Get": 4799,
      "gxk": 4800,
      "nvenmo": 4801,
      "szB": 4802,
      "Ġsay": 4803,
      "Ġwalk": 4804,
      "ghI": 4805,
      "ryKw": 4806,
      "Ġfinding": 4807,
      "brown": 4808,
      "doZ": 4809,
      "Ġright": 4810,
      "hYBS": 4811,
      "CQTES": 4812,
      "iHK": 4813,
      "QRdoZ": 4814,
      "wCkY": 4815,
      "WBhYBS": 4816,
      "gxkQRdoZ": 4817,
      "szBiHK": 4818,
      "ryKwwCkY": 4819,
      "CQTESgxkQRdoZ": 4820,
      "td": 4821,
      "oring": 4822,
      "ouls": 4823,
      "ĠMe": 4824,
      "ĠMat": 4825,
      "Ġiterate": 4826,
      "Ġ1976": 4827,
      "ĠExpression": 4828,
      "Ġ95": 4829,
      "offset": 4830,
      "Ġincrease": 4831,
      "referen": 4832,
      "erial": 4833,
      "items": 4834,
      "Ġwhether": 4835,
      "\\\\'": 4836,
      "ĠPokemon": 4837,
      "Ġ1973": 4838,
      "','-": 4839,
      "Ġinspir": 4840,
      "ursive": 4841,
      "((": 4842,
      "09": 4843,
      "88": 4844,
      "Qj": 4845,
      "TV": 4846,
      "ears": 4847,
      "Ġlink": 4848,
      "ically": 4849,
      "...\\": 4850,
      "Ġrelationships": 4851,
      "ĠYES": 4852,
      "Ġfunctionality": 4853,
      "Ġtranslated": 4854,
      "Ġdesigner": 4855,
      "ToMany": 4856,
      "Ġcausing": 4857,
      "Ġillustr": 4858,
      "Ġelif": 4859,
      "Ġconversation": 4860,
      ").\",\"": 4861,
      "AR": 4862,
      "OV": 4863,
      "SU": 4864,
      "tire": 4865,
      "Ġanimal": 4866,
      "light": 4867,
      "epartment": 4868,
      "Ġ615": 4869,
      "Ġassistant": 4870,
      "FO": 4871,
      "INT": 4872,
      "SQL": 4873,
      "Venmo": 4874,
      "target": 4875,
      "Ġ\"*.": 4876,
      "quare": 4877,
      "Ġobt": 4878,
      "unit": 4879,
      "ĠNas": 4880,
      "ĠWas": 4881,
      "Ġcareful": 4882,
      "Ġfollowing": 4883,
      "skip": 4884,
      "Ġstudied": 4885,
      "genres": 4886,
      "Ġrecipient": 4887,
      "ĠâĢľ": 4888,
      "Ġmembers": 4889,
      "\")": 4890,
      "English": 4891,
      "])": 4892,
      "writ": 4893,
      "Ġaway": 4894,
      "anish": 4895,
      "tract": 4896,
      "Ġspecified": 4897,
      "Ġsetting": 4898,
      "Ġfollowers": 4899,
      "Ġfriendship": 4900,
      "lobals": 4901,
      "Ġgraduated": 4902,
      "KEY": 4903,
      "agonist": 4904,
      "ĠBritish": 4905,
      "ford": 4906,
      "tS": 4907,
      "Ġmuch": 4908,
      "Ġbel": 4909,
      "ĠSabrina": 4910,
      "irth": 4911,
      "ĠRit": 4912,
      "Ġbrother": 4913,
      "ERNAME": 4914,
      "ournal": 4915,
      "annotations": 4916,
      "Ġsafe": 4917,
      "Ġlandlocked": 4918,
      "SE": 4919,
      "cts": 4920,
      "}\\\\": 4921,
      "rig": 4922,
      "ĠSup": 4923,
      "ĠBa": 4924,
      "Ġ1993": 4925,
      "Ġ>>": 4926,
      "Ġdeck": 4927,
      "Ġdatabase": 4928,
      "ĠOlympics": 4929,
      "ĠWytock": 4930,
      "ĠSolomon": 4931,
      "hib": 4932,
      "Ġwinning": 4933,
      "try": 4934,
      "Ġru": 4935,
      "Ġcreation": 4936,
      "osp": 4937,
      "Ġprefix": 4938,
      "Ġinstances": 4939,
      "legal": 4940,
      "Ġadditional": 4941,
      "yle": 4942,
      "orig": 4943,
      "utually": 4944,
      "crete": 4945,
      "Ġlisting": 4946,
      "also": 4947,
      "Ġdefaults": 4948,
      "column": 4949,
      "Ġfocusing": 4950,
      "Ġannotations": 4951,
      "91": 4952,
      "Kj": 4953,
      "Ġbody": 4954,
      "Ġrepe": 4955,
      "lying": 4956,
      "signature": 4957,
      "Ġwrong": 4958,
      "previous": 4959,
      "Ġguitar": 4960,
      "Ġrenamed": 4961,
      "des": 4962,
      "Ġjoined": 4963,
      "aturing": 4964,
      "Ġpred": 4965,
      "Ġdram": 4966,
      "Ġ('": 4967,
      "ĠSend": 4968,
      "ĠBe": 4969,
      "formfield": 4970,
      "Expected": 4971,
      "random": 4972,
      "Ġbirthday": 4973,
      "Ġduplic": 4974,
      "GN": 4975,
      "Har": 4976,
      "Man": 4977,
      "Run": 4978,
      "\\\\\",": 4979,
      "Ġ},\\": 4980,
      "Ġreal": 4981,
      "ĠAttributeError": 4982,
      "ĠMusic": 4983,
      "ummy": 4984,
      "ounds": 4985,
      "Ġeval": 4986,
      "lobs": 4987,
      "Ġdoctor": 4988,
      "ĠâĨ": 4989,
      "Ġassoci": 4990,
      "wils": 4991,
      "Key": 4992,
      "With": 4993,
      "mg": 4994,
      "tb": 4995,
      "Ġjo": 4996,
      "Ġsite": 4997,
      "Ġmarri": 4998,
      "2016": 4999,
      "\\\\\\\"\\\\": 5000,
      "ĠRed": 5001,
      "aining": 5002,
      "Ġplat": 5003,
      "lower": 5004,
      "Ġanything": 5005,
      "ĠRead": 5006,
      "ĠSingapore": 5007,
      "nbash": 5008,
      "sort": 5009,
      "vd": 5010,
      "}')\\": 5011,
      "tim": 5012,
      "Ġreorgan": 5013,
      "mock": 5014,
      "Ġhash": 5015,
      "Ġitself": 5016,
      "ensive": 5017,
      "Ġinterpret": 5018,
      "Ġstore": 5019,
      "Ġallowed": 5020,
      "cii": 5021,
      "Ġprogress": 5022,
      "Ġinternational": 5023,
      "CZ": 5024,
      "IO": 5025,
      "RIn": 5026,
      "Ġsix": 5027,
      "Ġwicket": 5028,
      "thy": 5029,
      "ĠMorgan": 5030,
      "thony": 5031,
      "1980": 5032,
      "Ġagainst": 5033,
      "complete": 5034,
      "Ġsiblings": 5035,
      "Ġalias": 5036,
      "Ry": 5037,
      "ni": 5038,
      "Ġmis": 5039,
      "Ġblobs": 5040,
      "ocnl": 5041,
      "ĠSc": 5042,
      "roz": 5043,
      "Ġalong": 5044,
      "Ġrelevancy": 5045,
      "weights": 5046,
      "Ġtechn": 5047,
      "ierre": 5048,
      "cience": 5049,
      "property": 5050,
      "ĠRitter": 5051,
      "ocnlubWF": 5052,
      "220": 5053,
      "Point": 5054,
      "was": 5055,
      "xim": 5056,
      "atur": 5057,
      "iced": 5058,
      "room": 5059,
      "ĠPayment": 5060,
      "Ġshown": 5061,
      "ĠUs": 5062,
      "bert": 5063,
      "nsure": 5064,
      "Ġsomewhat": 5065,
      "ocnlubWFsZG": 5066,
      "From": 5067,
      "Im": 5068,
      "Ind": 5069,
      "JQ": 5070,
      "Meta": 5071,
      "Nm": 5072,
      "Sv": 5073,
      "Ġ90": 5074,
      "aries": 5075,
      "Ġdtype": 5076,
      "total": 5077,
      "anda": 5078,
      "ueprint": 5079,
      "\\\\\\\"\\\")\\": 5080,
      "Ġ61": 5081,
      "subparsers": 5082,
      "covered": 5083,
      "Ġrecent": 5084,
      "ĠPlaylist": 5085,
      "Parser": 5086,
      "Ġdepartment": 5087,
      "71": 5088,
      "Mat": 5089,
      "NB": 5090,
      "Wh": 5091,
      "ral": 5092,
      "Ġordered": 5093,
      "ene": 5094,
      "ication": 5095,
      "ĠSQL": 5096,
      "assign": 5097,
      "ability": 5098,
      "Ġprinting": 5099,
      "ĠJose": 5100,
      "Ġstrategy": 5101,
      "Ġlect": 5102,
      "ĠStep": 5103,
      "binable": 5104,
      "):**": 5105,
      "Ġindividuals": 5106,
      "lobal": 5107,
      "IGINT": 5108,
      "Ġattrs": 5109,
      "thbml": 5110,
      "acqueline": 5111,
      "DU": 5112,
      "HG": 5113,
      "bur": 5114,
      "qN": 5115,
      "Ã¼": 5116,
      "Ġsig": 5117,
      "Ġfouls": 5118,
      "ties": 5119,
      "ols": 5120,
      "Ġspecify": 5121,
      "ĠGr": 5122,
      "Ġ2001": 5123,
      "Ġtranslator": 5124,
      "Ġextra": 5125,
      "ĠFrance": 5126,
      ":\",": 5127,
      "bos": 5128,
      "ior": 5129,
      "erived": 5130,
      "Ġssl": 5131,
      "ario": 5132,
      "Ġdaughter": 5133,
      "tore": 5134,
      "Ġresol": 5135,
      "relationship": 5136,
      "tbytjb": 5137,
      "Ġdeleted": 5138,
      "including": 5139,
      "Ġmeaning": 5140,
      "ĠâĨĴ": 5141,
      "63": 5142,
      "72": 5143,
      "HJ": 5144,
      "ones": 5145,
      "ĠĠĠĠĠ": 5146,
      "exec": 5147,
      "Ġbeauty": 5148,
      "ĠWait": 5149,
      "003": 5150,
      "cles": 5151,
      "ĠGall": 5152,
      "ancial": 5153,
      "tbytj": 5154,
      "Extra": 5155,
      "Ġfailing": 5156,
      "Ġinvestig": 5157,
      "sky": 5158,
      "62": 5159,
      "Success": 5160,
      "ĠStates": 5161,
      "Ġcoord": 5162,
      "Ġregard": 5163,
      "Ġinstruction": 5164,
      "Implement": 5165,
      "Ġelements": 5166,
      "KUY": 5167,
      "Song": 5168,
      "UiS": 5169,
      "WNV": 5170,
      "\\\\\")\\\\": 5171,
      "bar": 5172,
      "unt": 5173,
      "zY": 5174,
      "ticles": 5175,
      "Ġnear": 5176,
      "Ġredu": 5177,
      "imbab": 5178,
      "ĠMont": 5179,
      "ighted": 5180,
      "Ġunable": 5181,
      "Testing": 5182,
      "YSD": 5183,
      "CQYSD": 5184,
      "lYmV": 5185,
      "EGoN": 5186,
      "Ġgrowth": 5187,
      "lBGN": 5188,
      "KUYzl": 5189,
      "UiSCQYSD": 5190,
      "WNVUiSCQYSD": 5191,
      "imbabwe": 5192,
      "EGoNtS": 5193,
      "lBGNQ": 5194,
      "=\\\\\"": 5195,
      "aud": 5196,
      "gments": 5197,
      "nC": 5198,
      "tle": 5199,
      "alar": 5200,
      "Ġfill": 5201,
      "more": 5202,
      "ilver": 5203,
      "ift": 5204,
      "pop": 5205,
      "ĠĠĠĠĠĠĠĠĠĠĠĠĠĠĠĠĠĠĠĠĠĠĠĠĠĠĠ": 5206,
      "puter": 5207,
      "register": 5208,
      "=[\\": 5209,
      "Ġfunctions": 5210,
      "Ġdistribution": 5211,
      "Hn": 5212,
      "JrT": 5213,
      "Total": 5214,
      "VMSv": 5215,
      "Xd": 5216,
      "aES": 5217,
      "can": 5218,
      "ctions": 5219,
      "eared": 5220,
      "eOO": 5221,
      "highest": 5222,
      "jJQ": 5223,
      "ney": 5224,
      "otel": 5225,
      "Ġ=>": 5226,
      "Ġhit": 5227,
      "ĠMaster": 5228,
      "doAL": 5229,
      "awa": 5230,
      "nTJrT": 5231,
      "RlbStkYXYubWFydEBnbWFpbC": 5232,
      "Ġweekday": 5233,
      "Ġheredoc": 5234,
      "Ġlanguage": 5235,
      "XAeOO": 5236,
      "Lyu": 5237,
      "VkKj": 5238,
      "VMSvdoAL": 5239,
      "aESHn": 5240,
      "jJQXAeOO": 5241,
      "nTJrTkA": 5242,
      "VMSvdoALjJQXAeOO": 5243,
      "VMSvdoALjJQXAeOOnTJrTkA": 5244,
      "ael": 5245,
      "fail": 5246,
      "hood": 5247,
      "Ġrem": 5248,
      "Ġls": 5249,
      "shape": 5250,
      "ĠPost": 5251,
      "ĠEm": 5252,
      "ĠChar": 5253,
      "ski": 5254,
      "Ġliterary": 5255,
      "Ġpromising": 5256,
      "Symbol": 5257,
      "RMQ": 5258,
      "codedFile": 5259,
      "Admin": 5260,
      "bosity": 5261,
      "GK": 5262,
      "nos": 5263,
      "ermin": 5264,
      "Ġworth": 5265,
      "Ġdinner": 5266,
      "Ġtook": 5267,
      "emble": 5268,
      "Ġ`/": 5269,
      "weber": 5270,
      "Ġletter": 5271,
      "Ġfails": 5272,
      "'''\\": 5273,
      "blac": 5274,
      "Finding": 5275,
      "DSML": 5276,
      "ED": 5277,
      "`:": 5278,
      "pc": 5279,
      "Ġsuc": 5280,
      "Ġpapers": 5281,
      "ĠWest": 5282,
      "ĠDi": 5283,
      "ĠDinner": 5284,
      "ĠDocument": 5285,
      "aka": 5286,
      "Ġ<<\\'": 5287,
      "Ġinvit": 5288,
      "Ġfeaturing": 5289,
      "Ġscored": 5290,
      "pretty": 5291,
      "'.\",\"": 5292,
      "=['": 5293,
      "fF": 5294,
      "Ġestim": 5295,
      "relevant": 5296,
      "erations": 5297,
      "Ġsession": 5298,
      "aron": 5299,
      "Ġfolk": 5300,
      "Ġinput": 5301,
      "called": 5302,
      "ĠCl": 5303,
      "aby": 5304,
      "ĠPri": 5305,
      "ĠUK": 5306,
      "irector": 5307,
      "nAnd": 5308,
      "nTop": 5309,
      "Ġimmed": 5310,
      "alias": 5311,
      "Ġdefined": 5312,
      "Out": 5313,
      "ned": 5314,
      "Ġsold": 5315,
      "\\\"')\\": 5316,
      "illegal": 5317,
      "Ġlaunched": 5318,
      "Ġshared": 5319,
      "Ġarticles": 5320,
      "ĠURL": 5321,
      "ression": 5322,
      "Ġsoap": 5323,
      "Ġplaying": 5324,
      "insp": 5325,
      "banded": 5326,
      "legraph": 5327,
      "èĽĭå©ļåºĨèĽĭå©ļåºĨèĽĭå©ļåºĨèĽĭå©ļåºĨèĽĭå©ļåºĨèĽĭå©ļåºĨèĽĭå©ļåºĨèĽĭå©ļåºĨèĽĭå©ļåºĨèĽĭå©ļåºĨèĽĭå©ļåºĨèĽĭå©ļåºĨèĽĭå©ļåºĨèĽĭå©ļåºĨèĽĭå©ļåºĨèĽĭå©ļåºĨèĽĭå©ļåºĨèĽĭå©ļåºĨèĽĭå©ļåºĨèĽĭå©ļåºĨèĽĭå©ļåºĨèĽĭå©ļåºĨèĽĭå©ļåºĨèĽĭå©ļåºĨèĽĭå©ļåºĨèĽĭå©ļåºĨèĽĭå©ļåºĨèĽĭå©ļåºĨèĽĭå©ļåºĨèĽĭå©ļåºĨèĽĭå©ļåºĨèĽĭå©ļåºĨ": 5328,
      "ĠGeor": 5329,
      "ospital": 5330,
      "Num": 5331,
      "Ub": 5332,
      "cum": 5333,
      "died": 5334,
      "qI": 5335,
      "tu": 5336,
      "ency": 5337,
      "Ġauto": 5338,
      "hered": 5339,
      "Ġfar": 5340,
      "ascii": 5341,
      "Ġda": 5342,
      "Ġopt": 5343,
      "ĠPremier": 5344,
      "Ġregex": 5345,
      "Ġ],\\": 5346,
      "Ab": 5347,
      "Am": 5348,
      "Gh": 5349,
      "duration": 5350,
      "hi": 5351,
      "ring": 5352,
      "atre": 5353,
      "tick": 5354,
      "\\\\)\\\\": 5355,
      "ĠStr": 5356,
      "Ġparts": 5357,
      "ensitive": 5358,
      "perl": 5359,
      "cover": 5360,
      "Ġbecome": 5361,
      "Ġquoted": 5362,
      "Ġauthentication": 5363,
      "Ġdefinitely": 5364,
      "'re": 5365,
      "One": 5366,
      "ere": 5367,
      "gar": 5368,
      "Ġduration": 5369,
      "eces": 5370,
      "ĠRec": 5371,
      "docids": 5372,
      "Ġmusicians": 5373,
      "Ġopera": 5374,
      "Ġwriting": 5375,
      "ĠCozens": 5376,
      "xvQGdtYWlsLmNvbSIsImV": 5377,
      "kathrynmaldonado": 5378,
      ">\\": 5379,
      "Found": 5380,
      "Loc": 5381,
      "km": 5382,
      "row": 5383,
      "sP": 5384,
      "Ġreason": 5385,
      "Ġgrew": 5386,
      "ĠRep": 5387,
      "vern": 5388,
      "Ġchecked": 5389,
      "Ġprobably": 5390,
      "Ġshowing": 5391,
      "ĠYu": 5392,
      "version": 5393,
      "ports": 5394,
      "achelor": 5395,
      "Ġgeneral": 5396,
      "flu": 5397,
      "detector": 5398,
      "Ġevents": 5399,
      "cx": 5400,
      "ech": 5401,
      "makemigrations": 5402,
      "Ġsociety": 5403,
      "Ġrapper": 5404,
      "Ġamong": 5405,
      "Ġstop": 5406,
      "Ġoccur": 5407,
      "GF": 5408,
      "GO": 5409,
      "IX": 5410,
      "Wrapper": 5411,
      "fG": 5412,
      "qF": 5413,
      "zM": 5414,
      "inv": 5415,
      "Ġscholarship": 5416,
      "Ġwidget": 5417,
      "tiago": 5418,
      "Ġdri": 5419,
      "Ġtow": 5420,
      "ĠSw": 5421,
      "ĠSociety": 5422,
      "pool": 5423,
      "\"},": 5424,
      "Ġeither": 5425,
      "();": 5426,
      "Ġcurrently": 5427,
      "ĠComp": 5428,
      "Import": 5429,
      "Ġaudio": 5430,
      "79": 5431,
      "award": 5432,
      "dW": 5433,
      "fig": 5434,
      "Ġ:": 5435,
      "alon": 5436,
      "\\\";": 5437,
      "2013": 5438,
      "ictions": 5439,
      "argo": 5440,
      "Ġ1981": 5441,
      "Ġclasses": 5442,
      "Ġbusinessman": 5443,
      "'.\\": 5444,
      "Frame": 5445,
      "Oh": 5446,
      "Rk": 5447,
      "Verify": 5448,
      "ks": 5449,
      "patched": 5450,
      "Ġ~/": 5451,
      "empts": 5452,
      "ĠFil": 5453,
      "ichael": 5454,
      "Ġfilters": 5455,
      "avy": 5456,
      "ĠAlbum": 5457,
      "(),": 5458,
      "500": 5459,
      "CE": 5460,
      "Cre": 5461,
      "LK": 5462,
      "bug": 5463,
      "cu": 5464,
      "kr": 5465,
      "xR": 5466,
      "Ġtalk": 5467,
      "athered": 5468,
      "Ġmar": 5469,
      "should": 5470,
      "ustice": 5471,
      "ĠPac": 5472,
      "Ġexperi": 5473,
      "Ġprimary": 5474,
      "eful": 5475,
      "Ġcontest": 5476,
      "\\\\\\\")\\\\": 5477,
      "ĠUser": 5478,
      "stract": 5479,
      "Ġ\\':": 5480,
      "Ġgovern": 5481,
      "who": 5482,
      "Ġalarms": 5483,
      "Ġasking": 5484,
      "fessor": 5485,
      "Ġbronze": 5486,
      "Ġscorer": 5487,
      "Ġinstitution": 5488,
      "Ġfeatured": 5489,
      "hibition": 5490,
      "PL": 5491,
      "small": 5492,
      "utive": 5493,
      "zQGdtYWlsLmNvbSIsImV": 5494,
      "Ġsuch": 5495,
      "Ġbl": 5496,
      "Ġdot": 5497,
      "movie": 5498,
      "ela": 5499,
      "ivision": 5500,
      "Ġshape": 5501,
      "ĠRangers": 5502,
      "ulty": 5503,
      "Ġalign": 5504,
      ":\\\\\\\\": 5505,
      "Ġattempts": 5506,
      "atherm": 5507,
      "aWxzQGdtYWlsLmNvbSIsImV": 5508,
      "ĠZimbabwe": 5509,
      "Ġestablish": 5510,
      "Ġdivor": 5511,
      "Ġ\\\"\\\"\\\"\\": 5512,
      "Ġrecipe": 5513,
      "ĠEnugu": 5514,
      "ĠWithout": 5515,
      "\".\\": 5516,
      "(?": 5517,
      ".'}": 5518,
      "IST": 5519,
      "ged": 5520,
      "may": 5521,
      "xarray": 5522,
      "ĠðŁ": 5523,
      "atively": 5524,
      "Ġport": 5525,
      "ĠTry": 5526,
      "andom": 5527,
      "ĠPort": 5528,
      "ĠBar": 5529,
      "defaultfilters": 5530,
      "Ġtranslation": 5531,
      "ajor": 5532,
      "fectly": 5533,
      "egrate": 5534,
      "]['": 5535,
      "mpos": 5536,
      "nD": 5537,
      "size": 5538,
      "Ġidentity": 5539,
      "Ġtake": 5540,
      "Ġsus": 5541,
      "isa": 5542,
      "iday": 5543,
      "cean": 5544,
      "ĠBest": 5545,
      "ĠChelsea": 5546,
      "ĠMontale": 5547,
      "mposium": 5548,
      "based": 5549,
      "fd": 5550,
      "ji": 5551,
      "mF": 5552,
      "Ġsouthern": 5553,
      "Ġmigration": 5554,
      "omen": 5555,
      "Ġgathered": 5556,
      "ĠMany": 5557,
      "ĠMulti": 5558,
      "Ġanime": 5559,
      "ĠBBC": 5560,
      "ĠField": 5561,
      "ĠStud": 5562,
      "within": 5563,
      "Searching": 5564,
      "ological": 5565,
      "ĠSongs": 5566,
      "parameters": 5567,
      "XP": 5568,
      "erem": 5569,
      "face": 5570,
      "Ġtall": 5571,
      "Ġtag": 5572,
      "rest": 5573,
      "Ġsu": 5574,
      "Ġsol": 5575,
      "Ġfolder": 5576,
      "Ġcache": 5577,
      "Ġmaking": 5578,
      "ĠPierre": 5579,
      "ĠBase": 5580,
      "ĠFellow": 5581,
      "ĠRel": 5582,
      "Ġleg": 5583,
      "Ġ1985": 5584,
      "character": 5585,
      "ĠQuery": 5586,
      "Ġprogram": 5587,
      "Ġobtained": 5588,
      ">.": 5589,
      "Enum": 5590,
      "cB": 5591,
      "dH": 5592,
      "Ġ(\\": 5593,
      "Ġgive": 5594,
      "Ġelected": 5595,
      "Ġsequ": 5596,
      "Ġreturning": 5597,
      "(\"\\\\": 5598,
      "migrate": 5599,
      "Decimal": 5600,
      "Ol": 5601,
      "dig": 5602,
      "down": 5603,
      "nc": 5604,
      "pause": 5605,
      "ective": 5606,
      "irl": 5607,
      "ĠMc": 5608,
      "inez": 5609,
      "Ġsubs": 5610,
      "Ġleave": 5611,
      "illiams": 5612,
      "ĠLikely": 5613,
      "Ġdrama": 5614,
      "ximately": 5615,
      "HK": 5616,
      "math": 5617,
      "nFor": 5618,
      "uQGdtYWlsLmNvbSIsImV": 5619,
      "Ġsec": 5620,
      "topher": 5621,
      "':\\": 5622,
      "quote": 5623,
      "exclusive": 5624,
      "ĠTypeError": 5625,
      "Ġge": 5626,
      "abor": 5627,
      "ĠRiver": 5628,
      "formed": 5629,
      "Ġdifference": 5630,
      "subs": 5631,
      "Ġsuccessful": 5632,
      "pdH": 5633,
      "snippet": 5634,
      "Uc": 5635,
      "mill": 5636,
      "sx": 5637,
      "uries": 5638,
      "wj": 5639,
      "erman": 5640,
      "Ġsav": 5641,
      "aring": 5642,
      "asing": 5643,
      "tiz": 5644,
      "aming": 5645,
      "ĠSud": 5646,
      "ĠHouse": 5647,
      "Ġ[\\'": 5648,
      "ĠJustice": 5649,
      "Ġfixture": 5650,
      "Ġmoved": 5651,
      "Ġpoem": 5652,
      "Ġamb": 5653,
      "Ġmodified": 5654,
      "Ġpartner": 5655,
      "displaying": 5656,
      "splitlines": 5657,
      "tbytqb": 5658,
      "ĠKorean": 5659,
      "])\"}": 5660,
      "cS": 5661,
      "Ġinvalid": 5662,
      "Ġhusband": 5663,
      "ĠSegal": 5664,
      "ĠFC": 5665,
      "Ġstand": 5666,
      "akers": 5667,
      "cretiz": 5668,
      "Ġalternative": 5669,
      "strategy": 5670,
      "columns": 5671,
      "Ġbands": 5672,
      "Ġfilms": 5673,
      "HNv": 5674,
      "ding": 5675,
      "iod": 5676,
      "oU": 5677,
      "',\\\\": 5678,
      "popen": 5679,
      "ĠEss": 5680,
      "Ġchampionship": 5681,
      "ĠOld": 5682,
      "pha": 5683,
      "Ġcover": 5684,
      "ruit": 5685,
      "Ġpolit": 5686,
      "ursor": 5687,
      "Ġresponse": 5688,
      "utalist": 5689,
      "Inspect": 5690,
      "Ġschedule": 5691,
      "/\\'": 5692,
      "Auto": 5693,
      "Ġ)\\\\": 5694,
      "Ġsocial": 5695,
      "Ġwinner": 5696,
      "ĠSmith": 5697,
      "extension": 5698,
      "anted": 5699,
      "Ġecho": 5700,
      "\\',\\\\": 5701,
      "Ġ||": 5702,
      "clude": 5703,
      "Ġformfield": 5704,
      "Ġ1986": 5705,
      "Ġattach": 5706,
      "elled": 5707,
      "ĠAlexander": 5708,
      ",'": 5709,
      "IA": 5710,
      "pP": 5711,
      "sX": 5712,
      "atter": 5713,
      "ayaking": 5714,
      "unlikely": 5715,
      "ĠAss": 5716,
      "ĠFargo": 5717,
      "ĠRiddle": 5718,
      "former": 5719,
      "Ġconfig": 5720,
      "Ġperiod": 5721,
      "Ġreported": 5722,
      "coordinates": 5723,
      "Ġdbname": 5724,
      "HNvbkBnbWFpbC": 5725,
      "\"?": 5726,
      ").\",": 5727,
      "BJ": 5728,
      "IF": 5729,
      "OU": 5730,
      "fc": 5731,
      "globals": 5732,
      "prep": 5733,
      "rd": 5734,
      "\\\\(\\\\": 5735,
      "Ġvers": 5736,
      "Ġ1940": 5737,
      "Ġexpr": 5738,
      "raft": 5739,
      "Ġ1992": 5740,
      "Ġhandles": 5741,
      "ERT": 5742,
      "GFy": 5743,
      "bU": 5744,
      "cue": 5745,
      "nX": 5746,
      "Ġtied": 5747,
      "align": 5748,
      "Ġfarm": 5749,
      "Ġnational": 5750,
      "adata": 5751,
      "ĠWilliams": 5752,
      "107": 5753,
      "Ġdocs": 5754,
      "Ġdiscus": 5755,
      "atern": 5756,
      "ĠRemove": 5757,
      "NTg": 5758,
      "ĠColumbia": 5759,
      "Ġvarious": 5760,
      "headed": 5761,
      "century": 5762,
      "ictionary": 5763,
      "/'": 5764,
      "PF": 5765,
      "WJ": 5766,
      "bing": 5767,
      "cached": 5768,
      "gre": 5769,
      "Ġpsql": 5770,
      "ĠAc": 5771,
      "ably": 5772,
      "ĠEng": 5773,
      "Ġperfectly": 5774,
      "built": 5775,
      "Ġreplacement": 5776,
      "Ġpossibly": 5777,
      "51": 5778,
      "PA": 5779,
      "UC": 5780,
      "VoU": 5781,
      "dist": 5782,
      "mIc": 5783,
      "som": 5784,
      "arson": 5785,
      "Ġdi": 5786,
      "Ġvir": 5787,
      "ĠII": 5788,
      "poson": 5789,
      "ĠAt": 5790,
      "ĠAnother": 5791,
      "Ġstage": 5792,
      "gether": 5793,
      "zdU": 5794,
      "ĠGame": 5795,
      "Ġnews": 5796,
      "geometry": 5797,
      "Ġtemp": 5798,
      "Ġpublication": 5799,
      "Ġexecution": 5800,
      "Product": 5801,
      "ĠBlackburn": 5802,
      "Ġpagination": 5803,
      "details": 5804,
      "GhE": 5805,
      "ISTX": 5806,
      "Olz": 5807,
      "pPmIc": 5808,
      "posonly": 5809,
      "pPmIcOlz": 5810,
      ".\")\\": 5811,
      "BE": 5812,
      "Fo": 5813,
      "Ref": 5814,
      "factory": 5815,
      "iology": 5816,
      "yan": 5817,
      "ention": 5818,
      "ĠIC": 5819,
      "Ġ2024": 5820,
      "Ġgave": 5821,
      "ĠAb": 5822,
      "ĠRun": 5823,
      "idered": 5824,
      "FAIL": 5825,
      "ĠSantiago": 5826,
      "month": 5827,
      "Maybe": 5828,
      "Zr": 5829,
      "Ġ'__": 5830,
      ")\\\\\\\\": 5831,
      "ĠTues": 5832,
      "ĠSim": 5833,
      "ĠNational": 5834,
      "abits": 5835,
      "Ġappeared": 5836,
      "Ġtextwrap": 5837,
      "Ġconsec": 5838,
      "={\\": 5839,
      "ĠOrder": 5840,
      "Ġbiograph": 5841,
      "Ġconditions": 5842,
      "Ġbranch": 5843,
      "Ġgraduate": 5844,
      "Ġremoved": 5845,
      "Ġfunds": 5846,
      "FORMS": 5847,
      "ĠBailey": 5848,
      "iu": 5849,
      "ief": 5850,
      "nsys": 5851,
      "pj": 5852,
      "ilipp": 5853,
      "ician": 5854,
      "ĠSatur": 5855,
      "endar": 5856,
      "verbosity": 5857,
      "Ġimportant": 5858,
      "Ġnewsletter": 5859,
      "ESS": 5860,
      "Ġactions": 5861,
      "Ġbucket": 5862,
      "ekroz": 5863,
      "Ġ1951": 5864,
      "xvbW": 5865,
      "Perfect": 5866,
      "Ġtraceback": 5867,
      "Ġsucceeded": 5868,
      "Ti": 5869,
      "nN": 5870,
      "yes": 5871,
      "enc": 5872,
      "itch": 5873,
      "tial": 5874,
      "today": 5875,
      "uses": 5876,
      "Ġ1972": 5877,
      "ighb": 5878,
      "Ġlocated": 5879,
      "nOther": 5880,
      "Ġsuper": 5881,
      "uka": 5882,
      "ĠNigerian": 5883,
      "tbytqby": 5884,
      "Ġquickly": 5885,
      "ĠChristmas": 5886,
      "Output": 5887,
      "Ġestablishment": 5888,
      "VV": 5889,
      "tT": 5890,
      "Ä±": 5891,
      "erge": 5892,
      "ittle": 5893,
      "Ġ\"\"\"\\": 5894,
      "Ġinher": 5895,
      "poleon": 5896,
      "ĠMed": 5897,
      "ĠBand": 5898,
      "Ġarray": 5899,
      "Ġequ": 5900,
      "Ġindepend": 5901,
      "ĠYork": 5902,
      "attach": 5903,
      "Ġordering": 5904,
      "Ġowe": 5905,
      "Ġ6097": 5906,
      "napoleon": 5907,
      "builders": 5908,
      "IntegerField": 5909,
      "Ġlanguages": 5910,
      "Ġadvoc": 5911,
      "Ġlecturer": 5912,
      "Be": 5913,
      "alog": 5914,
      "ooker": 5915,
      "ĠHigh": 5916,
      "Ġtimeouts": 5917,
      "issa": 5918,
      "Ġcenturies": 5919,
      "Ġspe": 5920,
      "attribute": 5921,
      "Ġbroader": 5922,
      "prefix": 5923,
      "Ġseparate": 5924,
      "aff": 5925,
      "Ġhistor": 5926,
      ").__": 5927,
      "WItY": 5928,
      "Ġ35": 5929,
      "ĠStart": 5930,
      "Ġiniti": 5931,
      "ĠXOR": 5932,
      "\"\"\"\\": 5933,
      "Ġdestroyed": 5934,
      "CCESS": 5935,
      "nJvd": 5936,
      "Harvard": 5937,
      "zYWItY": 5938,
      "zYWItYnJvd": 5939,
      "800": 5940,
      "CERT": 5941,
      "Hm": 5942,
      "ZC": 5943,
      "qop": 5944,
      "Ġsounds": 5945,
      "lead": 5946,
      "\\\"{": 5947,
      "exit": 5948,
      "ĠClass": 5949,
      "Ġuseful": 5950,
      "Ġxargs": 5951,
      "Ġomega": 5952,
      "Imputer": 5953,
      "Europe": 5954,
      "hZG": 5955,
      "ride": 5956,
      "simp": 5957,
      "tags": 5958,
      "wB": 5959,
      "Ġsquare": 5960,
      "ifies": 5961,
      "Ġ{\"": 5962,
      "Ġprinted": 5963,
      "Ġ614": 5964,
      "Ġindeed": 5965,
      "Ġacadem": 5966,
      "Ġsport": 5967,
      "Ġcharacteristics": 5968,
      "ĠAlready": 5969,
      "Ġstudy": 5970,
      "PGPASSWORD": 5971,
      "Ġcalendar": 5972,
      "Ġoriginally": 5973,
      "alidation": 5974,
      "tbytrYXRocnlubWFsZG": 5975,
      "*\\\\": 5976,
      "UP": 5977,
      "tYW": 5978,
      "Ġfestival": 5979,
      "ots": 5980,
      "ada": 5981,
      "outlier": 5982,
      "ĠDis": 5983,
      "ĠEcho": 5984,
      "Ġsetup": 5985,
      "ĠSte": 5986,
      "ĠYou": 5987,
      "Ġattack": 5988,
      "Ġweekend": 5989,
      "xkb": 5990,
      "Ġpreventing": 5991,
      "elebr": 5992,
      "tYWxkb": 5993,
      ")**": 5994,
      "Ag": 5995,
      "Gd": 5996,
      "He": 5997,
      "]+": 5998,
      "gY": 5999,
      "keep": 6000,
      "ran": 6001,
      "tH": 6002,
      "icm": 6003,
      "Ġ`<": 6004,
      "ĠEli": 6005,
      "ipts": 6006,
      "Ġforms": 6007,
      "Ġmatplotlib": 6008,
      "Ġconsidered": 6009,
      "={'": 6010,
      "Ġtried": 6011,
      "Ġcalculate": 6012,
      "GGGGGGGG": 6013,
      "otograph": 6014,
      "260": 6015,
      "=\\\\\\\"": 6016,
      "MK": 6017,
      "NhaW": 6018,
      "gae": 6019,
      "ses": 6020,
      "variable": 6021,
      "Ġeff": 6022,
      "eral": 6023,
      "asc": 6024,
      "iculty": 6025,
      "ĠSk": 6026,
      "ĠSub": 6027,
      "iry": 6028,
      "Ġgirl": 6029,
      "ĠBah": 6030,
      "Ġexception": 6031,
      "Ġ**\"": 6032,
      "=\\\"'": 6033,
      "tbythbml": 6034,
      "Ġ1894": 6035,
      "cmNAZ": 6036,
      "RvaX": 6037,
      "ealand": 6038,
      "NhaWJ": 6039,
      "RvaXN": 6040,
      "New": 6041,
      "Os": 6042,
      "nfinish": 6043,
      "rt": 6044,
      "zA": 6045,
      "iney": 6046,
      "ony": 6047,
      "anu": 6048,
      "intech": 6049,
      "ĠTwo": 6050,
      "ĠPart": 6051,
      "Ġseem": 6052,
      "Ġtokens": 6053,
      "Ġcaptain": 6054,
      "Ġphysics": 6055,
      "Ġpolylog": 6056,
      "ustral": 6057,
      "Ġextension": 6058,
      "Ġnetwork": 6059,
      "76": 6060,
      "EN": 6061,
      "OF": 6062,
      "ean": 6063,
      "echo": 6064,
      "qy": 6065,
      "Ġsql": 6066,
      "alternative": 6067,
      "ites": 6068,
      "ombo": 6069,
      "Ġrecomm": 6070,
      "thens": 6071,
      "shi": 6072,
      "ĠAm": 6073,
      "ĠRock": 6074,
      "Ġadmin": 6075,
      "Ġunlikely": 6076,
      "Ġvaluation": 6077,
      "ientist": 6078,
      "ĠAnthony": 6079,
      "authored": 6080,
      "Ġ1968": 6081,
      "Ġxr": 6082,
      "Ġsorted": 6083,
      "Ġcrash": 6084,
      "combined": 6085,
      "Dinner": 6086,
      "GMT": 6087,
      "VM": 6088,
      "fYm": 6089,
      "node": 6090,
      "sig": 6091,
      "erry": 6092,
      "Ġ'%": 6093,
      "omas": 6094,
      "oll": 6095,
      "that": 6096,
      "icode": 6097,
      "agan": 6098,
      "Ġwithdraw": 6099,
      "ĠGh": 6100,
      "ĠOct": 6101,
      "Ġsubscript": 6102,
      "Ġcodebase": 6103,
      "Ġentire": 6104,
      "Ġseconds": 6105,
      "locator": 6106,
      "ĠUSA": 6107,
      "Ġqop": 6108,
      "Ġincorrectly": 6109,
      "ĠItaly": 6110,
      "aur": 6111,
      "hist": 6112,
      "rain": 6113,
      "Ġfac": 6114,
      "Ġpat": 6115,
      "irs": 6116,
      "ĠNic": 6117,
      "ogn": 6118,
      "ĠDE": 6119,
      "ĠHT": 6120,
      "Ġ\\'%": 6121,
      "ĠJombo": 6122,
      "Ġheld": 6123,
      "vals": 6124,
      "checked": 6125,
      "Ġ1997": 6126,
      "Ġexpired": 6127,
      "debt": 6128,
      "Ġcapture": 6129,
      "uZSsz": 6130,
      "Ġpoetry": 6131,
      "Ġreceipts": 6132,
      "Ġpieces": 6133,
      "ZUBnbWFpbC": 6134,
      "ĠAppro": 6135,
      "Number": 6136,
      "##": 6137,
      "req": 6138,
      "Ġsat": 6139,
      "Ġreli": 6140,
      "elv": 6141,
      "Ġloss": 6142,
      "ochem": 6143,
      "Ġshop": 6144,
      "projects": 6145,
      "Ġcontrib": 6146,
      "ĠLand": 6147,
      "kpc": 6148,
      "ensemble": 6149,
      "Ġ2006": 6150,
      "Ġexpand": 6151,
      ".\\\")\\": 6152,
      "hL": 6153,
      "nm": 6154,
      "win": 6155,
      "Ġcounts": 6156,
      "Ġwater": 6157,
      "Ġded": 6158,
      "ĠCap": 6159,
      "indi": 6160,
      "ĠJun": 6161,
      "Ġresolve": 6162,
      "Ġ65": 6163,
      "umni": 6164,
      "Ġteaching": 6165,
      "Ġgovernment": 6166,
      ">.<": 6167,
      "Cont": 6168,
      "IM": 6169,
      "kc": 6170,
      "vr": 6171,
      "Ġillegal": 6172,
      "resh": 6173,
      "Ġpen": 6174,
      "Ġmigrations": 6175,
      "Ġ'')\\": 6176,
      "2017": 6177,
      "imum": 6178,
      "usa": 6179,
      "Ġneighb": 6180,
      "ĠCity": 6181,
      "ĠCory": 6182,
      "ĠAg": 6183,
      "ĠMing": 6184,
      "ĠHam": 6185,
      "ĠGama": 6186,
      "Ġconsult": 6187,
      "Ġ{}\\": 6188,
      "bucket": 6189,
      "ĠZealand": 6190,
      "negie": 6191,
      "Implemented": 6192,
      "ĠGhana": 6193,
      "\"**": 6194,
      "86": 6195,
      "Case": 6196,
      "firm": 6197,
      "map": 6198,
      "net": 6199,
      "pace": 6200,
      "rn": 6201,
      "inent": 6202,
      "atan": 6203,
      "ifest": 6204,
      "ami": 6205,
      "\",\"": 6206,
      "icago": 6207,
      "shuffle": 6208,
      "tsaW": 6209,
      "uter": 6210,
      "iva": 6211,
      "Ġrhs": 6212,
      "ĠYoung": 6213,
      "appendChild": 6214,
      "Ġfollower": 6215,
      "http": 6216,
      "'d": 6217,
      "CW": 6218,
      "Type": 6219,
      "Yx": 6220,
      "_.": 6221,
      "ole": 6222,
      "vies": 6223,
      "chand": 6224,
      "2014": 6225,
      "ĠScience": 6226,
      "sequ": 6227,
      "umba": 6228,
      "Ġiter": 6229,
      "Ġadap": 6230,
      "Ġinducted": 6231,
      "Ġdelet": 6232,
      "ĠLee": 6233,
      "Ġimplies": 6234,
      "Ġriver": 6235,
      "escape": 6236,
      "ambda": 6237,
      "Ġinvolves": 6238,
      "ltcHNvbkBnbWFpbC": 6239,
      "Tracking": 6240,
      "Ġeducation": 6241,
      "!\")\\": 6242,
      "92": 6243,
      "Ok": 6244,
      "fam": 6245,
      "fetch": 6246,
      "ncmd": 6247,
      "inem": 6248,
      "ening": 6249,
      "Ġframe": 6250,
      "Ġpers": 6251,
      "asco": 6252,
      "Ġreally": 6253,
      "ules": 6254,
      "ecret": 6255,
      "Ġhours": 6256,
      "roid": 6257,
      "about": 6258,
      "ĠDatabaseClient": 6259,
      "Ġequal": 6260,
      "ĠKing": 6261,
      "Ġconnections": 6262,
      "Ġfeatures": 6263,
      "FILE": 6264,
      "ydrating": 6265,
      "Ġassigned": 6266,
      "ĠDecimalField": 6267,
      "Ġassociated": 6268,
      "(*": 6269,
      "HH": 6270,
      "dr": 6271,
      "nx": 6272,
      "ye": 6273,
      "Ġax": 6274,
      "atest": 6275,
      "Ġbatch": 6276,
      "\\\":": 6277,
      "omes": 6278,
      "Ġrepr": 6279,
      "through": 6280,
      "pylint": 6281,
      "prop": 6282,
      "artered": 6283,
      "ificans": 6284,
      "ĠGood": 6285,
      "iversary": 6286,
      "ĠStamp": 6287,
      "Ġ\\\\\\\"\\\\\\\"\\\\\\\"": 6288,
      "thesis": 6289,
      "ĠArcher": 6290,
      "ĠAnita": 6291,
      "Ġintended": 6292,
      "passes": 6293,
      "validation": 6294,
      "reviews": 6295,
      "original": 6296,
      "Ġsuite": 6297,
      "Ġrecommended": 6298,
      "(-": 6299,
      "Gbed": 6300,
      "Ols": 6301,
      "Sb": 6302,
      "Zgw": 6303,
      "dQj": 6304,
      "Ġtogether": 6305,
      "els": 6306,
      "ayer": 6307,
      "\\'),": 6308,
      "ĠMod": 6309,
      "illar": 6310,
      "1995": 6311,
      "ODqJ": 6312,
      "Ġapproximately": 6313,
      "Ġjazz": 6314,
      "Ġcoll": 6315,
      "Ġindex": 6316,
      "Ġmoving": 6317,
      "approved": 6318,
      "Ġolder": 6319,
      "Ġstudio": 6320,
      "Ġpositions": 6321,
      "Ġofficer": 6322,
      "BUG": 6323,
      "pIZgw": 6324,
      "xRODqJ": 6325,
      "Ġversion": 6326,
      "vrxRODqJ": 6327,
      "Gbediu": 6328,
      "dQjGbediu": 6329,
      "pIZgwN": 6330,
      "vrxRODqJOls": 6331,
      "Habit": 6332,
      "Sup": 6333,
      "]',": 6334,
      "dy": 6335,
      "oE": 6336,
      "yl": 6337,
      "asic": 6338,
      "early": 6339,
      "Ġnun": 6340,
      "Ġrepo": 6341,
      "ndoc": 6342,
      "Ġven": 6343,
      ":\\\\\",": 6344,
      "ĠPhone": 6345,
      "erview": 6346,
      "ptor": 6347,
      "Ġfounders": 6348,
      "Ġfinals": 6349,
      "Ġtelevision": 6350,
      "encement": 6351,
      "venue": 6352,
      "OutputClassifier": 6353,
      ":\\\")\\": 6354,
      "[-": 6355,
      "bine": 6356,
      "eh": 6357,
      "lq": 6358,
      "sely": 6359,
      "ued": 6360,
      "ways": 6361,
      "Ġ}": 6362,
      "Ġtreat": 6363,
      "anford": 6364,
      "Ġfalse": 6365,
      "asia": 6366,
      "Ġinflu": 6367,
      "Ġdish": 6368,
      "\\\\|": 6369,
      "odys": 6370,
      "iris": 6371,
      "plasia": 6372,
      "ĠMu": 6373,
      "Ġpropos": 6374,
      "104": 6375,
      "907": 6376,
      "Ġ47": 6377,
      "'].": 6378,
      "ssificans": 6379,
      "Ġindie": 6380,
      "Ġeng": 6381,
      "ibrodys": 6382,
      "Ġ\\\\'": 6383,
      "ĠĠĠĠĠĠĠĠĠĠĠĠĠĠĠĠĠĠĠĠ": 6384,
      "Ġ1965": 6385,
      "compiler": 6386,
      "Coord": 6387,
      "Ġorganization": 6388,
      "Ġdebtor": 6389,
      "ibrodysplasia": 6390,
      "GS": 6391,
      "IK": 6392,
      "dJ": 6393,
      "psql": 6394,
      "Ġtx": 6395,
      "ened": 6396,
      "Ġmapping": 6397,
      "Ġbin": 6398,
      "Ġvis": 6399,
      "ĠTable": 6400,
      "ades": 6401,
      "ntax": 6402,
      "ĠMus": 6403,
      "outer": 6404,
      "ĠNicholas": 6405,
      "uman": 6406,
      "Ġstreet": 6407,
      "ured": 6408,
      "Ġkwargs": 6409,
      "Ġcompute": 6410,
      "mann": 6411,
      "ĠCarl": 6412,
      "configured": 6413,
      "kyCoord": 6414,
      "Return": 6415,
      "600": 6416,
      "Pop": 6417,
      "cor": 6418,
      "ging": 6419,
      "missing": 6420,
      "vv": 6421,
      "wal": 6422,
      "ya": 6423,
      "Ġflow": 6424,
      "itary": 6425,
      "2005": 6426,
      "shares": 6427,
      "Ġonline": 6428,
      "ĠDirector": 6429,
      "Ġrank": 6430,
      "yphen": 6431,
      "Ġattended": 6432,
      "Ġprec": 6433,
      "Ġbird": 6434,
      "Ġmanually": 6435,
      "carbrown": 6436,
      "Ġannual": 6437,
      "ĠChristopher": 6438,
      "ĠOnly": 6439,
      "Ġviral": 6440,
      "')\"}": 6441,
      "61": 6442,
      "Dv": 6443,
      "Og": 6444,
      "Yk": 6445,
      "Zy": 6446,
      "dpc": 6447,
      "mk": 6448,
      "pf": 6449,
      "xpdH": 6450,
      "Ġclient": 6451,
      "Ġok": 6452,
      "Ġhouse": 6453,
      "irrelevant": 6454,
      "aging": 6455,
      "ĠMon": 6456,
      "ĠMOD": 6457,
      "Ġexhibition": 6458,
      "Ġarr": 6459,
      "ĠHas": 6460,
      "Ġgets": 6461,
      "clause": 6462,
      "formset": 6463,
      "Ġtesting": 6464,
      "Ġ1977": 6465,
      "country": 6466,
      "eyJzdWIiOiJzcGxpdH": 6467,
      "Ġcombination": 6468,
      "ĠTodd": 6469,
      "Ġkeeps": 6470,
      "Ġprotagonist": 6471,
      "solo": 6472,
      "references": 6473,
      "eyJzdWIiOiJzcGxpdHdpc": 6474,
      "BBY": 6475,
      "DP": 6476,
      "ntime": 6477,
      "xMT": 6478,
      "inct": 6479,
      "Ġten": 6480,
      "rend": 6481,
      "onom": 6482,
      "era": 6483,
      "alpha": 6484,
      "Ġmajor": 6485,
      "Ġbat": 6486,
      "Ġdual": 6487,
      "emic": 6488,
      "gher": 6489,
      "ĠAMS": 6490,
      "Ġexpect": 6491,
      "Ġ\\\"\\": 6492,
      "Ġ44": 6493,
      "Ġbreaks": 6494,
      "Ġseasons": 6495,
      "destination": 6496,
      "pping": 6497,
      "Ġauthenticate": 6498,
      "Ġdeveloper": 6499,
      "rUR": 6500,
      "Matt": 6501,
      "Rec": 6502,
      "birth": 6503,
      "hW": 6504,
      "ii": 6505,
      "msub": 6506,
      "rees": 6507,
      "Ġfig": 6508,
      "Ġderived": 6509,
      "ulate": 6510,
      "university": 6511,
      "ĠCont": 6512,
      "Ġfilepaths": 6513,
      "asket": 6514,
      "ĠJacqueline": 6515,
      "ĠOs": 6516,
      "Ġfinished": 6517,
      "Ġtimeline": 6518,
      "Ġdisbanded": 6519,
      "chnology": 6520,
      "Ġfalls": 6521,
      "<<'": 6522,
      "Ġsubstitutions": 6523,
      "Ġsurveyor": 6524,
      "cellent": 6525,
      "ĠPrize": 6526,
      "ZrW": 6527,
      "umbai": 6528,
      "YyG": 6529,
      "cnR": 6530,
      "fH": 6531,
      "hos": 6532,
      "married": 6533,
      "oOW": 6534,
      "wk": 6535,
      "inbox": 6536,
      "enced": 6537,
      "tian": 6538,
      "tired": 6539,
      "stant": 6540,
      "thX": 6541,
      "aya": 6542,
      "rian": 6543,
      "Ġoften": 6544,
      "rop": 6545,
      "Ġstats": 6546,
      "ĠDet": 6547,
      "ĠDepartment": 6548,
      "Ġ\\'-": 6549,
      "loader": 6550,
      "unday": 6551,
      "ĠExists": 6552,
      "nBfH": 6553,
      "ĠWho": 6554,
      "Ġreferenced": 6555,
      "gyoOW": 6556,
      "SVP": 6557,
      "qsZy": 6558,
      "ĠConfigure": 6559,
      "genre": 6560,
      "Ġzero": 6561,
      "nfig": 6562,
      "Ġswelling": 6563,
      "children": 6564,
      "Qgpu": 6565,
      "diff": 6566,
      "BBYZrW": 6567,
      "YyGQgpu": 6568,
      "cnRAZ": 6569,
      "gyoOWzD": 6570,
      "BBYZrWnBfH": 6571,
      "Alex": 6572,
      "Book": 6573,
      "Files": 6574,
      "OI": 6575,
      "dN": 6576,
      "lim": 6577,
      "larg": 6578,
      "nphone": 6579,
      "ov": 6580,
      "rhs": 6581,
      "uL": 6582,
      "xG": 6583,
      "zone": 6584,
      "iscu": 6585,
      "Ġfine": 6586,
      "ĠTim": 6587,
      "ĠAsh": 6588,
      "Ġconference": 6589,
      "aWRk": 6590,
      "weighted": 6591,
      "Ġsubparsers": 6592,
      "Ġfinancial": 6593,
      "ĠState": 6594,
      "Ġfixed": 6595,
      "bGVAZ": 6596,
      "Ġassignee": 6597,
      "published": 6598,
      "widgets": 6599,
      "Fixed": 6600,
      "SUCCESS": 6601,
      "aWRkbGVAZ": 6602,
      "Ct": 6603,
      "PT": 6604,
      "Richard": 6605,
      "Wx": 6606,
      "Zj": 6607,
      "dep": 6608,
      "fE": 6609,
      "life": 6610,
      "mul": 6611,
      "nE": 6612,
      "pbGV": 6613,
      "wm": 6614,
      "reference": 6615,
      "Ġwent": 6616,
      "oman": 6617,
      "thread": 6618,
      "Ġdocumentation": 6619,
      "nThat": 6620,
      "ooleanField": 6621,
      "anned": 6622,
      "Ġreading": 6623,
      "RET": 6624,
      "ECRET": 6625,
      "Ġtwice": 6626,
      "ca": 6627,
      "ded": 6628,
      "lindsey": 6629,
      "ox": 6630,
      "winning": 6631,
      "yon": 6632,
      "zab": 6633,
      "ifteen": 6634,
      "urk": 6635,
      "ĠBased": 6636,
      "ĠBerg": 6637,
      "Ġstated": 6638,
      "Ġrandom": 6639,
      "Ġapplic": 6640,
      "owned": 6641,
      "film": 6642,
      "minutes": 6643,
      "Ġclassical": 6644,
      "Ġdifficulty": 6645,
      "Ġbrothers": 6646,
      "atically": 6647,
      "Ġasked": 6648,
      "Ġlonger": 6649,
      "ĠAsian": 6650,
      "Ġaccordingly": 6651,
      "ĠMelissa": 6652,
      "TimeField": 6653,
      "Ġdivorced": 6654,
      "European": 6655,
      "zabeth": 6656,
      "You": 6657,
      "_%": 6658,
      "kS": 6659,
      "Ġtick": 6660,
      "ateg": 6661,
      "seek": 6662,
      "ĠMag": 6663,
      "ĠWWI": 6664,
      "('\\\\": 6665,
      "constr": 6666,
      "Ġparam": 6667,
      "Ġ1890": 6668,
      "Ġinsufficient": 6669,
      "Ġnumeric": 6670,
      "Ġraises": 6671,
      "awak": 6672,
      "Ġproviding": 6673,
      "ĠTherefore": 6674,
      "svm": 6675,
      "ĠNicolas": 6676,
      "300": 6677,
      "Gi": 6678,
      "Try": 6679,
      "Ug": 6680,
      "gin": 6681,
      "hc": 6682,
      "nTest": 6683,
      "side": 6684,
      "Ġcamp": 6685,
      "__)\\": 6686,
      "ille": 6687,
      "Ġ(\"": 6688,
      "\\']\\": 6689,
      "Ġaren": 6690,
      "Ġsymposium": 6691,
      "ĠâľĹ": 6692,
      "ĠSea": 6693,
      "Ġmarriage": 6694,
      "Ġsequence": 6695,
      "GFyckBnbWFpbC": 6696,
      "awakami": 6697,
      ".*": 6698,
      "87": 6699,
      "::": 6700,
      "BA": 6701,
      "Nla": 6702,
      "SIGINT": 6703,
      "TE": 6704,
      "agher": 6705,
      "fM": 6706,
      "fk": 6707,
      "kEk": 6708,
      "nlines": 6709,
      "oP": 6710,
      "yrU": 6711,
      "enum": 6712,
      "article": 6713,
      "leep": 6714,
      "Ġnormal": 6715,
      "veoP": 6716,
      "urther": 6717,
      "ĠMary": 6718,
      "Ġprojects": 6719,
      "Ġkayaking": 6720,
      "ributes": 6721,
      "ugural": 6722,
      "128": 6723,
      "Ġlength": 6724,
      "2004": 6725,
      "formats": 6726,
      "MEf": 6727,
      "Ġ132": 6728,
      "ĠIndian": 6729,
      "Ġdebuted": 6730,
      "Ġtemplate": 6731,
      "ptsyrU": 6732,
      "Ġprominent": 6733,
      "Ġadjustable": 6734,
      "Ġofficial": 6735,
      "Ġpiece": 6736,
      "QkkEk": 6737,
      "rRiH": 6738,
      "changes": 6739,
      "ĠGeorge": 6740,
      "zMMEf": 6741,
      "Ġspeaker": 6742,
      "IMkS": 6743,
      "NlaGFyckBnbWFpbC": 6744,
      "QkkEkc": 6745,
      "IMkSNh": 6746,
      "'\\\")\\": 6747,
      "<|": 6748,
      "VY": 6749,
      "so": 6750,
      "smith": 6751,
      "xl": 6752,
      "|>": 6753,
      "arily": 6754,
      "Ġfintech": 6755,
      "Ġcore": 6756,
      "Ġinte": 6757,
      "Ġrepro": 6758,
      "ĠCy": 6759,
      "ĠNet": 6760,
      "ĠDon": 6761,
      "Ġeight": 6762,
      "Ġtrying": 6763,
      "phrase": 6764,
      "confirm": 6765,
      "Ġ700": 6766,
      "Ġdecimal": 6767,
      "translated": 6768,
      "Eb": 6769,
      "HM": 6770,
      "],\\": 6771,
      "dual": 6772,
      "erences": 6773,
      "ju": 6774,
      "lore": 6775,
      "atu": 6776,
      "Ġcpu": 6777,
      "Ġ'+": 6778,
      "ills": 6779,
      "ĠComm": 6780,
      "Ġ\\'__": 6781,
      "series": 6782,
      "ĠChicago": 6783,
      "168": 6784,
      "Ġcolor": 6785,
      "processing": 6786,
      "Ġrecursive": 6787,
      "Ġmentioning": 6788,
      "nMost": 6789,
      "include": 6790,
      "Ġpriority": 6791,
      "handler": 6792,
      "Ġinvestigate": 6793,
      "greSQL": 6794,
      "Ġconsecutive": 6795,
      "ĠParty": 6796,
      "'):\\": 6797,
      "Do": 6798,
      "nall": 6799,
      "nout": 6800,
      "section": 6801,
      "xh": 6802,
      "edy": 6803,
      "Ġmom": 6804,
      "Ġlow": 6805,
      "ĠSil": 6806,
      "ĠCarm": 6807,
      "Ġexclusive": 6808,
      "sych": 6809,
      "azy": 6810,
      "Ġservice": 6811,
      "Ġprofessional": 6812,
      "evalf": 6813,
      "Ġkeywords": 6814,
      "Ġwalking": 6815,
      "Ġimmediate": 6816,
      "anuatu": 6817,
      "DJ": 6818,
      "FQ": 6819,
      "HS": 6820,
      "Hy": 6821,
      "Pq": 6822,
      "las": 6823,
      "met": 6824,
      "Ġio": 6825,
      "release": 6826,
      "ompress": 6827,
      "ells": 6828,
      "Ġrather": 6829,
      "ificant": 6830,
      "Ġelectric": 6831,
      "loves": 6832,
      "sertion": 6833,
      "ĠStreet": 6834,
      "Ġ8907": 6835,
      "Ġmovies": 6836,
      "entially": 6837,
      "ĠAnn": 6838,
      "preter": 6839,
      "cleanup": 6840,
      "Ġhosted": 6841,
      "uckArray": 6842,
      "server": 6843,
      "ĠMartinez": 6844,
      "ufts": 6845,
      "Ġplatform": 6846,
      "ĠOlds": 6847,
      ":\\',\\": 6848,
      "Doc": 6849,
      "Jy": 6850,
      "Rt": 6851,
      "VR": 6852,
      "fP": 6853,
      "night": 6854,
      "scap": 6855,
      "uz": 6856,
      "reece": 6857,
      "atie": 6858,
      "edding": 6859,
      "ouis": 6860,
      "elta": 6861,
      "Ġossificans": 6862,
      "urls": 6863,
      "ĠAuthor": 6864,
      "Ġ1911": 6865,
      "ĠFA": 6866,
      "Ġusage": 6867,
      "ccoy": 6868,
      "ards": 6869,
      "(\\\"\\\\": 6870,
      "Ġseven": 6871,
      "Ġjournal": 6872,
      "reek": 6873,
      "director": 6874,
      "migrant": 6875,
      "UniqueConstraint": 6876,
      "ĠCarnegie": 6877,
      "pointed": 6878,
      "Ġprompt": 6879,
      "Ġpickle": 6880,
      "saferepr": 6881,
      "));": 6882,
      ".')\\": 6883,
      "Ding": 6884,
      "Ed": 6885,
      "PC": 6886,
      "Vd": 6887,
      "When": 6888,
      "aK": 6889,
      "cuY": 6890,
      "hdH": 6891,
      "member": 6892,
      "mxhY": 6893,
      "nres": 6894,
      "rAp": 6895,
      "tzname": 6896,
      "ware": 6897,
      "xW": 6898,
      "Ġcities": 6899,
      "Ġmanga": 6900,
      "Ġbiscu": 6901,
      "toir": 6902,
      "Ġrecall": 6903,
      "ilitary": 6904,
      "ifique": 6905,
      "amnS": 6906,
      "ador": 6907,
      "ĠAk": 6908,
      "ĠMccoy": 6909,
      "ĠBreak": 6910,
      "Ġsea": 6911,
      "Ġable": 6912,
      "Ġbutter": 6913,
      "Ġqual": 6914,
      "ĠOther": 6915,
      "Ġpasses": 6916,
      "Ġstarting": 6917,
      "ZXcuY": 6918,
      "'],\\": 6919,
      "pgpass": 6920,
      "Ġguess": 6921,
      "ĠRegister": 6922,
      "dataset": 6923,
      "Ġdegrees": 6924,
      "EGrAp": 6925,
      "fixturedef": 6926,
      "RoZXcuY": 6927,
      "Ġconstruction": 6928,
      "ĠReddit": 6929,
      "ĠPacifique": 6930,
      "mathml": 6931,
      "ĠEssential": 6932,
      "CWbU": 6933,
      "hdHRoZXcuY": 6934,
      "amnSF": 6935,
      "EGrApamnSF": 6936,
      "hdHRoZXcuYmxhY": 6937,
      "Etc": 6938,
      "isf": 6939,
      "Ġbank": 6940,
      "moore": 6941,
      "Ġ(\\'": 6942,
      "ulation": 6943,
      "ĠTor": 6944,
      "ĠSum": 6945,
      "ĠBusiness": 6946,
      "ĠEr": 6947,
      "Ġsongwriter": 6948,
      "features": 6949,
      "Ġ2007": 6950,
      "Ġbroadc": 6951,
      "Ġperformed": 6952,
      "obby": 6953,
      "Ġacknowledgments": 6954,
      "chandising": 6955,
      "Equal": 6956,
      "eF": 6957,
      "mad": 6958,
      "pO": 6959,
      "pick": 6960,
      "Ġqs": 6961,
      "onies": 6962,
      "Ġawk": 6963,
      "edges": 6964,
      "Ġcertain": 6965,
      "Ġnation": 6966,
      "icts": 6967,
      "Ġgiving": 6968,
      "ĠNor": 6969,
      "Ġbytes": 6970,
      "Ġreset": 6971,
      "ĠKawakami": 6972,
      "Ġ<=": 6973,
      "aitlin": 6974,
      "MEA": 6975,
      "expand": 6976,
      "Ġedge": 6977,
      "Ġanalysis": 6978,
      "daq": 6979,
      "TURE": 6980,
      "oreignKey": 6981,
      "Ġinspiration": 6982,
      "pooling": 6983,
      "yphenols": 6984,
      "hosa": 6985,
      "700": 6986,
      "GW": 6987,
      "iBC": 6988,
      "oiced": 6989,
      "xYY": 6990,
      "Ġtour": 6991,
      "Ġaff": 6992,
      "oris": 6993,
      "ental": 6994,
      "illy": 6995,
      "\\'))\\": 6996,
      "compress": 6997,
      "ivor": 6998,
      "ĠDol": 6999,
      "1990": 7000,
      "Ġpercent": 7001,
      "Ġsports": 7002,
      "Ġsigned": 7003,
      "ĠRequest": 7004,
      "ĠCreated": 7005,
      "Ġphr": 7006,
      "Ġmedals": 7007,
      "autodetector": 7008,
      "inctive": 7009,
      "Ġanniversary": 7010,
      "NVLK": 7011,
      "Ġbroadcasting": 7012,
      "sequent": 7013,
      "inema": 7014,
      "Ġapplications": 7015,
      "iBCNVLK": 7016,
      "iBCNVLKxYY": 7017,
      ")*": 7018,
      "BEg": 7019,
      "FR": 7020,
      "PMh": 7021,
      "hU": 7022,
      "jQR": 7023,
      "kG": 7024,
      "pel": 7025,
      "qx": 7026,
      "Ġ120": 7027,
      "ĠPop": 7028,
      "eframe": 7029,
      "Ġrar": 7030,
      "delta": 7031,
      "achiris": 7032,
      "Ġclim": 7033,
      "ĠKen": 7034,
      "ermany": 7035,
      "âĢĶ": 7036,
      "Ġ1963": 7037,
      "Ġwrapper": 7038,
      "YXJfYm": 7039,
      "kAHH": 7040,
      "ĠMalindi": 7041,
      "ĠDefine": 7042,
      "Ġrows": 7043,
      "ToManyField": 7044,
      "BEgpO": 7045,
      "PMhEC": 7046,
      "jQRPMhEC": 7047,
      "achirisu": 7048,
      "kAHHBEgpO": 7049,
      "As": 7050,
      "Sw": 7051,
      "aek": 7052,
      "bH": 7053,
      "kiH": 7054,
      "lper": 7055,
      "Ġsaw": 7056,
      "org": 7057,
      "edu": 7058,
      "iti": 7059,
      "__.__": 7060,
      "asts": 7061,
      "odd": 7062,
      "Ġ{\\'": 7063,
      "Ġbegan": 7064,
      "ĠLight": 7065,
      "ĠValidation": 7066,
      "Ġ[]": 7067,
      "operations": 7068,
      "aWNo": 7069,
      "ĠKhan": 7070,
      "ZWJl": 7071,
      "166": 7072,
      "ieko": 7073,
      "Ġchildhood": 7074,
      "ĠPhilipp": 7075,
      "=[\\'": 7076,
      "Ġfetching": 7077,
      "temp": 7078,
      "coordinate": 7079,
      "aternal": 7080,
      "Ġwatercol": 7081,
      "ĠBergmann": 7082,
      "xhcy": 7083,
      "YXJfYmxhY": 7084,
      "kiHiBCNVLKxYY": 7085,
      "aWNob": 7086,
      "ZWJlckBnbWFpbC": 7087,
      ")).": 7088,
      "CL": 7089,
      "Master": 7090,
      "Patch": 7091,
      "gow": 7092,
      "hZ": 7093,
      "ÅŁ": 7094,
      "ino": 7095,
      "Ġfurther": 7096,
      "Ġcelebr": 7097,
      "Ġinfer": 7098,
      "Ġnested": 7099,
      "Ġobs": 7100,
      "emi": 7101,
      "aggregate": 7102,
      "Ġ1947": 7103,
      "Ġstorm": 7104,
      "Ġhair": 7105,
      "orning": 7106,
      "Ġsyntax": 7107,
      "Ġ1979": 7108,
      "Ġamazon": 7109,
      "ĠArts": 7110,
      "ĠCream": 7111,
      "Ġposture": 7112,
      "ĠToday": 7113,
      "ĠAsia": 7114,
      "Ġfootballer": 7115,
      "rootcert": 7116,
      "parameter": 7117,
      "ĠReturn": 7118,
      "Ġprogressiva": 7119,
      "ĠGallagher": 7120,
      ")\\\"": 7121,
      "GY": 7122,
      "Ik": 7123,
      "Tu": 7124,
      "Vx": 7125,
      "arent": 7126,
      "cull": 7127,
      "âľ": 7128,
      "released": 7129,
      "entific": 7130,
      "Ġbasket": 7131,
      "Ġlittle": 7132,
      "ender": 7133,
      "ĠAustral": 7134,
      "ĠBA": 7135,
      "ĠRSVP": 7136,
      "Ġplan": 7137,
      "ixin": 7138,
      "igned": 7139,
      "Ġ600": 7140,
      "Ġsymbol": 7141,
      "brah": 7142,
      "\\\"\\\\\"\\": 7143,
      "Ġfollows": 7144,
      "ĠProduct": 7145,
      "Ġleader": 7146,
      "Ġtrig": 7147,
      "Ġcompletely": 7148,
      "ĠFinals": 7149,
      "DIRS": 7150,
      "ĠRobin": 7151,
      "Ġslides": 7152,
      "posonlyargs": 7153,
      "lasgow": 7154,
      "Could": 7155,
      "QcB": 7156,
      "Vw": 7157,
      "dim": 7158,
      "npage": 7159,
      "pqN": 7160,
      "rl": 7161,
      "rrY": 7162,
      "Ġsumm": 7163,
      "Ġserial": 7164,
      "alty": 7165,
      "owGW": 7166,
      "Ġisland": 7167,
      "ghz": 7168,
      "urity": 7169,
      "abin": 7170,
      "Ġ1915": 7171,
      "Ġexchange": 7172,
      "ĠWarri": 7173,
      "ĠDavid": 7174,
      "pty": 7175,
      "bGF": 7176,
      "ĠVian": 7177,
      "aWpqN": 7178,
      "achine": 7179,
      "coeff": 7180,
      "');": 7181,
      "ternatively": 7182,
      "Ġsignificant": 7183,
      "NzF": 7184,
      "NzMw": 7185,
      "ĠAng": 7186,
      "Ġreggae": 7187,
      "Ġdecade": 7188,
      "1000000": 7189,
      "Ġretrieval": 7190,
      "annes": 7191,
      "Ġ1956": 7192,
      "csGd": 7193,
      "PPowGW": 7194,
      "pped": 7195,
      "ĠAlexis": 7196,
      "Ġinvolving": 7197,
      "frE": 7198,
      "EgEI": 7199,
      "gvXP": 7200,
      "ristin": 7201,
      "Ġbelong": 7202,
      "cSrrY": 7203,
      "somewhat": 7204,
      "yePPowGW": 7205,
      "QcBfrE": 7206,
      "aWpqNcsGd": 7207,
      "NzMwNzF": 7208,
      "EgEIaWpqNcsGd": 7209,
      "gvXPEgEIaWpqNcsGd": 7210,
      "yePPowGWQcBfrE": 7211,
      "gvXPEgEIaWpqNcsGdghz": 7212,
      "82": 7213,
      "ANG": 7214,
      "List": 7215,
      "Ma": 7216,
      "ridd": 7217,
      "uaWNob": 7218,
      "ĠÃ": 7219,
      "Ġcy": 7220,
      "lephone": 7221,
      "Ġlobby": 7222,
      "true": 7223,
      "indices": 7224,
      "Ġcomments": 7225,
      "vert": 7226,
      "Ġ300": 7227,
      "1983": 7228,
      ")\")\\": 7229,
      "Ġtimeframe": 7230,
      "Ġ58": 7231,
      "Ġ1978": 7232,
      "tbytsaW": 7233,
      "tbytuaWNob": 7234,
      "Ġyouth": 7235,
      "while": 7236,
      "uZSsy": 7237,
      "Ġcatalog": 7238,
      "Ġtriple": 7239,
      "Ġdenied": 7240,
      "THON": 7241,
      "riginal": 7242,
      "ĠPostgreSQL": 7243,
      "threads": 7244,
      ">`": 7245,
      "Af": 7246,
      "cU": 7247,
      "dlYmV": 7248,
      "ibGF": 7249,
      "isinstance": 7250,
      "ĠNever": 7251,
      "Ġ1937": 7252,
      "Ġitems": 7253,
      "ĠEnsure": 7254,
      "ĠEMEA": 7255,
      "ĠLeg": 7256,
      "ĠUN": 7257,
      "ĠOcean": 7258,
      "bye": 7259,
      "plitArray": 7260,
      "ZXdlYmV": 7261,
      "Excellent": 7262,
      "Ġrecogn": 7263,
      "770": 7264,
      "Ġprovides": 7265,
      "NoZXdlYmV": 7266,
      "hammad": 7267,
      "keys": 7268,
      "architect": 7269,
      "Ġclosely": 7270,
      "Query": 7271,
      "ĠKorea": 7272,
      "Identifying": 7273,
      "Ġmoment": 7274,
      "pelin": 7275,
      "NoZXdlYmVyQGdtYWlsLmNvbSIsImV": 7276,
      ")]\\": 7277,
      "Esv": 7278,
      "Fub": 7279,
      "IVD": 7280,
      "RDI": 7281,
      "Wls": 7282,
      "gCZ": 7283,
      "nq": 7284,
      "nUL": 7285,
      "ps": 7286,
      "sGO": 7287,
      "vwa": 7288,
      "vtd": 7289,
      "yZUBnbWFpbC": 7290,
      "arhY": 7291,
      "Ġmaster": 7292,
      "ingIO": 7293,
      "owski": 7294,
      "thc": 7295,
      "primary": 7296,
      "una": 7297,
      "lli": 7298,
      "ĠMost": 7299,
      "ĠBu": 7300,
      "oose": 7301,
      "loss": 7302,
      "Ġchartered": 7303,
      "dbshell": 7304,
      "axis": 7305,
      "Ġappropr": 7306,
      "azl": 7307,
      "Ġ>=": 7308,
      "bGVyQGdtYWlsLmNvbSIsImV": 7309,
      "porting": 7310,
      "ĠAlternative": 7311,
      "Ġcommun": 7312,
      "Ġcontinent": 7313,
      "knY": 7314,
      "VDknY": 7315,
      "ltcLt": 7316,
      "Ġturned": 7317,
      "Ġeverything": 7318,
      "Ġexplore": 7319,
      "BYhW": 7320,
      "ĠExpressionWrapper": 7321,
      "HGg": 7322,
      "RMQZ": 7323,
      "Tuim": 7324,
      "FubWls": 7325,
      "IVDEsv": 7326,
      "nULg": 7327,
      "vtdVDknY": 7328,
      "arhYsGO": 7329,
      "ltcLtvtdVDknY": 7330,
      "BYhWno": 7331,
      "FubWlsbGVyQGdtYWlsLmNvbSIsImV": 7332,
      "Hb": 7333,
      "NU": 7334,
      "Ur": 7335,
      "case": 7336,
      "long": 7337,
      "pbG": 7338,
      "tures": 7339,
      "uette": 7340,
      "}{": 7341,
      "ergy": 7342,
      "isto": 7343,
      "Ġcatch": 7344,
      "Ġmiddle": 7345,
      "Ġmutually": 7346,
      "Ġinclusive": 7347,
      "Ġnode": 7348,
      "ilomet": 7349,
      ".\",\\": 7350,
      "ĠFood": 7351,
      "Ġplt": 7352,
      "Ġshoulders": 7353,
      "Ġ66": 7354,
      "Ġlogs": 7355,
      "Ġlogical": 7356,
      "inners": 7357,
      "setdefault": 7358,
      "\\\\\\\\\\\\\\\\": 7359,
      "Ġdev": 7360,
      "Ġearned": 7361,
      "Ġmusical": 7362,
      "Ġ./": 7363,
      "Ġpatterns": 7364,
      "ambia": 7365,
      "ĠFinance": 7366,
      "assertEqual": 7367,
      "Ġmetadata": 7368,
      "Ġillness": 7369,
      "ĠRetrie": 7370,
      "zzle": 7371,
      "ĠReppelin": 7372,
      "ĠComptoir": 7373,
      "Access": 7374,
      "Comm": 7375,
      "HC": 7376,
      "HO": 7377,
      "Mood": 7378,
      "XX": 7379,
      "cz": 7380,
      "pF": 7381,
      "rv": 7382,
      "Ġ\"_": 7383,
      "Ġbass": 7384,
      "ĠSome": 7385,
      "ĠWork": 7386,
      "ĠWindow": 7387,
      "ĠHug": 7388,
      "Ġparams": 7389,
      "Ġcompet": 7390,
      "denied": 7391,
      "Ġroy": 7392,
      "240": 7393,
      "ierra": 7394,
      "Ġbirds": 7395,
      "OTM": 7396,
      "ĠCombinable": 7397,
      "bshell": 7398,
      "bailey": 7399,
      "Input": 7400,
      "privates": 7401,
      "Ġlimited": 7402,
      "stitute": 7403,
      "decompress": 7404,
      "USERNAME": 7405,
      "Ġstatistics": 7406,
      "tbyttYXJfYmxhY": 7407,
      "Ġnarrow": 7408,
      "ĠSteve": 7409,
      "ascot": 7410,
      "520": 7411,
      "Br": 7412,
      "Of": 7413,
      "Yy": 7414,
      "mart": 7415,
      "tC": 7416,
      "Ġended": 7417,
      "Ġsilver": 7418,
      "Ġpast": 7419,
      "Ġwedding": 7420,
      "Ġhidden": 7421,
      "ĠHabit": 7422,
      "Ġfilename": 7423,
      "osing": 7424,
      "Ġunits": 7425,
      "brow": 7426,
      "physics": 7427,
      "ĠReFrame": 7428,
      "Ġproduced": 7429,
      "Ġfailure": 7430,
      "Ġkeys": 7431,
      "Ġ1964": 7432,
      "Ġinserted": 7433,
      "Ġcandidates": 7434,
      "Carthy": 7435,
      "ĠNasdaq": 7436,
      "Successfully": 7437,
      "ĠMcCarthy": 7438,
      "ĠMuhammad": 7439,
      "istocr": 7440,
      "(**": 7441,
      "Tests": 7442,
      "WH": 7443,
      "ZK": 7444,
      "break": 7445,
      "jP": 7446,
      "wanted": 7447,
      "yesterday": 7448,
      "Ġignore": 7449,
      "Ġmilitary": 7450,
      "icone": 7451,
      "integer": 7452,
      "calls": 7453,
      "adam": 7454,
      "plom": 7455,
      "ĠCase": 7456,
      "apur": 7457,
      "Ġ\\'\\'\\'": 7458,
      "ĠONL": 7459,
      "iburton": 7460,
      "ethicone": 7461,
      "icked": 7462,
      "Ġdiscovered": 7463,
      "Ġoldest": 7464,
      "ĠWhite": 7465,
      "setuponly": 7466,
      "Ġvariables": 7467,
      "interpreter": 7468,
      "Ġanimals": 7469,
      "ROOT": 7470,
      "Ġindicates": 7471,
      "scorer": 7472,
      "desc": 7473,
      "ĠHTML": 7474,
      "ochemistry": 7475,
      "Ġcollabor": 7476,
      "brahim": 7477,
      "ĠONLY": 7478,
      ":`": 7479,
      "CAS": 7480,
      "MM": 7481,
      "Nancy": 7482,
      "Simple": 7483,
      "Vi": 7484,
      "WT": 7485,
      "nfile": 7486,
      "paul": 7487,
      "Ġful": 7488,
      "Ġmath": 7489,
      "Ġmask": 7490,
      "\\\\):\\\\": 7491,
      "ircum": 7492,
      "istered": 7493,
      "rob": 7494,
      "traction": 7495,
      "ĠBoris": 7496,
      "Ġusually": 7497,
      "filepaths": 7498,
      "apped": 7499,
      "ectors": 7500,
      "Ġcompan": 7501,
      "ĠStanford": 7502,
      "\\\\\\\\.": 7503,
      "Ġpret": 7504,
      "retch": 7505,
      "Ġregular": 7506,
      "ĠMarsh": 7507,
      "=[],": 7508,
      "RlbStj": 7509,
      "super": 7510,
      "ĠHalliburton": 7511,
      "Ġrented": 7512,
      "distance": 7513,
      "Ġacademic": 7514,
      "430": 7515,
      "]).": 7516,
      "gp": 7517,
      "loop": 7518,
      "nodes": 7519,
      "rup": 7520,
      "ala": 7521,
      "itage": 7522,
      "__,": 7523,
      "Ġmer": 7524,
      "lee": 7525,
      "Ġwin": 7526,
      "oles": 7527,
      "except": 7528,
      "idra": 7529,
      "impute": 7530,
      "Ġ1901": 7531,
      "ĠDan": 7532,
      "Ġalumni": 7533,
      "ibra": 7534,
      "Ġjump": 7535,
      "full": 7536,
      "angered": 7537,
      "\\\"\\\"\\\")\\": 7538,
      "products": 7539,
      "reland": 7540,
      "Ġmanage": 7541,
      "Ġscientist": 7542,
      "Ġcommute": 7543,
      "singer": 7544,
      "Ġextensive": 7545,
      "ottage": 7546,
      "Ġrule": 7547,
      "prepare": 7548,
      "440": 7549,
      "DE": 7550,
      "Fh": 7551,
      "Li": 7552,
      "Mixin": 7553,
      "RAC": 7554,
      "Ta": 7555,
      "ao": 7556,
      "rF": 7557,
      "resting": 7558,
      "help": 7559,
      "Ġpk": 7560,
      "ouple": 7561,
      "Ġina": 7562,
      "nder": 7563,
      "amples": 7564,
      "aily": 7565,
      "union": 7566,
      "Ġnever": 7567,
      "selection": 7568,
      "ĠBond": 7569,
      "orest": 7570,
      "ĠFame": 7571,
      "lie": 7572,
      "ĠDaw": 7573,
      "ĠHidra": 7574,
      "Ġconcrete": 7575,
      "creen": 7576,
      "ĠGermany": 7577,
      "Ġ37": 7578,
      "iki": 7579,
      "aylor": 7580,
      "Ġsubmission": 7581,
      "readlines": 7582,
      "Ġ1971": 7583,
      "Ġ86": 7584,
      "avor": 7585,
      "Ġargparse": 7586,
      "ĠReleased": 7587,
      "Ġdistinctive": 7588,
      "rammy": 7589,
      "Ġtranslate": 7590,
      "oyal": 7591,
      "Ġexecute": 7592,
      "ĠFounded": 7593,
      "Ġinteresting": 7594,
      "Ġpretty": 7595,
      ")))\\": 7596,
      "SB": 7597,
      "SION": 7598,
      "Tag": 7599,
      "how": 7600,
      "nV": 7601,
      "zade": 7602,
      "onath": 7603,
      "isp": 7604,
      "Ġmachine": 7605,
      "Ġdr": 7606,
      "enthes": 7607,
      "Ġrepl": 7608,
      "stead": 7609,
      "ĠIsl": 7610,
      "Ġhabits": 7611,
      "tiff": 7612,
      "ameleon": 7613,
      "ĠMer": 7614,
      "ĠBo": 7615,
      "ĠDI": 7616,
      "Ġaristocr": 7617,
      "Ġprop": 7618,
      "ĠOb": 7619,
      "epenthes": 7620,
      "Ġsubsequent": 7621,
      "Ġ51": 7622,
      "Ġdetailed": 7623,
      "minzade": 7624,
      "Ġ<<\\\"": 7625,
      "Ġspent": 7626,
      "ĠProfessor": 7627,
      "inspir": 7628,
      "Ġroyal": 7629,
      "onathan": 7630,
      "minzadeh": 7631,
      "EF": 7632,
      "Louis": 7633,
      "Text": 7634,
      "morgan": 7635,
      "nicholas": 7636,
      "pid": 7637,
      "}\\'": 7638,
      "encing": 7639,
      "erland": 7640,
      "alex": 7641,
      "itor": 7642,
      "Ġbill": 7643,
      "\\\")\"": 7644,
      "Ġnomin": 7645,
      "elif": 7646,
      "ayed": 7647,
      "ira": 7648,
      "Ġcommit": 7649,
      "ĠDuckArray": 7650,
      "ĠGlasgow": 7651,
      "Ġcharg": 7652,
      "Ġheavy": 7653,
      "strings": 7654,
      "Ġformset": 7655,
      "Ġheads": 7656,
      "izza": 7657,
      "Ġstored": 7658,
      "years": 7659,
      "orthw": 7660,
      "Ã©e": 7661,
      "Ġreligion": 7662,
      "needle": 7663,
      "Ġanimated": 7664,
      "Ġactivity": 7665,
      "Ġembed": 7666,
      "ĠDelhi": 7667,
      "VISION": 7668,
      "ĠFilter": 7669,
      "ĠWarriors": 7670,
      "tiffness": 7671,
      "OG": 7672,
      "UT": 7673,
      "ees": 7674,
      "gd": 7675,
      "mD": 7676,
      "miller": 7677,
      "taker": 7678,
      "Ġfactory": 7679,
      "stud": 7680,
      "ĠIr": 7681,
      "ĠSister": 7682,
      "pyreverse": 7683,
      "contains": 7684,
      "ĠEach": 7685,
      "ĠLindsey": 7686,
      "ownloaded": 7687,
      "Ġrelative": 7688,
      "fili": 7689,
      "Ġformats": 7690,
      "nTo": 7691,
      "special": 7692,
      "nOr": 7693,
      "validators": 7694,
      "Ġresearcher": 7695,
      "ĠRobert": 7696,
      "Login": 7697,
      "Ġautodoc": 7698,
      "Ġsubscripts": 7699,
      "References": 7700,
      "ĠBahrain": 7701,
      "Ġconsultant": 7702,
      "ilometers": 7703,
      "NS": 7704,
      "World": 7705,
      "Xk": 7706,
      "hA": 7707,
      "uel": 7708,
      "via": 7709,
      "Ġsize": 7710,
      "Ġche": 7711,
      "Ġds": 7712,
      "third": 7713,
      "ĠNight": 7714,
      "ĠPubl": 7715,
      "ĠBakers": 7716,
      "atching": 7717,
      "Ġsubstring": 7718,
      "egan": 7719,
      "subplot": 7720,
      "Ġnewline": 7721,
      "].',": 7722,
      "Ġcenters": 7723,
      "ATH": 7724,
      "Ġprivately": 7725,
      "annah": 7726,
      "Ġrefine": 7727,
      "ĠCommandParser": 7728,
      "istoric": 7729,
      "Ġpagin": 7730,
      "================": 7731,
      "Ġparticularly": 7732,
      "DataArray": 7733,
      "Ġvenues": 7734,
      "Ġbiscuits": 7735,
      "!\\": 7736,
      "'\\\"))\\": 7737,
      ".)": 7738,
      "Caught": 7739,
      "Et": 7740,
      "ForeignKey": 7741,
      "Mx": 7742,
      "PM": 7743,
      "SC": 7744,
      "TT": 7745,
      "Zee": 7746,
      "lash": 7747,
      "ped": 7748,
      "selling": 7749,
      "zy": 7750,
      "input": 7751,
      "ences": 7752,
      "Ġfiction": 7753,
      "Ġ':": 7754,
      "Ġdictionary": 7755,
      "quart": 7756,
      "\\'\\'\\": 7757,
      "interview": 7758,
      "queryset": 7759,
      "ĠAthens": 7760,
      "road": 7761,
      "ĠMichael": 7762,
      "application": 7763,
      "Ġstories": 7764,
      "Ġshares": 7765,
      "ĠLibrary": 7766,
      "actress": 7767,
      "ĠGames": 7768,
      "Ġhelper": 7769,
      "1974": 7770,
      "rouper": 7771,
      "())\"}": 7772,
      "MjM": 7773,
      "Ġcoeff": 7774,
      "Ġpreced": 7775,
      "plicate": 7776,
      "Ġidentifying": 7777,
      "ĠArticle": 7778,
      "Ġdecor": 7779,
      "ZStzYWItYnJvd": 7780,
      "ĠIntegerField": 7781,
      "tivity": 7782,
      "Ġlarge": 7783,
      "EEE": 7784,
      "Ġscience": 7785,
      "Ġscientific": 7786,
      "Ġtown": 7787,
      "ĠElizabeth": 7788,
      "Fr": 7789,
      "French": 7790,
      "HNm": 7791,
      "Hpj": 7792,
      "IlY": 7793,
      "OMz": 7794,
      "PATH": 7795,
      "QqI": 7796,
      "Rel": 7797,
      "UHNm": 7798,
      "WsP": 7799,
      "WdW": 7800,
      "]`": 7801,
      "bO": 7802,
      "fpF": 7803,
      "kO": 7804,
      "ninx": 7805,
      "people": 7806,
      "qSh": 7807,
      "rock": 7808,
      "vfM": 7809,
      "wcU": 7810,
      "Ġess": 7811,
      "itAm": 7812,
      "Ġmascot": 7813,
      "aswcU": 7814,
      "Ġblob": 7815,
      "ilities": 7816,
      "Ġlight": 7817,
      "Ġlived": 7818,
      "ĠTown": 7819,
      "emale": 7820,
      "Ġgrand": 7821,
      "assador": 7822,
      "ĠMumbai": 7823,
      "ĠNe": 7824,
      "ldIlY": 7825,
      "force": 7826,
      "Ġcomment": 7827,
      "ĠDing": 7828,
      "ĠLi": 7829,
      "Ġappointed": 7830,
      "ineering": 7831,
      "ĠJama": 7832,
      "vih": 7833,
      "Ġcomput": 7834,
      "Ġdefense": 7835,
      "Ġ1984": 7836,
      "Ġattached": 7837,
      "Ġmyth": 7838,
      "ĠAny": 7839,
      "common": 7840,
      "alysis": 7841,
      "nyWdW": 7842,
      "fsBw": 7843,
      "BUv": 7844,
      "YmnyWdW": 7845,
      "eremonies": 7846,
      "vvBUv": 7847,
      "orthwest": 7848,
      "HpjOMz": 7849,
      "UHNmfsBw": 7850,
      "fpFvvBUv": 7851,
      "ninxBE": 7852,
      "vfMc": 7853,
      "itAmvfMc": 7854,
      "ldIlYitAmvfMc": 7855,
      "YmnyWdWVx": 7856,
      "HpjOMzninxBE": 7857,
      "Bu": 7858,
      "James": 7859,
      "Xiv": 7860,
      "lhs": 7861,
      "ufunc": 7862,
      "Ġeth": 7863,
      "onent": 7864,
      "arah": 7865,
      "Ġcook": 7866,
      "Ġnl": 7867,
      "actic": 7868,
      "\\').": 7869,
      "imin": 7870,
      "ĠIm": 7871,
      "ĠImp": 7872,
      "rio": 7873,
      "ands": 7874,
      "ĠBy": 7875,
      "Ġrust": 7876,
      "108": 7877,
      "constant": 7878,
      "165": 7879,
      "defaults": 7880,
      "manage": 7881,
      "...\\\")\\": 7882,
      "ĠHarper": 7883,
      "Ġprofession": 7884,
      "ĠManagement": 7885,
      "hasattr": 7886,
      "ĠTechnology": 7887,
      "decode": 7888,
      "ĠTodoist": 7889,
      "Ġpayer": 7890,
      "Ġexploring": 7891,
      "utalo": 7892,
      "ushroom": 7893,
      "ZStqby": 7894,
      "Ġreasonable": 7895,
      "Ġbiographical": 7896,
      "Ġindependence": 7897,
      "urkish": 7898,
      "Ġaristocratic": 7899,
      "/\\\\": 7900,
      "American": 7901,
      "BooleanField": 7902,
      "Cap": 7903,
      "FT": 7904,
      "NN": 7905,
      "So": 7906,
      "aq": 7907,
      "jg": 7908,
      "late": 7909,
      "sQGdtYWlsLmNvbSIsImV": 7910,
      "sleep": 7911,
      "alam": 7912,
      "Ġdims": 7913,
      "quired": 7914,
      "Ġlosing": 7915,
      "ady": 7916,
      "isters": 7917,
      "poss": 7918,
      "ĠCall": 7919,
      "ropped": 7920,
      "ielland": 7921,
      "']}": 7922,
      "Ġattributes": 7923,
      "timeout": 7924,
      "ĠReagan": 7925,
      "Ġdecre": 7926,
      "Ġscen": 7927,
      "Ġensures": 7928,
      "formatter": 7929,
      "migration": 7930,
      "Ġastroid": 7931,
      "save": 7932,
      "ĠCenter": 7933,
      "optional": 7934,
      "ADE": 7935,
      "ĠRecord": 7936,
      "ĠTuesdays": 7937,
      "Ġcompanies": 7938,
      "\">": 7939,
      "=$": 7940,
      "Cc": 7941,
      "Gradient": 7942,
      "Ij": 7943,
      "Med": 7944,
      "SkyCoord": 7945,
      "aver": 7946,
      "hol": 7947,
      "museum": 7948,
      "uZG": 7949,
      "Ġ^": 7950,
      "reh": 7951,
      "reec": 7952,
      "Ġaut": 7953,
      "Ġaired": 7954,
      "arn": 7955,
      "Ġfruit": 7956,
      "Ġbats": 7957,
      "ingu": 7958,
      "olly": 7959,
      "ĠICC": 7960,
      "istGradient": 7961,
      "**-": 7962,
      "ivil": 7963,
      "ĠHotel": 7964,
      "ĠEl": 7965,
      "urned": 7966,
      "izing": 7967,
      "ternal": 7968,
      "2003": 7969,
      "Ġformatting": 7970,
      "urchased": 7971,
      "Nov": 7972,
      "Ġguide": 7973,
      "passed": 7974,
      "raduate": 7975,
      "Ġexecuted": 7976,
      "party": 7977,
      "polylog": 7978,
      "Ġtypically": 7979,
      "ĠLucario": 7980,
      "Ġduplicates": 7981,
      "Ġinvitations": 7982,
      "Ġappropriate": 7983,
      "ircumc": 7984,
      "istGradientB": 7985,
      "({": 7986,
      "))\"}": 7987,
      ":/": 7988,
      "Au": 7989,
      "Ge": 7990,
      "Pk": 7991,
      "Paul": 7992,
      "Pizza": 7993,
      "TR": 7994,
      "bines": 7995,
      "festival": 7996,
      "uzzle": 7997,
      "xaxis": 7998,
      "})\\": 7999
    },
    "merges": [
      [
        "Ġ",
        "Ġ"
      ],
      [
        "i",
        "n"
      ],
      [
        "Ġ",
        "t"
      ],
      [
        "r",
        "e"
      ],
      [
        "o",
        "n"
      ],
      [
        "e",
        "n"
      ],
      [
        "Ġ",
        "a"
      ],
      [
        "e",
        "r"
      ],
      [
        "Ġ",
        "s"
      ],
      [
        "h",
        "e"
      ],
      [
        "o",
        "r"
      ],
      [
        "e",
        "s"
      ],
      [
        "a",
        "t"
      ],
      [
        "a",
        "r"
      ],
      [
        "e",
        "d"
      ],
      [
        "ĠĠ",
        "ĠĠ"
      ],
      [
        "a",
        "l"
      ],
      [
        "i",
        "s"
      ],
      [
        "a",
        "n"
      ],
      [
        "Ġ",
        "f"
      ],
      [
        "Ġt",
        "he"
      ],
      [
        "Ġ",
        "c"
      ],
      [
        "i",
        "t"
      ],
      [
        "Ġ",
        "p"
      ],
      [
        "e",
        "t"
      ],
      [
        "_",
        "_"
      ],
      [
        "o",
        "u"
      ],
      [
        "Ġ",
        "m"
      ],
      [
        "a",
        "s"
      ],
      [
        "Ġ",
        "\""
      ],
      [
        "c",
        "h"
      ],
      [
        "l",
        "e"
      ],
      [
        "Ġ",
        "w"
      ],
      [
        "Ġ",
        "'"
      ],
      [
        "t",
        "i"
      ],
      [
        "Ġ",
        "b"
      ],
      [
        "\\",
        "\""
      ],
      [
        "in",
        "g"
      ],
      [
        "ĠĠ",
        "Ġ"
      ],
      [
        "Ġ",
        "in"
      ],
      [
        "o",
        "m"
      ],
      [
        "Ġ",
        "d"
      ],
      [
        "Ġt",
        "o"
      ],
      [
        ")",
        "\\"
      ],
      [
        "en",
        "t"
      ],
      [
        "o",
        "l"
      ],
      [
        "o",
        "w"
      ],
      [
        "e",
        "ar"
      ],
      [
        "t",
        "o"
      ],
      [
        "Ġ",
        "n"
      ],
      [
        "a",
        "c"
      ],
      [
        "'",
        ":"
      ],
      [
        "Ġ",
        "re"
      ],
      [
        "es",
        "t"
      ],
      [
        "q",
        "u"
      ],
      [
        "m",
        "o"
      ],
      [
        "n",
        "d"
      ],
      [
        "e",
        "l"
      ],
      [
        "al",
        "l"
      ],
      [
        "ear",
        "ch"
      ],
      [
        "s",
        "t"
      ],
      [
        "i",
        "l"
      ],
      [
        "t",
        "h"
      ],
      [
        "a",
        "y"
      ],
      [
        "2",
        "0"
      ],
      [
        "Ġ",
        "l"
      ],
      [
        "Ġ",
        "-"
      ],
      [
        "\\",
        "\\"
      ],
      [
        "i",
        "on"
      ],
      [
        "i",
        "f"
      ],
      [
        "p",
        "r"
      ],
      [
        "Ġ",
        "("
      ],
      [
        "a",
        "m"
      ],
      [
        "o",
        "t"
      ],
      [
        "en",
        "mo"
      ],
      [
        "\"",
        ","
      ],
      [
        "i",
        "c"
      ],
      [
        "m",
        "ent"
      ],
      [
        "o",
        "d"
      ],
      [
        "\\",
        "'"
      ],
      [
        "in",
        "t"
      ],
      [
        "Ġ",
        "{"
      ],
      [
        "e",
        "x"
      ],
      [
        "Ġ",
        "o"
      ],
      [
        "i",
        "d"
      ],
      [
        "i",
        "m"
      ],
      [
        "s",
        "h"
      ],
      [
        "Ġ",
        "v"
      ],
      [
        "u",
        "s"
      ],
      [
        "Ġ",
        "I"
      ],
      [
        "Ġa",
        "nd"
      ],
      [
        "Ġ",
        "="
      ],
      [
        "u",
        "l"
      ],
      [
        "Ġ",
        "1"
      ],
      [
        "t",
        "s"
      ],
      [
        "Ġf",
        "or"
      ],
      [
        "to",
        "ol"
      ],
      [
        "c",
        "all"
      ],
      [
        "ti",
        "on"
      ],
      [
        "Ġ",
        "T"
      ],
      [
        "Ġ{",
        "'"
      ],
      [
        "e",
        "c"
      ],
      [
        "\"",
        ":"
      ],
      [
        "ĠĠĠĠ",
        "ĠĠĠ"
      ],
      [
        "a",
        "d"
      ],
      [
        "Ġs",
        "earch"
      ],
      [
        "sh",
        "ow"
      ],
      [
        "n",
        "t"
      ],
      [
        "Ġ",
        "is"
      ],
      [
        "at",
        "ion"
      ],
      [
        "es",
        "s"
      ],
      [
        "r",
        "i"
      ],
      [
        "Ġt",
        "h"
      ],
      [
        "at",
        "e"
      ],
      [
        "on",
        "e"
      ],
      [
        "o",
        "c"
      ],
      [
        "e",
        "m"
      ],
      [
        "Ġ",
        "20"
      ],
      [
        "Ġ",
        "h"
      ],
      [
        "Ġ",
        "S"
      ],
      [
        "c",
        "e"
      ],
      [
        "i",
        "r"
      ],
      [
        "Ġ",
        "g"
      ],
      [
        "is",
        "t"
      ],
      [
        "g",
        "h"
      ],
      [
        "it",
        "h"
      ],
      [
        "re",
        "s"
      ],
      [
        "'",
        ","
      ],
      [
        "'",
        "}"
      ],
      [
        "an",
        "d"
      ],
      [
        "Ġo",
        "f"
      ],
      [
        "L",
        "et"
      ],
      [
        ":",
        "\\"
      ],
      [
        "er",
        "y"
      ],
      [
        "a",
        "g"
      ],
      [
        "p",
        "l"
      ],
      [
        "v",
        "e"
      ],
      [
        "pr",
        "int"
      ],
      [
        "Ġm",
        "e"
      ],
      [
        "Ġw",
        "ith"
      ],
      [
        "en",
        "d"
      ],
      [
        "u",
        "r"
      ],
      [
        "u",
        "p"
      ],
      [
        "i",
        "le"
      ],
      [
        "u",
        "t"
      ],
      [
        "ti",
        "f"
      ],
      [
        "qu",
        "ery"
      ],
      [
        "p",
        "y"
      ],
      [
        "p",
        "o"
      ],
      [
        "gh",
        "t"
      ],
      [
        "a",
        "il"
      ],
      [
        "as",
        "s"
      ],
      [
        "on",
        "t"
      ],
      [
        "on",
        "g"
      ],
      [
        "u",
        "n"
      ],
      [
        "Ġn",
        "e"
      ],
      [
        "am",
        "e"
      ],
      [
        "t",
        "est"
      ],
      [
        "Ġ",
        "C"
      ],
      [
        "c",
        "om"
      ],
      [
        "od",
        "e"
      ],
      [
        "Ġ",
        "A"
      ],
      [
        "er",
        "s"
      ],
      [
        "c",
        "t"
      ],
      [
        "n",
        "print"
      ],
      [
        "r",
        "om"
      ],
      [
        "Ġv",
        "enmo"
      ],
      [
        "e",
        "y"
      ],
      [
        "r",
        "o"
      ],
      [
        ".",
        "\\"
      ],
      [
        "s",
        "e"
      ],
      [
        "l",
        "l"
      ],
      [
        "tif",
        "y"
      ],
      [
        "as",
        "h"
      ],
      [
        "t",
        "r"
      ],
      [
        "im",
        "p"
      ],
      [
        "Ġ",
        "M"
      ],
      [
        "ou",
        "t"
      ],
      [
        "a",
        "p"
      ],
      [
        "i",
        "O"
      ],
      [
        "u",
        "e"
      ],
      [
        "ou",
        "nt"
      ],
      [
        "an",
        "g"
      ],
      [
        "s",
        "earch"
      ],
      [
        "Ġne",
        "ed"
      ],
      [
        "ac",
        "c"
      ],
      [
        "or",
        "d"
      ],
      [
        "Ġ",
        "N"
      ],
      [
        "c",
        "ode"
      ],
      [
        "*",
        "*"
      ],
      [
        "a",
        "b"
      ],
      [
        "ay",
        "ment"
      ],
      [
        "u",
        "m"
      ],
      [
        "Ġb",
        "e"
      ],
      [
        "po",
        "tify"
      ],
      [
        "l",
        "y"
      ],
      [
        "'",
        "s"
      ],
      [
        "Ġ1",
        "9"
      ],
      [
        "Ġ",
        "P"
      ],
      [
        "t",
        "er"
      ],
      [
        "o",
        "g"
      ],
      [
        "h",
        "one"
      ],
      [
        "Ġn",
        "ot"
      ],
      [
        "i",
        "g"
      ],
      [
        "k",
        "en"
      ],
      [
        "Ġa",
        "n"
      ],
      [
        "ĠĠĠĠ",
        "ĠĠĠĠ"
      ],
      [
        "qu",
        "est"
      ],
      [
        "i",
        "J"
      ],
      [
        "ey",
        "J"
      ],
      [
        "iO",
        "iJ"
      ],
      [
        "Ġ",
        "B"
      ],
      [
        "c",
        "k"
      ],
      [
        "b",
        "ed"
      ],
      [
        "th",
        "ou"
      ],
      [
        "thou",
        "ght"
      ],
      [
        "Ġ",
        "Let"
      ],
      [
        "Ġ",
        "ex"
      ],
      [
        "in",
        "d"
      ],
      [
        "v",
        "enmo"
      ],
      [
        "Ġw",
        "h"
      ],
      [
        ".",
        "\","
      ],
      [
        "o",
        "re"
      ],
      [
        "ag",
        "e"
      ],
      [
        "or",
        "t"
      ],
      [
        "test",
        "bed"
      ],
      [
        "r",
        "y"
      ],
      [
        "i",
        "v"
      ],
      [
        "Ġ",
        "/"
      ],
      [
        "an",
        "s"
      ],
      [
        "Ġa",
        "s"
      ],
      [
        "ĠT",
        "he"
      ],
      [
        "o",
        "o"
      ],
      [
        "u",
        "b"
      ],
      [
        "Ġ",
        "if"
      ],
      [
        "Ġ",
        "F"
      ],
      [
        "Ġ",
        "us"
      ],
      [
        "Ġs",
        "t"
      ],
      [
        "p",
        "ec"
      ],
      [
        "l",
        "d"
      ],
      [
        "to",
        "ken"
      ],
      [
        "Ġ",
        "W"
      ],
      [
        "Ġth",
        "at"
      ],
      [
        "\"",
        "}"
      ],
      [
        "Ġ",
        "`"
      ],
      [
        "ul",
        "ts"
      ],
      [
        "he",
        "ck"
      ],
      [
        "Ġf",
        "rom"
      ],
      [
        "at",
        "h"
      ],
      [
        "(",
        "'"
      ],
      [
        "c",
        "c"
      ],
      [
        "m",
        "and"
      ],
      [
        "Ġ",
        "on"
      ],
      [
        "Ġ",
        "y"
      ],
      [
        "n",
        "ot"
      ],
      [
        "Ċ",
        "ĠĠĠ"
      ],
      [
        "Ġb",
        "y"
      ],
      [
        "l",
        "i"
      ],
      [
        "p",
        "ayment"
      ],
      [
        "er",
        "v"
      ],
      [
        "0",
        "0"
      ],
      [
        "2",
        "3"
      ],
      [
        "f",
        "or"
      ],
      [
        "ang",
        "o"
      ],
      [
        "j",
        "ango"
      ],
      [
        "i",
        "re"
      ],
      [
        "ex",
        "t"
      ],
      [
        "f",
        "ile"
      ],
      [
        "Ġs",
        "h"
      ],
      [
        "Ġp",
        "r"
      ],
      [
        "ar",
        "d"
      ],
      [
        "pr",
        "o"
      ],
      [
        "l",
        "s"
      ],
      [
        "Ġa",
        "t"
      ],
      [
        "I",
        "s"
      ],
      [
        "Ġc",
        "om"
      ],
      [
        "Ġ",
        "D"
      ],
      [
        "e",
        "f"
      ],
      [
        "Ġc",
        "ont"
      ],
      [
        "Ġ",
        "r"
      ],
      [
        "p",
        "t"
      ],
      [
        "ou",
        "nd"
      ],
      [
        "Ġw",
        "e"
      ],
      [
        "C",
        "I"
      ],
      [
        "Ġp",
        "hone"
      ],
      [
        "C",
        "J"
      ],
      [
        "{",
        "\""
      ],
      [
        "Ġ",
        "or"
      ],
      [
        "d",
        "oc"
      ],
      [
        "ou",
        "ld"
      ],
      [
        "\":",
        "\""
      ],
      [
        "Ġa",
        "r"
      ],
      [
        "c",
        "CI"
      ],
      [
        "Is",
        "I"
      ],
      [
        "com",
        "mand"
      ],
      [
        "Ġ",
        "\\\""
      ],
      [
        "\\\\",
        "\\\""
      ],
      [
        "an",
        "t"
      ],
      [
        "Ċ",
        "Ġ"
      ],
      [
        "n",
        "ame"
      ],
      [
        "acc",
        "ess"
      ],
      [
        "T",
        "he"
      ],
      [
        "oo",
        "k"
      ],
      [
        "Ġ",
        "H"
      ],
      [
        "at",
        "ed"
      ],
      [
        "b",
        "G"
      ],
      [
        "Ġ",
        "2"
      ],
      [
        "is",
        "or"
      ],
      [
        "Ġ",
        "it"
      ],
      [
        "up",
        "erv"
      ],
      [
        "Ġc",
        "on"
      ],
      [
        "uperv",
        "isor"
      ],
      [
        "d",
        "el"
      ],
      [
        "ĠĠĠĠ",
        "ĠĠĠĠĠĠĠ"
      ],
      [
        "imp",
        "ort"
      ],
      [
        "Ġw",
        "as"
      ],
      [
        "Ġg",
        "et"
      ],
      [
        "ri",
        "end"
      ],
      [
        "Ġ20",
        "1"
      ],
      [
        "ar",
        "t"
      ],
      [
        "c",
        "ont"
      ],
      [
        "Ġ",
        "R"
      ],
      [
        "if",
        "ic"
      ],
      [
        "Ġ",
        "E"
      ],
      [
        "i",
        "el"
      ],
      [
        "res",
        "ults"
      ],
      [
        "w",
        "ord"
      ],
      [
        "(",
        "\\\""
      ],
      [
        "re",
        "quest"
      ],
      [
        "Ġ",
        "&"
      ],
      [
        "Ġ",
        "L"
      ],
      [
        "s",
        "ong"
      ],
      [
        "iel",
        "d"
      ],
      [
        "Ġ",
        "V"
      ],
      [
        "Ġa",
        "p"
      ],
      [
        "Ġ",
        "["
      ],
      [
        "g",
        "et"
      ],
      [
        "u",
        "re"
      ],
      [
        "c",
        "l"
      ],
      [
        "in",
        "e"
      ],
      [
        "ass",
        "word"
      ],
      [
        ")",
        "."
      ],
      [
        "tion",
        "s"
      ],
      [
        "Ġ",
        "e"
      ],
      [
        "b",
        "ash"
      ],
      [
        "a",
        "k"
      ],
      [
        "\\\"",
        ")\\"
      ],
      [
        "Ġa",
        "cc"
      ],
      [
        "Ġs",
        "ong"
      ],
      [
        "Ġ&",
        "&"
      ],
      [
        "a",
        "in"
      ],
      [
        "all",
        "y"
      ],
      [
        "v",
        "er"
      ],
      [
        "c",
        "re"
      ],
      [
        "Ġs",
        "pec"
      ],
      [
        "for",
        "m"
      ],
      [
        "ac",
        "t"
      ],
      [
        "u",
        "ment"
      ],
      [
        "re",
        "nt"
      ],
      [
        "Ġs",
        "e"
      ],
      [
        "c",
        "d"
      ],
      [
        "Ġa",
        "re"
      ],
      [
        "Ġf",
        "ile"
      ],
      [
        "Ġh",
        "a"
      ],
      [
        "s",
        "y"
      ],
      [
        "it",
        "y"
      ],
      [
        "ir",
        "st"
      ],
      [
        "W",
        "I"
      ],
      [
        "i",
        "p"
      ],
      [
        "n",
        "R"
      ],
      [
        "Ġb",
        "ash"
      ],
      [
        "k",
        "p"
      ],
      [
        "st",
        "em"
      ],
      [
        "z",
        "d"
      ],
      [
        "z",
        "I"
      ],
      [
        "Ġs",
        "potify"
      ],
      [
        "ans",
        "ac"
      ],
      [
        "en",
        "v"
      ],
      [
        "ow",
        "n"
      ],
      [
        "I",
        "U"
      ],
      [
        "Ġre",
        "le"
      ],
      [
        "X",
        "V"
      ],
      [
        "Ġ",
        "G"
      ],
      [
        "N",
        "i"
      ],
      [
        "h",
        "bG"
      ],
      [
        "Ġs",
        "upervisor"
      ],
      [
        "Ġc",
        "heck"
      ],
      [
        "I",
        "kp"
      ],
      [
        "c",
        "iOiJ"
      ],
      [
        "eyJ",
        "hbG"
      ],
      [
        "IsI",
        "nR"
      ],
      [
        "IU",
        "zI"
      ],
      [
        "XV",
        "CJ"
      ],
      [
        "Ni",
        "IsInR"
      ],
      [
        "Ikp",
        "XVCJ"
      ],
      [
        "ciOiJ",
        "IUzI"
      ],
      [
        "eyJhbG",
        "ciOiJIUzI"
      ],
      [
        "eyJ",
        "zd"
      ],
      [
        "WI",
        "iOiJ"
      ],
      [
        "eyJzd",
        "WIiOiJ"
      ],
      [
        "ul",
        "t"
      ],
      [
        "l",
        "o"
      ],
      [
        "imp",
        "le"
      ],
      [
        "em",
        "ail"
      ],
      [
        "Ġ",
        "3"
      ],
      [
        "Ġa",
        "ll"
      ],
      [
        "Ġa",
        "b"
      ],
      [
        "Ġha",
        "ve"
      ],
      [
        ")",
        ")\\"
      ],
      [
        "o",
        "p"
      ],
      [
        "th",
        "on"
      ],
      [
        "Ġc",
        "h"
      ],
      [
        "f",
        "e"
      ],
      [
        "Ġl",
        "ist"
      ],
      [
        "l",
        "og"
      ],
      [
        "ar",
        "y"
      ],
      [
        "Ġspec",
        "ific"
      ],
      [
        "Ġpr",
        "int"
      ],
      [
        "at",
        "ch"
      ],
      [
        "i",
        "k"
      ],
      [
        "an",
        "ce"
      ],
      [
        "Ġt",
        "ry"
      ],
      [
        "Ġ",
        "\\'"
      ],
      [
        "el",
        "f"
      ],
      [
        "Ġ",
        "U"
      ],
      [
        "as",
        "k"
      ],
      [
        "or",
        "y"
      ],
      [
        "Ġp",
        "l"
      ],
      [
        ")",
        "\"}"
      ],
      [
        "i",
        "a"
      ],
      [
        "Ġ",
        "J"
      ],
      [
        "ir",
        "on"
      ],
      [
        "Ġ",
        "he"
      ],
      [
        "env",
        "iron"
      ],
      [
        "if",
        "y"
      ],
      [
        "ire",
        "ct"
      ],
      [
        "is",
        "h"
      ],
      [
        "r",
        "it"
      ],
      [
        "Ġc",
        "re"
      ],
      [
        "ac",
        "k"
      ],
      [
        "ur",
        "n"
      ],
      [
        "i",
        "es"
      ],
      [
        "Ġp",
        "ro"
      ],
      [
        "environ",
        "ment"
      ],
      [
        "Ġab",
        "out"
      ],
      [
        "acc",
        "ount"
      ],
      [
        "il",
        "l"
      ],
      [
        "c",
        "tion"
      ],
      [
        "Ġa",
        "l"
      ],
      [
        "Ġb",
        "ut"
      ],
      [
        "c",
        "p"
      ],
      [
        "Ġ",
        "**"
      ],
      [
        "1",
        "9"
      ],
      [
        "a",
        "W"
      ],
      [
        "Ġto",
        "ol"
      ],
      [
        "b",
        "e"
      ],
      [
        ")",
        ","
      ],
      [
        "as",
        "e"
      ],
      [
        "Ġf",
        "ound"
      ],
      [
        "Ġ",
        "qu"
      ],
      [
        "th",
        "er"
      ],
      [
        "sy",
        "stem"
      ],
      [
        "Ġre",
        "s"
      ],
      [
        "et",
        "e"
      ],
      [
        "ou",
        "r"
      ],
      [
        "a",
        "ch"
      ],
      [
        "u",
        "th"
      ],
      [
        "m",
        "ail"
      ],
      [
        "Ġf",
        "ind"
      ],
      [
        "ab",
        "le"
      ],
      [
        "s",
        "potify"
      ],
      [
        "Ġth",
        "is"
      ],
      [
        "i",
        "ch"
      ],
      [
        "'",
        "ll"
      ],
      [
        "=",
        "'"
      ],
      [
        "st",
        "r"
      ],
      [
        "Ġre",
        "quest"
      ],
      [
        "d",
        "ate"
      ],
      [
        "not",
        "e"
      ],
      [
        "y",
        "p"
      ],
      [
        "f",
        "rom"
      ],
      [
        "Ġrele",
        "v"
      ],
      [
        "e",
        "w"
      ],
      [
        "riend",
        "s"
      ],
      [
        "ay",
        "l"
      ],
      [
        "i",
        "x"
      ],
      [
        "Ġ",
        "O"
      ],
      [
        "u",
        "d"
      ],
      [
        "r",
        "or"
      ],
      [
        "Ġre",
        "t"
      ],
      [
        "Ġm",
        "cp"
      ],
      [
        "ation",
        "s"
      ],
      [
        "N",
        "D"
      ],
      [
        "res",
        "s"
      ],
      [
        "ĠV",
        "enmo"
      ],
      [
        "ig",
        "n"
      ],
      [
        "Ġt",
        "r"
      ],
      [
        "2",
        "1"
      ],
      [
        "mo",
        "del"
      ],
      [
        "ĠT",
        "h"
      ],
      [
        "i",
        "ght"
      ],
      [
        "d",
        "b"
      ],
      [
        "Ġf",
        "il"
      ],
      [
        "Ġm",
        "ore"
      ],
      [
        "ay",
        "be"
      ],
      [
        "Ġc",
        "an"
      ],
      [
        "Ġf",
        "irst"
      ],
      [
        "tr",
        "ansac"
      ],
      [
        "Ġt",
        "est"
      ],
      [
        "g",
        "mail"
      ],
      [
        "b",
        "y"
      ],
      [
        "Ġl",
        "ik"
      ],
      [
        "p",
        "assword"
      ],
      [
        "Ġd",
        "if"
      ],
      [
        "c",
        "ri"
      ],
      [
        "Ġ",
        "#"
      ],
      [
        "is",
        "ts"
      ],
      [
        "Ġrelev",
        "ant"
      ],
      [
        "b",
        "er"
      ],
      [
        "c",
        "he"
      ],
      [
        "Ġ20",
        "23"
      ],
      [
        "1",
        "0"
      ],
      [
        "Ġsh",
        "ould"
      ],
      [
        "Ġ",
        "import"
      ],
      [
        "o",
        "s"
      ],
      [
        "=",
        "\\\""
      ],
      [
        "c",
        "on"
      ],
      [
        "Ġt",
        "ask"
      ],
      [
        "cre",
        "ate"
      ],
      [
        ")\\",
        "\\"
      ],
      [
        "Ġwh",
        "o"
      ],
      [
        "Ġd",
        "oc"
      ],
      [
        "Ġa",
        "d"
      ],
      [
        "Ġ",
        "$"
      ],
      [
        "M",
        "T"
      ],
      [
        "e",
        "p"
      ],
      [
        "p",
        "hone"
      ],
      [
        "Ġd",
        "jango"
      ],
      [
        ")",
        ":\\"
      ],
      [
        "n",
        "Let"
      ],
      [
        "or",
        "k"
      ],
      [
        "Ġp",
        "ar"
      ],
      [
        "Ġ",
        "k"
      ],
      [
        "as",
        "t"
      ],
      [
        "ad",
        "d"
      ],
      [
        "n",
        "o"
      ],
      [
        "u",
        "st"
      ],
      [
        "Ġc",
        "l"
      ],
      [
        "w",
        "er"
      ],
      [
        "ap",
        "p"
      ],
      [
        "ti",
        "c"
      ],
      [
        "v",
        "i"
      ],
      [
        "Ġ",
        "un"
      ],
      [
        "p",
        "ath"
      ],
      [
        "re",
        "n"
      ],
      [
        "or",
        "n"
      ],
      [
        "at",
        "es"
      ],
      [
        ")",
        "\""
      ],
      [
        "ac",
        "ts"
      ],
      [
        "ls",
        "o"
      ],
      [
        "9",
        "0"
      ],
      [
        "Ġp",
        "y"
      ],
      [
        "\\'",
        ","
      ],
      [
        "is",
        "e"
      ],
      [
        "Ġy",
        "ear"
      ],
      [
        "od",
        "u"
      ],
      [
        "w",
        "e"
      ],
      [
        "r",
        "ou"
      ],
      [
        "v",
        "al"
      ],
      [
        "o",
        "st"
      ],
      [
        "Ġret",
        "urn"
      ],
      [
        "Ġs",
        "tr"
      ],
      [
        "er",
        "ify"
      ],
      [
        "ar",
        "g"
      ],
      [
        "en",
        "s"
      ],
      [
        "Ġp",
        "ayment"
      ],
      [
        "Ġs",
        "ub"
      ],
      [
        "al",
        "se"
      ],
      [
        "d",
        "jango"
      ],
      [
        "i",
        "b"
      ],
      [
        "re",
        "d"
      ],
      [
        "e",
        "g"
      ],
      [
        "yp",
        "e"
      ],
      [
        "Ġ",
        "6"
      ],
      [
        "'",
        ")\\"
      ],
      [
        "ĠW",
        "e"
      ],
      [
        "al",
        "s"
      ],
      [
        "t",
        "ing"
      ],
      [
        "Ġl",
        "ook"
      ],
      [
        "ĠĠĠĠĠĠĠĠ",
        "ĠĠĠĠĠĠĠ"
      ],
      [
        ".\",",
        "\""
      ],
      [
        "Ġsong",
        "s"
      ],
      [
        "Ġ",
        "|"
      ],
      [
        "Ġf",
        "in"
      ],
      [
        "Ġn",
        "ame"
      ],
      [
        "log",
        "in"
      ],
      [
        "2",
        "2"
      ],
      [
        "Ġh",
        "as"
      ],
      [
        "at",
        "us"
      ],
      [
        "ol",
        "d"
      ],
      [
        "Ġse",
        "e"
      ],
      [
        "ec",
        "t"
      ],
      [
        "Ġwh",
        "ich"
      ],
      [
        "b",
        "um"
      ],
      [
        "Ġd",
        "irect"
      ],
      [
        "Ġacc",
        "ess"
      ],
      [
        "Ġ'",
        "\""
      ],
      [
        "Ġv",
        "al"
      ],
      [
        "Ġt",
        "im"
      ],
      [
        "j",
        "o"
      ],
      [
        "it",
        "ion"
      ],
      [
        "model",
        "s"
      ],
      [
        "Ġl",
        "og"
      ],
      [
        "il",
        "d"
      ],
      [
        "i",
        "ed"
      ],
      [
        "s",
        "er"
      ],
      [
        "a",
        "x"
      ],
      [
        "el",
        "y"
      ],
      [
        "id",
        "en"
      ],
      [
        "Ġtool",
        "s"
      ],
      [
        "p",
        "er"
      ],
      [
        "iv",
        "ed"
      ],
      [
        "Ġv",
        "erify"
      ],
      [
        "in",
        "n"
      ],
      [
        "Ġ",
        "5"
      ],
      [
        "Ġp",
        "age"
      ],
      [
        "Ġ",
        "K"
      ],
      [
        "re",
        "ad"
      ],
      [
        "\",",
        "\\"
      ],
      [
        "\\\"",
        ","
      ],
      [
        "p",
        "tion"
      ],
      [
        "Ġad",
        "d"
      ],
      [
        "f",
        "ter"
      ],
      [
        "Ġcom",
        "p"
      ],
      [
        "Ġ",
        "out"
      ],
      [
        "im",
        "it"
      ],
      [
        "Ġd",
        "et"
      ],
      [
        "(",
        "\\'"
      ],
      [
        "Ġd",
        "ef"
      ],
      [
        "od",
        "el"
      ],
      [
        "s",
        "et"
      ],
      [
        "pl",
        "it"
      ],
      [
        "i",
        "ve"
      ],
      [
        "uth",
        "or"
      ],
      [
        "]",
        "\\"
      ],
      [
        "om",
        "e"
      ],
      [
        "ayl",
        "ist"
      ],
      [
        "Ġ",
        "+"
      ],
      [
        "doc",
        "ument"
      ],
      [
        "lo",
        "ad"
      ],
      [
        "u",
        "es"
      ],
      [
        "Ġp",
        "ass"
      ],
      [
        "as",
        "ed"
      ],
      [
        "Ġpy",
        "thon"
      ],
      [
        "O",
        "D"
      ],
      [
        "u",
        "ally"
      ],
      [
        "Ġa",
        "lso"
      ],
      [
        "t",
        "ext"
      ],
      [
        "Ġ",
        "4"
      ],
      [
        "s",
        "elf"
      ],
      [
        "Ġdif",
        "fe"
      ],
      [
        "d",
        "en"
      ],
      [
        "li",
        "k"
      ],
      [
        "up",
        "date"
      ],
      [
        "Ġ20",
        "0"
      ],
      [
        "Y",
        "W"
      ],
      [
        "Z",
        "W"
      ],
      [
        "b",
        "W"
      ],
      [
        "Ġn",
        "o"
      ],
      [
        "transac",
        "tion"
      ],
      [
        "Ġus",
        "er"
      ],
      [
        "f",
        "ield"
      ],
      [
        "iv",
        "ers"
      ],
      [
        "Ġap",
        "p"
      ],
      [
        "b",
        "j"
      ],
      [
        "qu",
        "e"
      ],
      [
        "n",
        "from"
      ],
      [
        "'",
        "t"
      ],
      [
        "id",
        "e"
      ],
      [
        ":",
        "\\\\"
      ],
      [
        "ab",
        "el"
      ],
      [
        "Ġs",
        "imple"
      ],
      [
        "1",
        "3"
      ],
      [
        ".",
        "."
      ],
      [
        "Ġf",
        "riends"
      ],
      [
        "-",
        "-"
      ],
      [
        "Ġthe",
        "re"
      ],
      [
        "form",
        "ation"
      ],
      [
        "del",
        "ete"
      ],
      [
        "Ġc",
        "all"
      ],
      [
        "ac",
        "e"
      ],
      [
        "d",
        "ay"
      ],
      [
        "Ġdiffe",
        "rent"
      ],
      [
        "s",
        "ub"
      ],
      [
        "own",
        "load"
      ],
[...]
